_pad_	0
_bos_	1
_eos_	2
_unk_	3
_sep_	4
_cls_	5
_mask_	6
_mimixsp_	7
_unused_	8
_unused_	9
_unused_	10
_unused_	11
_unused_	12
_unused_	13
_unused_	14
_unused_	15
_unused_	16
_unused_	17
_unused_	18
_unused_	19
_unused_	20
_unused_	21
_unused_	22
_unused_	23
_unused_	24
_unused_	25
_title_	26
_kw_	27
_mimixnl_	28
_5lv_	29
_7lv_	30
_5jue_	31
_7jue_	32
_shi_	33
_ci_	34
_lian_	35
_ancient_	36
_other_	37
_content_	38
_xinyun_	39
_paraphrase_	40
_expansion_	41
_5yan_	42
_7yan_	43
_4yan_	44
_qu_	45
_poet_	46
_lyric_	47
_noans_	48
_unused_	49
_unused_	50
_unused_	51
_unused_	52
_unused_	53
_unused_	54
_unused_	55
_unused_	56
_unused_	57
_unused_	58
_unused_	59
_unused_	60
_unused_	61
_unused_	62
_male_	63
_female_	64
_enzh_	65
_zhen_	66
_long_	67
_short_	68
_dec_	69
_int_	70
_imp_	71
_excl_	72
_happy_	73
_sad_	74
_surprise_	75
_fear_	76
_angry_	77
_neural_	78
_like_	79
_disgust_	80
_unused_	81
_unused_	82
_unused_	83
_unused_	84
_unused_	85
_unused_	86
_unused_	87
_unused_	88
_unused_	89
_unused_	90
_unused_	91
、	92
。	93
，	94
！	95
？	96
,	97
?	98
!	99
峥	100
这	101
功	102
力	103
自	104
己	105
很	106
严	107
肃	108
别	109
然	110
发	111
贝	112
尔	113
把	114
片	115
毁	116
觉	117
故	118
意	119
才	120
真	121
尴	122
尬	123
##0	124
潘	125
江	126
吗	127
首	128
推	129
郭	130
冬	131
临	132
部	133
来	134
春	135
晚	136
常	137
客	138
关	139
系	140
硬	141
虽	142
怎	143
么	144
但	145
好	146
像	147
强	148
吧	149
老	150
赵	151
们	152
个	153
候	154
台	155
词	156
内	157
心	158
啊	159
白	160
云	161
话	162
生	163
活	164
样	165
理	166
名	167
乐	168
里	169
杨	170
树	171
林	172
绝	173
分	174
辈	175
演	176
员	177
退	178
出	179
舞	180
几	181
乎	182
都	183
开	184
麻	185
花	186
跟	187
佳	188
算	189
可	190
佩	191
斯	192
朱	193
茂	194
啥	195
兴	196
趣	197
夏	198
洛	199
特	200
错	201
现	202
在	203
综	204
艺	205
节	206
目	207
做	208
##2	209
从	210
东	211
西	212
到	213
用	214
过	215
猛	216
奇	217
志	218
兵	219
贾	220
玲	221
些	222
秀	223
着	224
只	225
因	226
为	227
你	228
本	229
山	230
叔	231
和	232
何	233
合	234
气	235
息	236
浓	237
建	238
议	239
去	240
年	241
城	242
爱	243
表	244
基	245
靠	246
吼	247
两	248
相	249
声	250
:	251
蔡	252
明	253
每	254
次	255
拿	256
头	257
事	258
天	259
烦	260
恼	261
似	262
德	263
纲	264
屎	265
尿	266
屁	267
比	268
伟	269
光	270
正	271
玩	272
欣	273
赏	274
星	275
爷	276
原	277
找	278
需	279
红	280
上	281
升	282
尊	283
度	284
主	285
问	286
题	287
图	288
放	289
低	290
身	291
段	292
供	293
学	294
难	295
成	296
妹	297
子	298
惯	299
朋	300
友	301
交	302
定	303
兄	304
弟	305
俩	306
聊	307
加	308
太	309
留	310
给	311
微	312
信	313
缺	314
呗	315
富	316
冲	317
调	318
侃	319
虐	320
重	321
垃	322
圾	323
罕	324
见	325
估	326
计	327
离	328
步	329
漫	330
般	331
能	332
坚	333
持	334
久	335
挺	336
什	337
呀	338
普	339
通	340
日	341
思	342
杂	343
止	344
各	345
送	346
礼	347
物	348
女	349
宠	350
当	351
洗	352
袜	353
之	354
手	355
她	356
再	357
逼	358
直	359
接	360
滚	361
蛋	362
司	363
机	364
香	365
港	366
农	367
夫	368
恶	369
认	370
识	371
无	372
法	373
回	374
答	375
《	376
潜	377
狙	378
击	379
》	380
黄	381
较	382
容	383
易	384
受	385
美	386
|	387
界	388
排	389
斥	390
够	391
专	392
辑	393
水	394
平	395
烂	396
£	397
代	398
独	399
档	400
存	401
中	402
嘻	403
具	404
听	405
吴	406
彦	407
祖	408
起	409
唱	410
欧	411
阳	412
靖	413
早	414
王	415
宏	416
盖	417
世	418
英	419
雄	420
帮	421
忙	422
达	423
书	424
记	425
婆	426
呢	427
连	428
续	429
七	430
周	431
冠	432
军	433
吊	434
2	435
1	436
纪	437
初	438
文	439
化	440
肤	441
色	442
阶	443
摇	444
晃	445
脑	446
让	447
妙	448
尤	449
其	450
总	451
鼻	452
孔	453
写	454
摄	455
师	456
知	457
萝	458
拉	459
影	460
同	461
款	462
癫	463
堂	464
进	465
精	466
神	467
病	468
房	469
戏	470
晓	471
幂	472
薇	473
快	474
乱	475
叫	476
灵	477
弹	478
幕	479
刷	480
3	481
歌	482
编	483
残	484
历	485
史	486
9	487
6	488
7	489
月	490
广	491
州	492
电	493
视	494
单	495
纯	496
鹿	497
技	498
差	499
颜	500
值	501
角	502
解	503
千	504
陆	505
亦	506
哪	507
古	508
民	509
毛	510
虫	511
今	512
如	513
突	514
智	515
障	516
爆	517
孩	518
应	519
该	520
男	521
¤	522
群	523
哥	524
网	525
掏	526
钱	527
狗	528
媳	529
妇	530
懂	531
驰	532
映	533
室	534
威	535
列	536
卧	537
槽	538
岂	539
果	540
显	541
省	542
堆	543
姑	544
娘	545
骚	546
扰	547
清	548
闲	549
办	550
海	551
贼	552
金	553
沟	554
货	555
骗	556
十	557
八	558
九	559
万	560
讽	561
刺	562
态	563
盯	564
线	565
市	566
口	567
炸	568
价	569
谱	570
窝	571
蜂	572
地	573
业	574
少	575
收	576
入	577
优	578
资	579
源	580
深	581
浅	582
短	583
抱	584
丝	585
幻	586
碰	587
恋	588
动	589
追	590
期	591
处	592
互	593
即	594
使	595
触	596
颇	597
瞬	598
孤	599
终	600
遇	601
岁	602
刚	603
始	604
委	605
曲	606
求	607
全	608
啦	609
约	610
b	611
数	612
4	613
睡	614
尺	615
丈	616
量	617
先	618
足	619
吸	620
引	621
异	622
性	623
简	624
等	625
待	626
除	627
外	628
迹	629
键	630
于	631
方	632
式	633
双	634
眼	635
瞎	636
概	637
率	638
陷	639
幸	640
运	641
任	642
变	643
而	644
被	645
拒	646
死	647
创	648
造	649
彼	650
此	651
刮	652
谢	653
字	654
却	655
愿	656
惠	657
顾	658
张	659
挑	660
希	661
望	662
厢	663
判	664
断	665
非	666
谈	667
嗯	668
油	669
锋	670
蒂	671
芬	672
炊	673
班	674
宴	675
晏	676
誓	677
旦	678
由	679
轻	680
青	681
羡	682
慕	683
第	684
敢	685
暖	686
狐	687
狸	688
隐	689
姨	690
伴	691
善	692
良	693
gpa	694
考	695
试	696
野	697
铁	698
兰	699
科	700
院	701
毕	702
超	703
级	704
坑	705
域	706
讲	707
景	708
噢	709
读	710
完	711
新	712
闻	713
络	714
媒	715
体	716
研	717
8	718
5	719
竟	720
赞	721
祝	722
半	723
胖	724
吃	725
饺	726
北	727
狱	728
模	729
冷	730
降	731
保	732
三	733
状	734
校	735
转	736
疑	737
风	738
险	739
讨	740
论	741
念	742
肯	743
竞	744
争	745
摆	746
注	747
华	748
五	749
块	750
决	751
毅	752
位	753
打	754
份	755
职	756
请	757
公	758
务	759
猿	760
怕	761
程	762
序	763
选	764
辅	765
助	766
娜	767
迦	768
局	769
赢	770
取	771
路	772
闷	773
满	774
钟	775
边	776
至	777
鱼	778
告	779
诉	780
传	781
凭	782
守	783
波	784
c	785
鸡	786
火	787
枪	788
露	789
黑	790
巨	791
魔	792
仇	793
魂	794
阵	795
¥	796
针	797
游	798
危	799
戴	800
镜	801
汽	802
车	803
且	804
门	805
带	806
虑	807
术	808
熟	809
查	810
权	811
医	812
亲	813
戚	814
0	815
眩	816
或	817
干	818
课	819
护	820
四	821
哦	822
近	823
荒	824
谬	825
貌	826
辩	827
驳	828
伙	829
命	830
坐	831
板	832
球	833
累	834
响	835
散	836
暂	837
遗	838
症	839
夜	840
盲	841
激	842
矫	843
切	844
晶	845
安	846
随	847
失	848
况	849
证	850
睛	851
扯	852
淡	853
亮	854
飞	855
秒	856
据	857
并	858
碧	859
桂	860
园	861
预	862
场	863
管	864
楚	865
利	866
松	867
条	868
件	869
项	870
监	871
察	872
举	873
报	874
产	875
营	876
销	877
结	878
招	879
束	880
买	881
胆	882
集	883
团	884
offer	885
投	886
左	887
邻	888
居	889
购	890
庭	891
土	892
豪	893
亿	894
均	895
右	896
借	897
笔	898
健	899
跳	900
楼	901
便	902
准	903
置	904
福	905
财	906
穷	907
崩	908
努	909
爹	910
渠	911
诱	912
惑	913
姿	914
佛	915
沉	916
远	917
缠	918
郎	919
妻	920
妾	921
浮	922
躁	923
承	924
挫	925
折	926
弱	927
释	928
警	929
洪	930
巅	931
峰	932
惨	933
掉	934
破	935
案	936
卢	937
克	938
凯	939
侠	940
拳	941
季	942
碑	943
嘛	944
消	945
疯	946
狂	947
杀	948
恐	949
惧	950
壳	951
扔	952
巴	953
腊	954
肉	955
烧	956
烤	957
裸	958
奔	959
街	960
饼	961
苹	962
套	963
吓	964
赶	965
握	966
淘	967
宝	968
惊	969
统	970
喝	971
亡	972
假	973
官	974
震	975
x	976
妈	977
致	978
癌	979
究	980
示	981
吨	982
勃	983
走	984
端	985
众	986
i	987
phone	988
婚	989
冰	990
箱	991
控	992
温	993
遭	994
适	995
质	996
儿	997
耳	998
濡	999
染	1000
虎	1001
父	1002
犬	1003
ps	1004
蓝	1005
v	1006
维	1007
倒	1008
码	1009
iphone	1010
立	1011
版	1012
坏	1013
句	1014
脆	1015
届	1016
诺	1017
亚	1018
永	1019
格	1020
空	1021
售	1022
商	1023
修	1024
赖	1025
博	1026
者	1027
标	1028
猜	1029
挣	1030
熊	1031
与	1032
操	1033
厂	1034
组	1035
捧	1036
际	1037
积	1038
六	1039
略	1040
喷	1041
宾	1042
馆	1043
住	1044
恒	1045
沈	1046
归	1047
验	1048
绿	1049
料	1050
忍	1051
抢	1052
臭	1053
昭	1054
哎	1055
背	1056
low	1057
怪	1058
渐	1059
趋	1060
暴	1061
户	1062
肚	1063
墨	1064
围	1065
剿	1066
迪	1067
尼	1068
嫩	1069
熏	1070
陶	1071
聪	1072
伍	1073
吐	1074
dna	1075
棋	1076
势	1077
p	1078
衣	1079
馀	1080
膨	1081
胀	1082
仅	1083
压	1084
缩	1085
杠	1086
换	1087
宜	1088
拜	1089
托	1090
抛	1091
眯	1092
贡	1093
献	1094
咋	1095
鬼	1096
撸	1097
姥	1098
偷	1099
lol	1100
队	1101
输	1102
措	1103
施	1104
害	1105
祸	1106
霉	1107
怀	1108
柱	1109
责	1110
赔	1111
偿	1112
否	1113
南	1114
宁	1115
改	1116
装	1117
速	1118
km	1119
h	1120
芜	1121
湖	1122
穿	1123
党	1124
酷	1125
驾	1126
龄	1127
w	1128
热	1129
骑	1130
禁	1131
减	1132
负	1133
丑	1134
环	1135
辆	1136
扭	1137
跑	1138
逛	1139
横	1140
忌	1141
拍	1142
霸	1143
整	1144
素	1145
设	1146
岭	1147
区	1148
轮	1149
驱	1150
灯	1151
仔	1152
服	1153
根	1154
停	1155
醒	1156
印	1157
象	1158
支	1159
配	1160
撒	1161
混	1162
悉	1163
流	1164
庆	1165
舒	1166
它	1167
摩	1168
附	1169
脏	1170
费	1171
贵	1172
a	1173
l	1174
抽	1175
烟	1176
店	1177
贷	1178
按	1179
薪	1180
奖	1181
备	1182
付	1183
攒	1184
猴	1185
柴	1186
米	1187
盐	1188
勉	1189
傻	1190
厉	1191
梦	1192
彩	1193
票	1194
幼	1195
稚	1196
§	1197
汉	1198
瑞	1199
qq	1200
迅	1201
融	1202
某	1203
境	1204
未	1205
俭	1206
号	1207
巧	1208
落	1209
帝	1210
草	1211
母	1212
贴	1213
京	1214
昂	1215
赛	1216
淫	1217
勿	1218
则	1219
宽	1220
紫	1221
薯	1222
叠	1223
细	1224
规	1225
凉	1226
共	1227
nba	1228
扑	1229
涨	1230
封	1231
闭	1232
砸	1233
择	1234
航	1235
鼓	1236
励	1237
脸	1238
疼	1239
往	1240
磕	1241
牛	1242
础	1243
悲	1244
忘	1245
沙	1246
删	1247
频	1248
颗	1249
艾	1250
效	1251
拆	1252
迁	1253
悔	1254
租	1255
债	1256
符	1257
限	1258
移	1259
底	1260
桑	1261
许	1262
爸	1263
检	1264
益	1265
协	1266
攻	1267
丧	1268
藏	1269
池	1270
另	1271
刁	1272
零	1273
欺	1274
企	1275
跪	1276
舔	1277
芯	1278
净	1279
越	1280
例	1281
柔	1282
碗	1283
皂	1284
秦	1285
食	1286
木	1287
灰	1288
蕉	1289
抹	1290
嗤	1291
绢	1292
擦	1293
纸	1294
巾	1295
溶	1296
泥	1297
湿	1298
撮	1299
乡	1300
采	1301
澡	1302
豆	1303
污	1304
剂	1305
炒	1306
菜	1307
腿	1308
碱	1309
植	1310
榨	1311
汁	1312
尝	1313
洁	1314
社	1315
搓	1316
饭	1317
奢	1318
侈	1319
寿	1320
肥	1321
腐	1322
布	1323
丁	1324
炼	1325
浪	1326
荚	1327
指	1328
稻	1329
河	1330
粉	1331
磨	1332
猪	1333
沾	1334
舍	1335
蹲	1336
股	1337
蹭	1338
胰	1339
蒸	1340
馒	1341
锅	1342
槿	1343
叶	1344
患	1345
孕	1346
形	1347
治	1348
疗	1349
剥	1350
夺	1351
犯	1352
罪	1353
偏	1354
依	1355
旧	1356
弄	1357
疾	1358
赋	1359
予	1360
违	1361
义	1362
蒙	1363
族	1364
宗	1365
射	1366
箭	1367
夸	1368
制	1369
籍	1370
呐	1371
漂	1372
娶	1373
爽	1374
骆	1375
驼	1376
萨	1377
距	1378
雨	1379
防	1380
属	1381
羊	1382
洲	1383
凡	1384
扬	1385
卡	1386
拔	1387
照	1388
酒	1389
迎	1390
李	1391
寻	1392
棠	1393
武	1394
石	1395
观	1396
音	1397
阴	1398
姬	1399
敌	1400
败	1401
血	1402
唯	1403
盗	1404
凤	1405
冒	1406
萧	1407
刀	1408
龙	1409
傅	1410
雪	1411
额	1412
魅	1413
岛	1414
吹	1415
仰	1416
郑	1417
秋	1418
吕	1419
颂	1420
贤	1421
令	1422
典	1423
钦	1424
n	1425
俞	1426
玉	1427
俗	1428
犀	1429
夹	1430
胸	1431
淄	1432
继	1433
琼	1434
尉	1435
迟	1436
恭	1437
咳	1438
宅	1439
q	1440
苦	1441
盘	1442
奥	1443
ti	1444
迈	1445
坎	1446
扎	1447
庸	1448
罢	1449
©	1450
«	1451
仕	1452
奈	1453
lv	1454
逸	1455
kelly	1456
迷	1457
皮	1458
dior	1459
妃	1460
gucci	1461
®	1462
战	1463
辨	1464
倍	1465
prada	1466
牌	1467
chanel	1468
链	1469
搭	1470
mk	1471
°	1472
甩	1473
氓	1474
荐	1475
圣	1476
罗	1477
肩	1478
菲	1479
耐	1480
训	1481
±	1482
渣	1483
范	1484
呛	1485
辞	1486
劳	1487
士	1488
稍	1489
韩	1490
桶	1491
斩	1492
济	1493
驴	1494
琳	1495
仿	1496
澳	1497
卖	1498
袋	1499
酸	1500
cup	1501
枚	1502
亏	1503
稳	1504
弃	1505
gg	1506
曝	1507
登	1508
银	1509
捂	1510
裁	1511
詹	1512
姆	1513
抬	1514
肘	1515
顶	1516
吵	1517
喉	1518
斗	1519
核	1520
扣	1521
穆	1522
篮	1523
腰	1524
派	1525
贱	1526
殷	1527
诶	1528
胎	1529
哇	1530
葩	1531
唉	1532
慌	1533
耶	1534
恕	1535
逗	1536
甚	1537
姓	1538
叼	1539
练	1540
钢	1541
飘	1542
妥	1543
充	1544
棍	1545
划	1546
征	1547
瓜	1548
揉	1549
寝	1550
毒	1551
补	1552
抒	1553
肠	1554
莫	1555
捷	1556
伐	1557
哭	1558
脖	1559
颈	1560
²	1561
翻	1562
译	1563
姐	1564
腹	1565
隆	1566
mac	1567
侵	1568
摸	1569
软	1570
绵	1571
³	1572
材	1573
瓶	1574
椎	1575
剪	1576
喵	1577
圈	1578
误	1579
µ	1580
竖	1581
器	1582
脊	1583
敬	1584
咬	1585
甭	1586
领	1587
曾	1588
播	1589
寒	1590
录	1591
载	1592
饥	1593
渴	1594
侧	1595
缓	1596
副	1597
裙	1598
翘	1599
帕	1600
苏	1601
展	1602
裤	1603
妖	1604
盆	1605
厕	1606
佟	1607
丽	1608
娅	1609
彻	1610
极	1611
咔	1612
哆	1613
嗦	1614
索	1615
脚	1616
阿	1617
k	1618
踹	1619
逮	1620
猥	1621
琐	1622
¹	1623
兼	1624
腻	1625
向	1626
评	1627
骨	1628
倾	1629
趴	1630
腋	1631
阚	1632
锻	1633
赚	1634
º	1635
揪	1636
畜	1637
朕	1638
休	1639
凸	1640
滋	1641
呆	1642
歪	1643
滞	1644
型	1645
腩	1646
缝	1647
私	1648
站	1649
僵	1650
透	1651
爬	1652
挡	1653
诚	1654
构	1655
茫	1656
袖	1657
忽	1658
戒	1659
顿	1660
疙	1661
瘩	1662
丶	1663
呕	1664
撩	1665
拖	1666
棒	1667
虚	1668
o	1669
饿	1670
衰	1671
享	1672
嗨	1673
嘴	1674
凌	1675
晨	1676
牵	1677
暧	1678
昧	1679
拓	1680
昨	1681
床	1682
烈	1683
肾	1684
胃	1685
塞	1686
y	1687
g	1688
j	1689
u	1690
炮	1691
元	1692
递	1693
邮	1694
默	1695
奏	1696
唧	1697
午	1698
屈	1699
偶	1700
乖	1701
屏	1702
蔽	1703
懒	1704
截	1705
叹	1706
漏	1707
川	1708
耍	1709
掰	1710
蹬	1711
哒	1712
乔	1713
淮	1714
泗	1715
邢	1716
氏	1717
滨	1718
楞	1719
螳	1720
螂	1721
浙	1722
扁	1723
棕	1724
煤	1725
坡	1726
簸	1727
荠	1728
谷	1729
噶	1730
嘉	1731
»	1732
胶	1733
潮	1734
汕	1735
尖	1736
担	1737
村	1738
蚂	1739
蚱	1740
怂	1741
称	1742
闽	1743
坊	1744
丘	1745
坨	1746
稀	1747
厦	1748
勾	1749
蝈	1750
辣	1751
秘	1752
瓦	1753
召	1754
唤	1755
峡	1756
踪	1757
兹	1758
玛	1759
阁	1760
xx	1761
联	1762
盟	1763
遥	1764
育	1765
昌	1766
拱	1767
狼	1768
胡	1769
皇	1770
孝	1771
er	1772
蛐	1773
漱	1774
泰	1775
圆	1776
哨	1777
勒	1778
滑	1779
稽	1780
馨	1781
凶	1782
吉	1783
钩	1784
辽	1785
¼	1786
le	1787
ß	1788
葫	1789
芦	1790
诸	1791
暨	1792
磐	1793
戈	1794
绍	1795
杭	1796
旁	1797
箕	1798
躲	1799
æ	1800
爪	1801
衡	1802
冀	1803
牙	1804
签	1805
串	1806
将	1807
匠	1808
莽	1809
杖	1810
仗	1811
庄	1812
县	1813
锤	1814
dan	1815
弓	1816
ga	1817
man	1818
ø	1819
đ	1820
蔓	1821
gi	1822
蜜	1823
阜	1824
竹	1825
兽	1826
昆	1827
瘪	1828
唐	1829
禾	1830
虾	1831
糊	1832
画	1833
挂	1834
叉	1835
剑	1836
蝗	1837
恰	1838
褐	1839
隔	1840
搬	1841
砍	1842
罐	1843
蹦	1844
嘎	1845
泸	1846
爵	1847
ŋ	1848
囧	1849
蓉	1850
甲	1851
订	1852
ɔ	1853
墩	1854
俺	1855
掌	1856
佬	1857
述	1858
啷	1859
ə	1860
娄	1861
杰	1862
m	1863
孙	1864
jing	1865
ɡ	1866
璧	1867
章	1868
奶	1869
捉	1870
煎	1871
薛	1872
蛇	1873
鼠	1874
擀	1875
织	1876
猫	1877
蟒	1878
蛊	1879
丹	1880
t	1881
潍	1882
君	1883
甘	1884
徽	1885
豹	1886
ʰ	1887
ˇ	1888
增	1889
骂	1890
蝙	1891
梢	1892
灭	1893
刘	1894
密	1895
拟	1896
ˈ	1897
冈	1898
勺	1899
岳	1900
蚤	1901
濑	1902
拨	1903
葱	1904
嘚	1905
芒	1906
湘	1907
蜡	1908
膏	1909
咩	1910
ˊ	1911
杆	1912
壮	1913
朝	1914
ˋ	1915
ˍ	1916
ː	1917
˙	1918
陕	1919
d	1920
咧	1921
嘿	1922
骏	1923
架	1924
葛	1925
˚	1926
祥	1927
囊	1928
哏	1929
匿	1930
呵	1931
ling	1932
崂	1933
溜	1934
哐	1935
ˢ	1936
燥	1937
琦	1938
鲁	1939
α	1940
β	1941
苗	1942
啄	1943
憋	1944
糕	1945
桥	1946
跶	1947
洋	1948
旮	1949
泽	1950
曹	1951
萍	1952
仙	1953
啧	1954
γ	1955
曰	1956
chang	1957
灶	1958
府	1959
蛮	1960
δ	1961
ma	1962
镇	1963
枣	1964
席	1965
帽	1966
摘	1967
厘	1968
梗	1969
嗓	1970
舅	1971
ε	1972
zh	1973
ng	1974
η	1975
哩	1976
蜻	1977
蜓	1978
赤	1979
s	1980
咪	1981
绷	1982
愣	1983
兆	1984
柄	1985
呼	1986
懵	1987
塔	1988
梭	1989
蛰	1990
咕	1991
粤	1992
药	1993
罩	1994
忻	1995
酱	1996
隅	1997
蚊	1998
雀	1999
斑	2000
祛	2001
妆	2002
批	2003
免	2004
闯	2005
痒	2006
泊	2007
饰	2008
cc	2009
途	2010
堪	2011
忧	2012
诣	2013
rs	2014
仪	2015
雅	2016
籁	2017
丢	2018
导	2019
渡	2020
θ	2021
ι	2022
悬	2023
suv	2024
腾	2025
翼	2026
轴	2027
喔	2028
雷	2029
es	2030
乞	2031
丐	2032
plus	2033
鉴	2034
拥	2035
劲	2036
κ	2037
锦	2038
λ	2039
侯	2040
座	2041
测	2042
饱	2043
沛	2044
晕	2045
框	2046
噪	2047
锐	2048
耗	2049
窗	2050
玻	2051
璃	2052
萌	2053
pass	2054
麦	2055
弗	2056
逊	2057
匹	2058
斜	2059
庵	2060
尚	2061
庙	2062
μ	2063
既	2064
插	2065
阅	2066
泛	2067
栖	2068
霞	2069
溢	2070
ν	2071
ο	2072
and	2073
life	2074
契	2075
救	2076
童	2077
暗	2078
啤	2079
谅	2080
硫	2081
磺	2082
氨	2083
泡	2084
膜	2085
敷	2086
漾	2087
泉	2088
盏	2089
谨	2090
慎	2091
秃	2092
噜	2093
缇	2094
葡	2095
萄	2096
sk	2097
lab	2098
矿	2099
淋	2100
尾	2101
静	2102
撞	2103
滴	2104
匀	2105
伞	2106
汗	2107
践	2108
溅	2109
闪	2110
餐	2111
厅	2112
谓	2113
珠	2114
参	2115
垂	2116
蜗	2117
藻	2118
宋	2119
汤	2120
乘	2121
杯	2122
胳	2123
膊	2124
屋	2125
檐	2126
踏	2127
尽	2128
睁	2129
discovery	2130
卷	2131
f	2132
层	2133
坦	2134
瘦	2135
币	2136
授	2137
固	2138
函	2139
毫	2140
瓢	2141
泼	2142
宿	2143
占	2144
殊	2145
浇	2146
摔	2147
侮	2148
辱	2149
矢	2150
匆	2151
悠	2152
妨	2153
浴	2154
伯	2155
央	2156
介	2157
及	2158
嬴	2159
政	2160
琪	2161
避	2162
析	2163
搜	2164
伎	2165
怜	2166
兮	2167
霆	2168
杜	2169
返	2170
账	2171
tm	2172
茶	2173
税	2174
缘	2175
陌	2176
莞	2177
欠	2178
掩	2179
聋	2180
哑	2181
急	2182
泪	2183
兑	2184
惜	2185
暑	2186
犹	2187
豫	2188
ρ	2189
ς	2190
扮	2191
捐	2192
牲	2193
堑	2194
漠	2195
愧	2196
too	2197
young	2198
σ	2199
τ	2200
润	2201
催	2202
眠	2203
咯	2204
邪	2205
泯	2206
壁	2207
蠢	2208
趁	2209
虹	2210
卸	2211
田	2212
菊	2213
渊	2214
嫌	2215
押	2216
韵	2217
诗	2218
闹	2219
甫	2220
律	2221
殡	2222
肺	2223
绩	2224
md	2225
斤	2226
mini	2227
苍	2228
抗	2229
躺	2230
惭	2231
υ	2232
曼	2233
恢	2234
胚	2235
鹅	2236
晒	2237
艳	2238
芝	2239
雕	2240
vs	2241
帖	2242
鹤	2243
髦	2244
惹	2245
my	2246
拯	2247
痊	2248
愈	2249
驻	2250
坛	2251
痕	2252
脱	2253
痛	2254
您	2255
跨	2256
乳	2257
腺	2258
胜	2259
鞋	2260
胱	2261
腚	2262
审	2263
驹	2264
烨	2265
tvb	2266
梁	2267
姜	2268
焦	2269
访	2270
贫	2271
哀	2272
顺	2273
藕	2274
逻	2275
恬	2276
涉	2277
嫁	2278
嗜	2279
桌	2280
婿	2281
闺	2282
剃	2283
崽	2284
耻	2285
徒	2286
莓	2287
φ	2288
χ	2289
赠	2290
讯	2291
app	2292
vip	2293
敞	2294
浏	2295
览	2296
页	2297
缀	2298
windows	2299
xp	2300
蓄	2301
厚	2302
牟	2303
ψ	2304
阔	2305
ing	2306
弥	2307
珍	2308
刑	2309
卑	2310
嘞	2311
羽	2312
绒	2313
唠	2314
嗑	2315
辛	2316
攘	2317
痞	2318
诀	2319
恩	2320
拦	2321
悦	2322
奋	2323
笙	2324
哟	2325
呦	2326
矮	2327
眷	2328
眉	2329
唬	2330
捏	2331
ω	2332
醉	2333
聚	2334
а	2335
痹	2336
撕	2337
cm	2338
执	2339
龅	2340
冤	2341
孽	2342
lisa	2343
榕	2344
龟	2345
瞧	2346
慰	2347
愁	2348
彭	2349
吖	2350
阻	2351
cba	2352
auto	2353
б	2354
ci	2355
扒	2356
郁	2357
笼	2358
探	2359
茄	2360
盒	2361
碳	2362
燃	2363
氧	2364
氢	2365
e	2366
mc	2367
в	2368
含	2369
嫂	2370
狭	2371
窄	2372
燕	2373
ok	2374
挖	2375
灸	2376
肌	2377
臂	2378
崴	2379
摊	2380
筋	2381
迫	2382
蹈	2383
黛	2384
赫	2385
岩	2386
陪	2387
谋	2388
榜	2389
胭	2390
脂	2391
烽	2392
怖	2393
雇	2394
樊	2395
钗	2396
填	2397
赴	2398
卒	2399
璀	2400
璨	2401
卫	2402
霍	2403
匈	2404
奴	2405
俘	2406
伺	2407
遁	2408
逃	2409
袭	2410
刊	2411
墓	2412
抠	2413
雁	2414
御	2415
祁	2416
歼	2417
纠	2418
篇	2419
崇	2420
滕	2421
牢	2422
痴	2423
贺	2424
盛	2425
扛	2426
牧	2427
括	2428
喻	2429
郡	2430
宪	2431
gps	2432
г	2433
驸	2434
陵	2435
船	2436
挎	2437
拎	2438
怨	2439
烩	2440
荆	2441
憾	2442
末	2443
畔	2444
cbd	2445
墙	2446
贸	2447
汝	2448
郊	2449
棉	2450
蹄	2451
齐	2452
狠	2453
劝	2454
誉	2455
宫	2456
芈	2457
泄	2458
滥	2459
辜	2460
臆	2461
隋	2462
匪	2463
浒	2464
扈	2465
逵	2466
俊	2467
朽	2468
畏	2469
妄	2470
灌	2471
忠	2472
唆	2473
寨	2474
寇	2475
褒	2476
屠	2477
ktv	2478
喊	2479
坟	2480
圳	2481
旅	2482
寓	2483
钥	2484
匙	2485
锁	2486
坤	2487
梅	2488
伪	2489
森	2490
详	2491
诡	2492
鄙	2493
xxx	2494
掐	2495
俄	2496
恨	2497
拇	2498
粹	2499
愉	2500
纷	2501
湾	2502
牺	2503
匮	2504
乏	2505
丰	2506
鲜	2507
廷	2508
绪	2509
惕	2510
柯	2511
怼	2512
歧	2513
av	2514
嚷	2515
乌	2516
若	2517
acg	2518
д	2519
螺	2520
旋	2521
携	2522
启	2523
纤	2524
酵	2525
扶	2526
矩	2527
挥	2528
延	2529
垮	2530
灿	2531
垫	2532
拼	2533
盼	2534
裴	2535
倪	2536
姚	2537
荡	2538
勤	2539
栋	2540
窃	2541
橙	2542
肮	2543
粪	2544
堕	2545
high	2546
涩	2547
cctv	2548
汪	2549
俪	2550
澈	2551
怦	2552
沓	2553
枫	2554
筑	2555
е	2556
荣	2557
纶	2558
镁	2559
寂	2560
寞	2561
ж	2562
say	2563
з	2564
宛	2565
挨	2566
井	2567
桨	2568
铺	2569
妍	2570
奕	2571
莱	2572
坞	2573
柏	2574
霖	2575
伦	2576
莉	2577
挚	2578
go	2579
暹	2580
俱	2581
и	2582
к	2583
樱	2584
董	2585
郝	2586
蕾	2587
忆	2588
焰	2589
妮	2590
颐	2591
竭	2592
涛	2593
瘾	2594
耿	2595
绚	2596
莎	2597
凑	2598
xi	2599
怒	2600
no	2601
隙	2602
л	2603
street	2604
桐	2605
days	2606
of	2607
summer	2608
粥	2609
宇	2610
м	2611
н	2612
dream	2613
撼	2614
擅	2615
惆	2616
怅	2617
厄	2618
琴	2619
咖	2620
啡	2621
描	2622
荷	2623
盾	2624
琢	2625
刻	2626
о	2627
鸣	2628
邃	2629
枯	2630
谎	2631
喽	2632
school	2633
朗	2634
殖	2635
the	2636
girl	2637
next	2638
п	2639
唔	2640
茹	2641
悟	2642
攥	2643
涡	2644
昏	2645
培	2646
р	2647
膈	2648
翡	2649
翠	2650
悄	2651
诅	2652
咒	2653
椅	2654
拘	2655
粮	2656
趟	2657
姻	2658
悚	2659
с	2660
苛	2661
弯	2662
糟	2663
逞	2664
讪	2665
淀	2666
瘠	2667
呃	2668
朵	2669
т	2670
幽	2671
悸	2672
boss	2673
涯	2674
vr	2675
册	2676
旗	2677
嗮	2678
娃	2679
蝇	2680
虱	2681
讼	2682
厨	2683
谣	2684
澄	2685
舆	2686
娼	2687
抵	2688
咦	2689
裂	2690
废	2691
瞅	2692
у	2693
hip	2694
hop	2695
卵	2696
鸭	2697
ф	2698
履	2699
铜	2700
х	2701
ц	2702
蛙	2703
itunes	2704
乍	2705
ч	2706
ш	2707
nc	2708
ы	2709
嘲	2710
岔	2711
媚	2712
ar	2713
菩	2714
桩	2715
甜	2716
宣	2717
fan	2718
劣	2719
剩	2720
ь	2721
贪	2722
慈	2723
禧	2724
繁	2725
胁	2726
沦	2727
鸦	2728
鸿	2729
慨	2730
缔	2731
扫	2732
獒	2733
沫	2734
钻	2735
狮	2736
肢	2737
孟	2738
捕	2739
疣	2740
敲	2741
雌	2742
撵	2743
蓬	2744
鬣	2745
泌	2746
旺	2747
绕	2748
烫	2749
纹	2750
蜥	2751
笨	2752
鳄	2753
鲨	2754
滩	2755
岸	2756
猎	2757
屑	2758
睹	2759
役	2760
驯	2761
鞭	2762
碾	2763
筝	2764
猩	2765
铠	2766
敏	2767
瑟	2768
曦	2769
歹	2770
肛	2771
骡	2772
飚	2773
mm	2774
棱	2775
稼	2776
娇	2777
橘	2778
鲸	2779
悍	2780
毋	2781
sorry	2782
鳌	2783
宙	2784
歉	2785
遛	2786
撑	2787
惩	2788
cd	2789
壶	2790
颚	2791
摁	2792
粗	2793
膘	2794
钝	2795
蜘	2796
蛛	2797
珂	2798
丛	2799
狩	2800
辉	2801
煌	2802
麒	2803
麟	2804
镰	2805
肪	2806
矛	2807
哮	2808
洒	2809
伏	2810
番	2811
浑	2812
哺	2813
搏	2814
擒	2815
勇	2816
糙	2817
齿	2818
桃	2819
卜	2820
嚣	2821
碎	2822
翅	2823
鹏	2824
鸟	2825
邹	2826
鼬	2827
kg	2828
匡	2829
绽	2830
溃	2831
捅	2832
崔	2833
涂	2834
book	2835
痰	2836
涌	2837
窍	2838
盈	2839
灼	2840
膀	2841
炎	2842
窦	2843
哗	2844
茬	2845
碴	2846
搐	2847
壤	2848
哉	2849
鳗	2850
娆	2851
沧	2852
邦	2853
刃	2854
沸	2855
侄	2856
梆	2857
腔	2858
循	2859
绑	2860
style	2861
哔	2862
扩	2863
卓	2864
拽	2865
蒜	2866
菌	2867
亢	2868
я	2869
dota	2870
і	2871
踢	2872
cf	2873
cs	2874
斧	2875
ob	2876
dc	2877
ا	2878
凝	2879
ب	2880
mvp	2881
骄	2882
傲	2883
逆	2884
髓	2885
扳	2886
梯	2887
ة	2888
谦	2889
申	2890
cn	2891
ت	2892
tv	2893
炉	2894
د	2895
邀	2896
ر	2897
س	2898
ع	2899
best	2900
宵	2901
熬	2902
nice	2903
噗	2904
shadow	2905
chinese	2906
nb	2907
usa	2908
china	2909
绅	2910
蝠	2911
ل	2912
م	2913
啰	2914
添	2915
枉	2916
吾	2917
ن	2918
披	2919
揽	2920
癞	2921
眶	2922
冻	2923
ه	2924
拾	2925
缴	2926
振	2927
址	2928
硕	2929
翁	2930
و	2931
r	2932
耀	2933
诞	2934
ي	2935
屹	2936
翔	2937
۩	2938
获	2939
ก	2940
ง	2941
酬	2942
am	2943
น	2944
嫖	2945
赌	2946
惦	2947
揭	2948
谜	2949
惟	2950
肖	2951
real	2952
ae	2953
馁	2954
俏	2955
乃	2956
皆	2957
yy	2958
簿	2959
弊	2960
薰	2961
usb	2962
绳	2963
婉	2964
嫣	2965
霓	2966
陀	2967
膝	2968
ni	2969
shi	2970
ม	2971
ย	2972
li	2973
ร	2974
bi	2975
gay	2976
碍	2977
疤	2978
禅	2979
衬	2980
璐	2981
sp	2982
玫	2983
瑰	2984
edge	2985
库	2986
俨	2987
hr	2988
z	2989
晗	2990
侍	2991
奉	2992
晋	2993
策	2994
鄞	2995
塘	2996
溪	2997
殃	2998
阐	2999
婴	3000
懦	3001
遵	3002
秉	3003
耽	3004
粑	3005
嘶	3006
罚	3007
吞	3008
咽	3009
茅	3010
颤	3011
苟	3012
愚	3013
侣	3014
殆	3015
毡	3016
嫉	3017
妒	3018
搁	3019
忏	3020
瞒	3021
搅	3022
it	3023
is	3024
up	3025
to	3026
you	3027
廉	3028
捣	3029
寄	3030
聘	3031
颖	3032
凰	3033
祈	3034
祷	3035
sb	3036
埃	3037
娱	3038
咨	3039
询	3040
碌	3041
逐	3042
革	3043
晴	3044
挽	3045
臣	3046
袁	3047
懿	3048
尘	3049
潇	3050
อ	3051
溥	3052
芳	3053
困	3054
喧	3055
挪	3056
in	3057
god	3058
we	3059
า	3060
瓷	3061
杉	3062
矶	3063
胞	3064
纬	3065
汐	3066
猝	3067
驶	3068
跃	3069
磁	3070
筐	3071
粒	3072
pm	3073
掘	3074
轨	3075
乒	3076
乓	3077
黝	3078
弧	3079
纳	3080
堡	3081
兜	3082
洞	3083
秤	3084
抄	3085
粘	3086
稿	3087
脾	3088
儒	3089
蚁	3090
仲	3091
捞	3092
เ	3093
寸	3094
mix	3095
筒	3096
or	3097
凋	3098
淑	3099
扇	3100
疲	3101
ip	3102
堵	3103
允	3104
闵	3105
颠	3106
喱	3107
噩	3108
诊	3109
砖	3110
械	3111
槛	3112
促	3113
挤	3114
乙	3115
醇	3116
ab	3117
怠	3118
损	3119
拮	3120
裕	3121
撤	3122
bb	3123
劫	3124
戳	3125
臼	3126
pad	3127
砂	3128
储	3129
仓	3130
锡	3131
js	3132
贬	3133
淹	3134
囤	3135
灾	3136
๑	3137
་	3138
骇	3139
跌	3140
note	3141
阀	3142
坯	3143
旭	3144
铝	3145
瘁	3146
抑	3147
菠	3148
玄	3149
栏	3150
硅	3151
柜	3152
潢	3153
炳	3154
巷	3155
饮	3156
冯	3157
摧	3158
丸	3159
贿	3160
赂	3161
谴	3162
ღ	3163
吻	3164
ᄀ	3165
禽	3166
肋	3167
噱	3168
air	3169
ᄁ	3170
yoga	3171
瑕	3172
疵	3173
薄	3174
new	3175
macbook	3176
pro	3177
吏	3178
雾	3179
霾	3180
呻	3181
吟	3182
墅	3183
庞	3184
兔	3185
宰	3186
get	3187
绰	3188
臀	3189
ᄂ	3190
喂	3191
矬	3192
叨	3193
ᄃ	3194
叙	3195
廊	3196
wu	3197
垄	3198
寡	3199
茨	3200
幅	3201
畅	3202
帧	3203
ppt	3204
纱	3205
浩	3206
陋	3207
津	3208
藤	3209
螃	3210
蟹	3211
涵	3212
颁	3213
梨	3214
龌	3215
龊	3216
咏	3217
署	3218
汰	3219
靳	3220
砌	3221
ᄅ	3222
who	3223
she	3224
颧	3225
奚	3226
瑶	3227
铲	3228
毯	3229
tony	3230
梳	3231
沃	3232
糖	3233
edm	3234
ᄆ	3235
alan	3236
walker	3237
dj	3238
黎	3239
绎	3240
雯	3241
婕	3242
ᄇ	3243
ᄈ	3244
酪	3245
ᄉ	3246
ᄋ	3247
谭	3248
嗣	3249
something	3250
just	3251
like	3252
this	3253
鸽	3254
ᄌ	3255
ᄎ	3256
ᄏ	3257
ᄐ	3258
ᄑ	3259
贞	3260
ᄒ	3261
ᅡ	3262
let	3263
me	3264
love	3265
靓	3266
ᅢ	3267
city	3268
鹰	3269
逝	3270
酌	3271
怡	3272
揍	3273
ᅣ	3274
ᅥ	3275
焉	3276
噎	3277
ᅦ	3278
氛	3279
ᅧ	3280
vivo	3281
ᅨ	3282
fb	3283
ᅩ	3284
咙	3285
沿	3286
刹	3287
喘	3288
拌	3289
ᅪ	3290
割	3291
腕	3292
椒	3293
狄	3294
枸	3295
杞	3296
逢	3297
寥	3298
濒	3299
垒	3300
baby	3301
辟	3302
煞	3303
焊	3304
ᅬ	3305
踩	3306
钉	3307
缅	3308
倡	3309
邓	3310
仁	3311
ᅭ	3312
鼎	3313
冶	3314
嵩	3315
巍	3316
蒲	3317
轩	3318
浚	3319
肇	3320
ph	3321
邱	3322
铭	3323
ᅮ	3324
弈	3325
do	3326
sf	3327
黯	3328
朴	3329
鲲	3330
steam	3331
moba	3332
ᅯ	3333
ad	3334
war	3335
rmb	3336
ᅲ	3337
bp	3338
ac	3339
bug	3340
bat	3341
炫	3342
叛	3343
辖	3344
ᅳ	3345
愤	3346
ᅴ	3347
妞	3348
汇	3349
泳	3350
婷	3351
atm	3352
撇	3353
巡	3354
蝴	3355
蝶	3356
澎	3357
湃	3358
rpg	3359
絮	3360
ᅵ	3361
佣	3362
坠	3363
ak	3364
leave	3365
ᆨ	3366
ᆫ	3367
艰	3368
栅	3369
埋	3370
脉	3371
姗	3372
艇	3373
舰	3374
衍	3375
毙	3376
翰	3377
欲	3378
纵	3379
兀	3380
株	3381
ᆯ	3382
诛	3383
睦	3384
贯	3385
wifi	3386
著	3387
衅	3388
讹	3389
恳	3390
棵	3391
cpu	3392
嚼	3393
杏	3394
漆	3395
沥	3396
液	3397
浆	3398
舌	3399
煮	3400
its	3401
ᆷ	3402
ᆸ	3403
fans	3404
ᆺ	3405
巢	3406
鳖	3407
仍	3408
讶	3409
why	3410
怯	3411
out	3412
ᆻ	3413
scott	3414
ball	3415
潭	3416
hiv	3417
捡	3418
碟	3419
motel	3420
only	3421
when	3422
ᆼ	3423
light	3424
ᗜ	3425
哼	3426
衷	3427
柬	3428
黏	3429
绞	3430
玷	3431
眨	3432
ex	3433
疚	3434
扉	3435
澜	3436
jpg	3437
侥	3438
醺	3439
恍	3440
惚	3441
ᵃ	3442
捋	3443
戾	3444
诽	3445
谤	3446
ᵉ	3447
ji	3448
吭	3449
嘘	3450
涤	3451
yin	3452
word	3453
basic	3454
sao	3455
怔	3456
ᵍ	3457
浦	3458
醛	3459
肿	3460
痔	3461
疮	3462
ins	3463
ᵏ	3464
肝	3465
酗	3466
丫	3467
藿	3468
酶	3469
ᵐ	3470
level	3471
top	3472
屯	3473
ko	3474
晦	3475
姣	3476
糜	3477
潦	3478
禀	3479
沪	3480
恃	3481
裹	3482
柳	3483
芽	3484
ᵒ	3485
衩	3486
碉	3487
dd	3488
伸	3489
钓	3490
渝	3491
芙	3492
钙	3493
吱	3494
戬	3495
adc	3496
ap	3497
轲	3498
惇	3499
铂	3500
瘤	3501
轰	3502
韧	3503
ᵘ	3504
咤	3505
魇	3506
亨	3507
咸	3508
捎	3509
剔	3510
蝉	3511
buff	3512
‖	3513
„	3514
劈	3515
栽	3516
solo	3517
犊	3518
绊	3519
pk	3520
†	3521
削	3522
抉	3523
dnf	3524
莲	3525
•	3526
佑	3527
镯	3528
崭	3529
咆	3530
啪	3531
壕	3532
嘤	3533
wow	3534
fifa	3535
ol	3536
骰	3537
倩	3538
盔	3539
‥	3540
伢	3541
icloud	3542
狡	3543
猾	3544
飙	3545
阱	3546
纽	3547
蘑	3548
菇	3549
鲍	3550
jj	3551
轿	3552
嗷	3553
渭	3554
榆	3555
羞	3556
‧	3557
蟑	3558
馅	3559
煲	3560
铸	3561
硝	3562
沐	3563
涮	3564
筷	3565
粽	3566
aa	3567
卤	3568
笋	3569
糠	3570
蘸	3571
free	3572
##1	3573
bird	3574
‰	3575
塌	3576
tt	3577
骤	3578
pp	3579
韭	3580
gdp	3581
沂	3582
僻	3583
缚	3584
bc	3585
橡	3586
en	3587
′	3588
im	3589
″	3590
渤	3591
‹	3592
›	3593
渍	3594
拐	3595
豁	3596
踝	3597
jack	3598
se	3599
※	3600
max	3601
gb	3602
贩	3603
淆	3604
旷	3605
倦	3606
酿	3607
‿	3608
hp	3609
巫	3610
枕	3611
觅	3612
⁄	3613
傍	3614
碜	3615
赁	3616
ⁱ	3617
擎	3618
逍	3619
sa	3620
甥	3621
帐	3622
⁺	3623
gs	3624
ⁿ	3625
gl	3626
夕	3627
嚒	3628
谍	3629
渺	3630
cp	3631
ios	3632
oppo	3633
mx	3634
ui	3635
miui	3636
root	3637
os	3638
臃	3639
metal	3640
mate	3641
襟	3642
lg	3643
₁	3644
檬	3645
骁	3646
₂	3647
₃	3648
₄	3649
nexus	3650
诟	3651
虏	3652
崎	3653
裆	3654
喇	3655
叭	3656
€	3657
龈	3658
疡	3659
痘	3660
excel	3661
肆	3662
铃	3663
募	3664
匕	3665
挟	3666
聂	3667
铅	3668
剁	3669
匣	3670
陛	3671
殿	3672
烹	3673
泣	3674
叽	3675
miss	3676
℃	3677
崛	3678
咎	3679
№	3680
™	3681
槟	3682
ⅰ	3683
悼	3684
燎	3685
ⅱ	3686
nt	3687
office	3688
撬	3689
侏	3690
蜴	3691
镖	3692
韦	3693
赎	3694
窟	3695
赘	3696
憨	3697
咄	3698
die	3699
mv	3700
俯	3701
瞰	3702
茎	3703
疏	3704
ⅲ	3705
暮	3706
薅	3707
桓	3708
垣	3709
ⅳ	3710
婊	3711
缆	3712
ⅴ	3713
券	3714
揣	3715
←	3716
↑	3717
倔	3718
拢	3719
哽	3720
kb	3721
邵	3722
醋	3723
膳	3724
篓	3725
菱	3726
馋	3727
number	3728
one	3729
讧	3730
锄	3731
渗	3732
→	3733
↓	3734
↔	3735
诵	3736
惮	3737
嗲	3738
boy	3739
嬷	3740
↗	3741
↘	3742
iu	3743
pd	3744
饲	3745
疫	3746
赊	3747
瞄	3748
捍	3749
熔	3750
援	3751
衔	3752
旬	3753
榴	3754
彪	3755
楷	3756
淇	3757
狰	3758
狞	3759
⇒	3760
log	3761
ck	3762
channel	3763
logo	3764
∀	3765
−	3766
癖	3767
cl	3768
蛀	3769
∕	3770
莹	3771
掺	3772
蒋	3773
甄	3774
钰	3775
僚	3776
瞪	3777
amg	3778
fa	3779
∙	3780
诈	3781
窘	3782
伊	3783
lu	3784
刨	3785
bang	3786
cosplay	3787
肏	3788
膛	3789
谊	3790
√	3791
霄	3792
栈	3793
∞	3794
蹋	3795
∟	3796
∠	3797
蔷	3798
朦	3799
胧	3800
芹	3801
笛	3802
遮	3803
炅	3804
栀	3805
∣	3806
喆	3807
尹	3808
咻	3809
瞿	3810
磊	3811
辫	3812
羲	3813
芮	3814
瓣	3815
∥	3816
∩	3817
臧	3818
朔	3819
鸳	3820
鸯	3821
庚	3822
慧	3823
娴	3824
阙	3825
∮	3826
斌	3827
be	3828
are	3829
畸	3830
di	3831
荧	3832
∶	3833
鑫	3834
讷	3835
噫	3836
嗝	3837
炕	3838
皖	3839
蚌	3840
埠	3841
奸	3842
魏	3843
璋	3844
隶	3845
掇	3846
羿	3847
琵	3848
琶	3849
蝎	3850
僧	3851
∼	3852
袍	3853
腥	3854
祭	3855
奠	3856
锥	3857
烊	3858
玺	3859
what	3860
about	3861
擞	3862
鳝	3863
屿	3864
辐	3865
霜	3866
alt	3867
ctrl	3868
∽	3869
pvp	3870
珊	3871
apple	3872
store	3873
exo	3874
fps	3875
≈	3876
晰	3877
栗	3878
枝	3879
≒	3880
xd	3881
gp	3882
an	3883
≡	3884
厥	3885
猖	3886
獗	3887
≤	3888
诠	3889
艘	3890
靶	3891
歇	3892
supreme	3893
棺	3894
≥	3895
拧	3896
牡	3897
≦	3898
亩	3899
辍	3900
淳	3901
≧	3902
颓	3903
good	3904
≪	3905
≫	3906
迭	3907
塑	3908
绣	3909
棚	3910
ms	3911
⊙	3912
uc	3913
pc	3914
tom	3915
帘	3916
橄	3917
榄	3918
⋅	3919
⋈	3920
game	3921
ella	3922
桦	3923
洼	3924
outlet	3925
裔	3926
魄	3927
shift	3928
⋯	3929
⌒	3930
筛	3931
gif	3932
穴	3933
柿	3934
枷	3935
矣	3936
蔬	3937
躯	3938
①	3939
哄	3940
jump	3941
督	3942
耕	3943
舵	3944
②	3945
③	3946
master	3947
google	3948
哲	3949
dlc	3950
fm	3951
④	3952
戮	3953
gre	3954
羚	3955
馈	3956
mp	3957
⑤	3958
鹭	3959
call	3960
vcd	3961
睫	3962
凳	3963
抚	3964
漳	3965
⑥	3966
coach	3967
nike	3968
锯	3969
饵	3970
泵	3971
唢	3972
舟	3973
msi	3974
雏	3975
倜	3976
傥	3977
衲	3978
丞	3979
勋	3980
弛	3981
⑦	3982
⑧	3983
捶	3984
剖	3985
⑨	3986
囚	3987
径	3988
gm	3989
耙	3990
馊	3991
缭	3992
穗	3993
颌	3994
蕙	3995
蹂	3996
躏	3997
梓	3998
痿	3999
恺	4000
玥	4001
恤	4002
丙	4003
芸	4004
乾	4005
case	4006
寺	4007
冥	4008
搂	4009
face	4010
弦	4011
玮	4012
ice	4013
廖	4014
晖	4015
matlab	4016
蹿	4017
窜	4018
杵	4019
赐	4020
les	4021
屉	4022
呜	4023
泻	4024
炭	4025
⑩	4026
饶	4027
⑴	4028
⑵	4029
⑶	4030
蚪	4031
蝌	4032
⑷	4033
涕	4034
铛	4035
湛	4036
谌	4037
呱	4038
虞	4039
⑸	4040
唇	4041
涎	4042
尧	4043
漓	4044
蛳	4045
诧	4046
啃	4047
玖	4048
沁	4049
彤	4050
穹	4051
雍	4052
晟	4053
丕	4054
绮	4055
坂	4056
遐	4057
鸥	4058
琅	4059
琊	4060
瑄	4061
篡	4062
轱	4063
辘	4064
嫦	4065
娥	4066
⒈	4067
⒉	4068
嗽	4069
⒊	4070
so	4071
easy	4072
⒋	4073
攀	4074
寅	4075
遣	4076
柠	4077
槐	4078
ⓒ	4079
铉	4080
蛾	4081
嬅	4082
嵌	4083
轶	4084
瞳	4085
tf	4086
line	4087
whatsapp	4088
tim	4089
ⓔ	4090
ⓘ	4091
online	4092
'	4093
─	4094
巩	4095
━	4096
│	4097
犟	4098
┃	4099
soft	4100
┅	4101
house	4102
cos	4103
楠	4104
but	4105
┆	4106
阮	4107
侦	4108
蚯	4109
蚓	4110
尸	4111
羁	4112
坪	4113
畴	4114
垢	4115
苞	4116
叮	4117
live	4118
┊	4119
ds	4120
mod	4121
ns	4122
┌	4123
阉	4124
└	4125
兢	4126
秽	4127
鞍	4128
皓	4129
疹	4130
藓	4131
跺	4132
矜	4133
qs	4134
呸	4135
昙	4136
恿	4137
埔	4138
嫔	4139
惫	4140
抻	4141
拷	4142
ie	4143
├	4144
舶	4145
┣	4146
═	4147
wei	4148
旱	4149
涝	4150
蠕	4151
play	4152
ai	4153
烙	4154
║	4155
╚	4156
窑	4157
sm	4158
╞	4159
枢	4160
濠	4161
╠	4162
拙	4163
╭	4164
╮	4165
╯	4166
芭	4167
travel	4168
仨	4169
╰	4170
╱	4171
single	4172
tb	4173
╳	4174
on	4175
凿	4176
焚	4177
铮	4178
掂	4179
篷	4180
潼	4181
茵	4182
珞	4183
殴	4184
wi	4185
fi	4186
world	4187
bank	4188
徘	4189
徊	4190
ipo	4191
媛	4192
沮	4193
angelababy	4194
慑	4195
婶	4196
▂	4197
庐	4198
rp	4199
▃	4200
懈	4201
寰	4202
夷	4203
嫡	4204
侬	4205
墟	4206
nokia	4207
touch	4208
昕	4209
锈	4210
拂	4211
亭	4212
衫	4213
瘫	4214
彬	4215
晾	4216
脯	4217
陇	4218
榔	4219
鄂	4220
▅	4221
▇	4222
褥	4223
皿	4224
惰	4225
桔	4226
笠	4227
绫	4228
█	4229
虔	4230
eva	4231
憧	4232
憬	4233
渚	4234
▉	4235
葵	4236
鸢	4237
苇	4238
舜	4239
珑	4240
sony	4241
妓	4242
吁	4243
▋	4244
▌	4245
maria	4246
leo	4247
梵	4248
oh	4249
hard	4250
never	4251
know	4252
▍	4253
for	4254
▎	4255
■	4256
hello	4257
us	4258
as	4259
犄	4260
蟆	4261
辕	4262
佼	4263
rx	4264
switch	4265
啾	4266
□	4267
▪	4268
▫	4269
cheese	4270
蠛	4271
戟	4272
咚	4273
貂	4274
▬	4275
nova	4276
箫	4277
睿	4278
蕊	4279
纫	4280
谐	4281
驭	4282
甸	4283
筹	4284
▲	4285
茜	4286
崖	4287
胤	4288
祐	4289
焕	4290
辰	4291
蜀	4292
陨	4293
祯	4294
葬	4295
唏	4296
檀	4297
瞑	4298
胥	4299
邕	4300
祠	4301
啸	4302
筠	4303
瑜	4304
孺	4305
藩	4306
剐	4307
凄	4308
荀	4309
彧	4310
栓	4311
△	4312
▶	4313
►	4314
窒	4315
▼	4316
▽	4317
饪	4318
靴	4319
帆	4320
ky	4321
妩	4322
◆	4323
old	4324
莆	4325
vans	4326
◇	4327
○	4328
卅	4329
coc	4330
炖	4331
厝	4332
埯	4333
顽	4334
淤	4335
cx	4336
◎	4337
霹	4338
雳	4339
嬛	4340
瞟	4341
蕴	4342
●	4343
now	4344
堰	4345
庶	4346
at	4347
秩	4348
袒	4349
彰	4350
萦	4351
ram	4352
rom	4353
◕	4354
侨	4355
◠	4356
cad	4357
◢	4358
钧	4359
汀	4360
佰	4361
jay	4362
see	4363
amd	4364
◤	4365
拴	4366
拣	4367
圭	4368
稣	4369
☀	4370
★	4371
☆	4372
☕	4373
☞	4374
讳	4375
☺	4376
莺	4377
blue	4378
☼	4379
beyond	4380
friends	4381
mi	4382
♀	4383
卦	4384
缸	4385
甯	4386
♂	4387
胯	4388
♠	4389
♡	4390
苓	4391
hi	4392
躬	4393
cpa	4394
鲫	4395
羯	4396
♣	4397
嘱	4398
熄	4399
update	4400
du	4401
♥	4402
♦	4403
疆	4404
acer	4405
uber	4406
♪	4407
奎	4408
忒	4409
step	4410
♫	4411
care	4412
xr	4413
跆	4414
敛	4415
jun	4416
steven	4417
♬	4418
吝	4419
啬	4420
✈	4421
php	4422
green	4423
✔	4424
渲	4425
熙	4426
酥	4427
箩	4428
佗	4429
苔	4430
柚	4431
✕	4432
唰	4433
琥	4434
珀	4435
浣	4436
炬	4437
赃	4438
蔑	4439
✖	4440
诋	4441
腌	4442
飕	4443
✦	4444
幌	4445
✨	4446
悖	4447
qi	4448
庇	4449
✪	4450
凛	4451
imax	4452
砰	4453
✰	4454
don	4455
✿	4456
苑	4457
掠	4458
倭	4459
mb	4460
❀	4461
荔	4462
share	4463
氰	4464
胺	4465
碘	4466
稠	4467
臻	4468
蔻	4469
❤	4470
樽	4471
滔	4472
song	4473
蛆	4474
卿	4475
➜	4476
猬	4477
➤	4478
靡	4479
簧	4480
yang	4481
td	4482
⦿	4483
糯	4484
〃	4485
呈	4486
々	4487
rain	4488
逾	4489
嗅	4490
纭	4491
噻	4492
〓	4493
掀	4494
running	4495
韶	4496
姊	4497
〖	4498
仆	4499
娲	4500
sim	4501
斋	4502
萤	4503
荏	4504
苒	4505
〗	4506
〜	4507
sd	4508
斐	4509
〝	4510
曙	4511
隘	4512
etc	4513
匝	4514
瞌	4515
隧	4516
膺	4517
〞	4518
痣	4519
ss	4520
翩	4521
ぁ	4522
あ	4523
ee	4524
廓	4525
抨	4526
洙	4527
bt	4528
mo	4529
win	4530
笃	4531
跤	4532
ぃ	4533
颦	4534
腮	4535
搔	4536
闫	4537
い	4538
from	4539
う	4540
撂	4541
嚯	4542
娟	4543
佐	4544
敦	4545
焖	4546
掖	4547
ぇ	4548
熹	4549
酮	4550
篱	4551
镂	4552
kitty	4553
辄	4554
vc	4555
え	4556
watch	4557
お	4558
禺	4559
feel	4560
か	4561
yes	4562
buy	4563
き	4564
萎	4565
く	4566
け	4567
瘟	4568
瘸	4569
こ	4570
さ	4571
し	4572
鞠	4573
婧	4574
祎	4575
岚	4576
す	4577
祺	4578
泱	4579
珈	4580
拈	4581
polo	4582
せ	4583
绘	4584
そ	4585
谔	4586
荫	4587
pay	4588
趾	4589
た	4590
硌	4591
凹	4592
馍	4593
亵	4594
邑	4595
渔	4596
羔	4597
椰	4598
臊	4599
峪	4600
ち	4601
three	4602
coco	4603
made	4604
邋	4605
遢	4606
惶	4607
辙	4608
っ	4609
mba	4610
诫	4611
魁	4612
youtube	4613
hk	4614
super	4615
star	4616
茉	4617
may	4618
つ	4619
て	4620
here	4621
と	4622
腼	4623
腆	4624
な	4625
暇	4626
箍	4627
擂	4628
avi	4629
la	4630
に	4631
ぬ	4632
ね	4633
唷	4634
赦	4635
not	4636
gpu	4637
nfc	4638
ultra	4639
fly	4640
jordan	4641
ceo	4642
deep	4643
dark	4644
mu	4645
の	4646
は	4647
疸	4648
诲	4649
ひ	4650
赣	4651
ふ	4652
ag	4653
dv	4654
kk	4655
へ	4656
ほ	4657
昵	4658
ま	4659
hd	4660
mr	4661
腱	4662
禄	4663
妲	4664
厮	4665
み	4666
诩	4667
灬	4668
む	4669
lp	4670
纺	4671
郸	4672
钞	4673
め	4674
kiss	4675
も	4676
鸠	4677
捆	4678
sas	4679
荞	4680
孬	4681
ゃ	4682
痤	4683
ssd	4684
bigbang	4685
や	4686
钳	4687
ゅ	4688
ゆ	4689
ょ	4690
よ	4691
遂	4692
diy	4693
ら	4694
り	4695
mama	4696
keep	4697
烘	4698
pg	4699
hold	4700
る	4701
氮	4702
痂	4703
譬	4704
れ	4705
唾	4706
洽	4707
慷	4708
ろ	4709
禹	4710
蜚	4711
night	4712
わ	4713
を	4714
襄	4715
峨	4716
脓	4717
magic	4718
abs	4719
esp	4720
烁	4721
ptt	4722
孰	4723
欸	4724
仑	4725
嘈	4726
媲	4727
ん	4728
led	4729
bd	4730
゜	4731
pen	4732
gc	4733
阎	4734
抡	4735
旨	4736
芋	4737
橱	4738
ゝ	4739
奘	4740
萃	4741
烛	4742
腑	4743
ァ	4744
ア	4745
fast	4746
ipad	4747
偕	4748
搽	4749
焙	4750
ィ	4751
イ	4752
ne	4753
cafe	4754
浔	4755
竿	4756
kpi	4757
茧	4758
ゥ	4759
剽	4760
棣	4761
煜	4762
喀	4763
屡	4764
冉	4765
弘	4766
婵	4767
轼	4768
郴	4769
卉	4770
ウ	4771
囖	4772
滓	4773
盎	4774
瀑	4775
薏	4776
睇	4777
咗	4778
dvd	4779
ェ	4780
俑	4781
脐	4782
エ	4783
蚀	4784
嗒	4785
挠	4786
paper	4787
dr	4788
ォ	4789
gold	4790
オ	4791
婪	4792
阡	4793
カ	4794
キ	4795
rock	4796
斓	4797
犁	4798
ク	4799
bo	4800
he	4801
sr	4802
ケ	4803
コ	4804
siri	4805
htc	4806
サ	4807
by	4808
拗	4809
梧	4810
シ	4811
钮	4812
溏	4813
ス	4814
sh	4815
eyes	4816
last	4817
擤	4818
沽	4819
ems	4820
邂	4821
逅	4822
啵	4823
韬	4824
粱	4825
セ	4826
坝	4827
偎	4828
鹦	4829
鹉	4830
溯	4831
妊	4832
娠	4833
伽	4834
ソ	4835
タ	4836
チ	4837
big	4838
sean	4839
粕	4840
愫	4841
翟	4842
double	4843
卞	4844
藐	4845
坷	4846
侉	4847
show	4848
ig	4849
xdd	4850
first	4851
ッ	4852
hall	4853
ツ	4854
テ	4855
ト	4856
edit	4857
荤	4858
hu	4859
隍	4860
ナ	4861
ニ	4862
叱	4863
american	4864
ヌ	4865
袄	4866
糍	4867
莴	4868
蛹	4869
蚝	4870
茴	4871
芥	4872
鱿	4873
吮	4874
mt	4875
倚	4876
昊	4877
ネ	4878
缤	4879
峙	4880
ノ	4881
ハ	4882
榻	4883
噔	4884
鲤	4885
ヒ	4886
si	4887
蹉	4888
フ	4889
rose	4890
嗬	4891
嬉	4892
ヘ	4893
ホ	4894
ba	4895
龚	4896
瞥	4897
マ	4898
benz	4899
惬	4900
tcl	4901
揩	4902
筵	4903
鳞	4904
ミ	4905
陡	4906
渎	4907
ム	4908
メ	4909
pink	4910
hero	4911
モ	4912
ャ	4913
af	4914
bbc	4915
皱	4916
ヤ	4917
abc	4918
屮	4919
ュ	4920
ユ	4921
vincent	4922
昼	4923
demo	4924
楂	4925
頔	4926
ョ	4927
fe	4928
ヨ	4929
镶	4930
water	4931
嚎	4932
咀	4933
nhk	4934
ラ	4935
忐	4936
忑	4937
リ	4938
ル	4939
レ	4940
ロ	4941
壹	4942
bag	4943
颅	4944
people	4945
ワ	4946
home	4947
photo	4948
ed	4949
栩	4950
裳	4951
歆	4952
ヲ	4953
睐	4954
堺	4955
闰	4956
ン	4957
pe	4958
min	4959
rm	4960
磅	4961
ヶ	4962
・	4963
ー	4964
紊	4965
诬	4966
鬓	4967
ヽ	4968
very	4969
ㄅ	4970
ㄆ	4971
氟	4972
窿	4973
谛	4974
ㄇ	4975
钛	4976
釉	4977
唑	4978
孢	4979
ㄉ	4980
搪	4981
ㄋ	4982
ㄌ	4983
浊	4984
nano	4985
ct	4986
滤	4987
emma	4988
ㄍ	4989
ㄎ	4990
project	4991
眺	4992
豚	4993
ge	4994
殇	4995
mcu	4996
绯	4997
cg	4998
java	4999
web	5000
绛	5001
save	5002
ㄏ	5003
ㄒ	5004
ㄚ	5005
fc	5006
阂	5007
恙	5008
冕	5009
圃	5010
ㄛ	5011
ㄞ	5012
扼	5013
憎	5014
菏	5015
镀	5016
佘	5017
gt	5018
ㄟ	5019
ㄢ	5020
ppp	5021
pptv	5022
money	5023
蛔	5024
crystal	5025
ㄤ	5026
吠	5027
黔	5028
沌	5029
ㄥ	5030
ㄧ	5031
ㄨ	5032
ㆍ	5033
date	5034
dog	5035
㈦	5036
寮	5037
where	5038
your	5039
point	5040
俐	5041
key	5042
簇	5043
窥	5044
㊣	5045
瑚	5046
冇	5047
㎡	5048
㗎	5049
飓	5050
嗖	5051
孜	5052
ta	5053
呲	5054
ii	5055
丟	5056
west	5057
芍	5058
並	5059
moon	5060
亂	5061
亙	5062
吩	5063
咐	5064
岱	5065
van	5066
亜	5067
闸	5068
芷	5069
郫	5070
亞	5071
仮	5072
佇	5073
佈	5074
併	5075
來	5076
価	5077
burberry	5078
侶	5079
茗	5080
蚕	5081
侷	5082
internet	5083
adsl	5084
wan	5085
ping	5086
lan	5087
孵	5088
鲱	5089
椿	5090
蓓	5091
po	5092
扪	5093
嘣	5094
踮	5095
酝	5096
眸	5097
骸	5098
local	5099
king	5100
係	5101
bit	5102
na	5103
ve	5104
喏	5105
溺	5106
isis	5107
彷	5108
徨	5109
俠	5110
tai	5111
菁	5112
寐	5113
懊	5114
over	5115
倆	5116
hit	5117
倉	5118
惘	5119
汹	5120
啕	5121
個	5122
xxxx	5123
們	5124
倖	5125
値	5126
hong	5127
滇	5128
痫	5129
倫	5130
mpv	5131
柒	5132
倶	5133
james	5134
迄	5135
zen	5136
亘	5137
褪	5138
偉	5139
側	5140
偵	5141
偽	5142
咂	5143
彝	5144
傑	5145
備	5146
傚	5147
瘴	5148
傢	5149
傭	5150
da	5151
傳	5152
債	5153
years	5154
淌	5155
宕	5156
傷	5157
泾	5158
釜	5159
荟	5160
氯	5161
癣	5162
傾	5163
僅	5164
赡	5165
cnn	5166
働	5167
ea	5168
僑	5169
pokemon	5170
羹	5171
僕	5172
氪	5173
價	5174
蹊	5175
玳	5176
瑁	5177
can	5178
儀	5179
儂	5180
more	5181
轧	5182
億	5183
棘	5184
揾	5185
儉	5186
儕	5187
儘	5188
聒	5189
捺	5190
帜	5191
tan	5192
償	5193
㖊	5194
竣	5195
優	5196
儲	5197
dell	5198
thinkpad	5199
儷	5200
儼	5201
兇	5202
罂	5203
粟	5204
兌	5205
su	5206
瘆	5207
south	5208
korea	5209
麓	5210
喳	5211
吆	5212
zoom	5213
児	5214
sc	5215
gear	5216
啼	5217
adobe	5218
ah	5219
ef	5220
內	5221
兩	5222
冊	5223
ce	5224
冨	5225
冪	5226
bh	5227
冾	5228
凈	5229
浸	5230
coupe	5231
桀	5232
骜	5233
凍	5234
ofo	5235
娩	5236
凜	5237
凱	5238
garden	5239
bmw	5240
npc	5241
別	5242
刪	5243
則	5244
剉	5245
剋	5246
喋	5247
嚏	5248
隽	5249
sars	5250
罄	5251
mall	5252
剛	5253
剝	5254
耸	5255
剣	5256
dm	5257
惋	5258
貔	5259
貅	5260
dns	5261
剤	5262
創	5263
de	5264
剷	5265
twice	5266
劃	5267
劇	5268
卯	5269
iso	5270
劉	5271
劊	5272
friend	5273
andy	5274
劍	5275
island	5276
劑	5277
tc	5278
労	5279
勁	5280
動	5281
務	5282
勛	5283
fgo	5284
勝	5285
琉	5286
枇	5287
杷	5288
蒿	5289
et	5290
缉	5291
萱	5292
祟	5293
勞	5294
勢	5295
follow	5296
pu	5297
嘀	5298
勧	5299
勵	5300
勸	5301
xyz	5302
勻	5303
皋	5304
鹊	5305
匯	5306
al	5307
枭	5308
intel	5309
匱	5310
surface	5311
區	5312
岐	5313
憔	5314
悴	5315
協	5316
cj	5317
単	5318
奄	5319
樟	5320
蜈	5321
蚣	5322
鹌	5323
鹑	5324
鹃	5325
蛭	5326
em	5327
镊	5328
鳅	5329
籽	5330
卻	5331
厭	5332
pa	5333
team	5334
夭	5335
gd	5336
厲	5337
窖	5338
study	5339
汶	5340
厳	5341
鞘	5342
pr	5343
妳	5344
參	5345
ca	5346
co	5347
叢	5348
country	5349
吳	5350
吽	5351
呂	5352
咘	5353
ic	5354
員	5355
唄	5356
唸	5357
啓	5358
秧	5359
啞	5360
啟	5361
蔚	5362
cross	5363
啱	5364
漩	5365
啲	5366
酋	5367
喎	5368
collection	5369
喚	5370
烬	5371
肓	5372
喪	5373
bar	5374
琛	5375
喫	5376
喬	5377
fire	5378
yi	5379
kong	5380
喲	5381
営	5382
great	5383
psp	5384
嗆	5385
ha	5386
嗇	5387
亥	5388
舱	5389
勘	5390
嗎	5391
嗚	5392
赅	5393
嗰	5394
涅	5395
come	5396
嗶	5397
冢	5398
fbi	5399
嘆	5400
嘍	5401
body	5402
cover	5403
her	5404
嘔	5405
cr	5406
喺	5407
咁	5408
乜	5409
嘢	5410
嘅	5411
嘖	5412
嘗	5413
town	5414
sir	5415
嘜	5416
嚟	5417
exe	5418
瀚	5419
rich	5420
睾	5421
嘩	5422
嘮	5423
嘯	5424
曜	5425
湄	5426
how	5427
嘰	5428
iv	5429
苕	5430
off	5431
white	5432
嘸	5433
皈	5434
叻	5435
gtx	5436
msn	5437
噁	5438
噓	5439
噠	5440
噴	5441
噸	5442
糗	5443
wps	5444
噹	5445
liu	5446
嚀	5447
yu	5448
嚇	5449
掷	5450
beta	5451
嚐	5452
嚕	5453
昱	5454
嚥	5455
缕	5456
嚨	5457
嚮	5458
嚴	5459
拭	5460
邯	5461
鸵	5462
囂	5463
燮	5464
嘟	5465
戎	5466
囉	5467
掴	5468
kindle	5469
txt	5470
囑	5471
sun	5472
団	5473
囪	5474
醍	5475
洱	5476
family	5477
coffee	5478
bean	5479
that	5480
all	5481
囲	5482
work	5483
図	5484
圍	5485
sex	5486
bad	5487
瑛	5488
玟	5489
圓	5490
團	5491
摹	5492
坵	5493
堤	5494
垵	5495
執	5496
馄	5497
饨	5498
汾	5499
堅	5500
盅	5501
蛎	5502
報	5503
挞	5504
馕	5505
趵	5506
場	5507
re	5508
堿	5509
pt	5510
塊	5511
宸	5512
bob	5513
塗	5514
jp	5515
塚	5516
曳	5517
锵	5518
砚	5519
塢	5520
橇	5521
dsp	5522
噬	5523
锏	5524
塩	5525
翎	5526
炽	5527
鲵	5528
挝	5529
弑	5530
簪	5531
弩	5532
te	5533
鲈	5534
塭	5535
塵	5536
墊	5537
墘	5538
xl	5539
墜	5540
裱	5541
磋	5542
墮	5543
push	5544
墳	5545
xz	5546
墻	5547
荨	5548
祢	5549
驿	5550
central	5551
墾	5552
缪	5553
nbc	5554
骷	5555
髅	5556
孚	5557
骼	5558
au	5559
壆	5560
岑	5561
颊	5562
霏	5563
壇	5564
迂	5565
name	5566
乛	5567
壊	5568
facebook	5569
linkedin	5570
壓	5571
壘	5572
壞	5573
kd	5574
犷	5575
壟	5576
alphago	5577
alpha	5578
壢	5579
壩	5580
癜	5581
俾	5582
壯	5583
売	5584
惺	5585
chan	5586
壺	5587
壽	5588
夠	5589
夢	5590
奐	5591
long	5592
奧	5593
tree	5594
five	5595
奪	5596
stop	5597
奬	5598
奮	5599
妝	5600
right	5601
姉	5602
姍	5603
lost	5604
river	5605
娛	5606
婁	5607
斟	5608
婦	5609
酣	5610
ford	5611
婭	5612
侩	5613
媧	5614
wish	5615
媽	5616
倘	5617
pony	5618
痉	5619
挛	5620
turbo	5621
嫑	5622
嫚	5623
嫵	5624
嫻	5625
嬌	5626
嬤	5627
zero	5628
嬪	5629
嬰	5630
傣	5631
嬸	5632
孫	5633
san	5634
钠	5635
學	5636
孿	5637
実	5638
宮	5639
group	5640
痱	5641
谩	5642
oo	5643
寢	5644
谙	5645
寧	5646
審	5647
sky	5648
寫	5649
寬	5650
want	5651
敖	5652
埂	5653
ho	5654
make	5655
螨	5656
寵	5657
寶	5658
対	5659
専	5660
將	5661
專	5662
尋	5663
痧	5664
simple	5665
豌	5666
對	5667
導	5668
尷	5669
屆	5670
bl	5671
屍	5672
ff	5673
michael	5674
jackson	5675
屜	5676
峻	5677
屢	5678
馥	5679
黒	5680
black	5681
wave	5682
堀	5683
fu	5684
層	5685
屬	5686
岡	5687
峴	5688
齁	5689
battle	5690
島	5691
峽	5692
崗	5693
咣	5694
嵐	5695
昔	5696
嶄	5697
姝	5698
栾	5699
痪	5700
dha	5701
椭	5702
嶇	5703
嶋	5704
day	5705
嶼	5706
size	5707
奂	5708
炜	5709
瞩	5710
嶽	5711
巒	5712
巔	5713
wang	5714
巖	5715
lc	5716
帥	5717
師	5718
帰	5719
帳	5720
帶	5721
true	5722
幀	5723
幟	5724
捱	5725
map	5726
幣	5727
炙	5728
幫	5729
st	5730
幹	5731
炯	5732
queen	5733
幾	5734
little	5735
庁	5736
広	5737
筱	5738
庫	5739
廁	5740
泷	5741
廂	5742
wp	5743
run	5744
涟	5745
漪	5746
red	5747
cat	5748
廃	5749
缥	5750
缈	5751
bus	5752
廈	5753
will	5754
廚	5755
廝	5756
茁	5757
嗡	5758
廟	5759
廠	5760
伶	5761
悯	5762
廢	5763
喃	5764
廣	5765
廬	5766
廳	5767
lumia	5768
弒	5769
db	5770
弔	5771
沼	5772
強	5773
彅	5774
绥	5775
陂	5776
苯	5777
way	5778
彆	5779
彈	5780
nature	5781
彌	5782
彎	5783
劵	5784
锣	5785
淅	5786
猕	5787
彙	5788
sunday	5789
彿	5790
莜	5791
抿	5792
gary	5793
叩	5794
阖	5795
噘	5796
衢	5797
徑	5798
従	5799
mtv	5800
從	5801
徠	5802
暄	5803
復	5804
徴	5805
睬	5806
orz	5807
徹	5808
殉	5809
恆	5810
time	5811
呷	5812
簋	5813
恥	5814
搀	5815
悅	5816
悩	5817
ted	5818
悵	5819
裘	5820
砒	5821
悶	5822
悽	5823
raw	5824
惡	5825
惱	5826
愜	5827
愷	5828
態	5829
偌	5830
绡	5831
飒	5832
慘	5833
慚	5834
sound	5835
慟	5836
simon	5837
慣	5838
慫	5839
慮	5840
慳	5841
second	5842
code	5843
慶	5844
憂	5845
辗	5846
憊	5847
憐	5848
憚	5849
嬢	5850
跷	5851
rgb	5852
lady	5853
gaga	5854
昀	5855
憤	5856
憫	5857
槌	5858
welcome	5859
qt	5860
憲	5861
iherb	5862
迢	5863
憶	5864
婢	5865
汴	5866
戛	5867
慵	5868
懇	5869
應	5870
懲	5871
懷	5872
懸	5873
宥	5874
珅	5875
懺	5876
懼	5877
郜	5878
懾	5879
戀	5880
戲	5881
戶	5882
戻	5883
払	5884
bill	5885
flash	5886
fantasy	5887
der	5888
vista	5889
扱	5890
hot	5891
択	5892
拋	5893
佢	5894
拡	5895
挙	5896
挾	5897
del	5898
捨	5899
if	5900
掃	5901
melody	5902
掙	5903
掛	5904
夯	5905
绸	5906
bbs	5907
採	5908
掲	5909
揀	5910
bin	5911
皙	5912
airbnb	5913
揚	5914
換	5915
揮	5916
漉	5917
peter	5918
揶	5919
揹	5920
lin	5921
損	5922
搖	5923
搗	5924
kate	5925
搶	5926
摀	5927
尕	5928
摟	5929
story	5930
sohu	5931
摯	5932
阑	5933
恪	5934
摳	5935
摻	5936
撃	5937
well	5938
撈	5939
撐	5940
times	5941
帚	5942
撓	5943
撚	5944
咿	5945
褂	5946
撥	5947
memory	5948
撫	5949
璞	5950
撲	5951
晞	5952
嚓	5953
跋	5954
茸	5955
撻	5956
撿	5957
擁	5958
擄	5959
擇	5960
砺	5961
擊	5962
濮	5963
钵	5964
擋	5965
hey	5966
lake	5967
擔	5968
據	5969
琍	5970
擠	5971
bios	5972
蹩	5973
擡	5974
璇	5975
擬	5976
饽	5977
镑	5978
擰	5979
擱	5980
擲	5981
雎	5982
嘬	5983
瘀	5984
擴	5985
擷	5986
擺	5987
talk	5988
擼	5989
maps	5990
擾	5991
攏	5992
攔	5993
攙	5994
cry	5995
fun	5996
action	5997
gopro	5998
攜	5999
攝	6000
dhl	6001
ups	6002
curry	6003
攞	6004
攢	6005
攣	6006
攤	6007
again	6008
攪	6009
攬	6010
敍	6011
敗	6012
chrome	6013
敘	6014
珺	6015
敵	6016
數	6017
鼾	6018
斃	6019
ra	6020
斎	6021
斬	6022
斷	6023
晉	6024
晝	6025
噼	6026
暈	6027
暉	6028
猹	6029
暢	6030
暫	6031
暸	6032
曄	6033
曆	6034
jayz	6035
block	6036
曇	6037
曉	6038
曖	6039
曠	6040
dt	6041
曬	6042
書	6043
會	6044
蛟	6045
朧	6046
庾	6047
url	6048
朮	6049
枱	6050
柵	6051
栃	6052
栄	6053
桿	6054
ll	6055
park	6056
car	6057
forest	6058
條	6059
蔫	6060
梟	6061
嗳	6062
疱	6063
钾	6064
ddd	6065
晤	6066
棄	6067
some	6068
盹	6069
iq	6070
bing	6071
boost	6072
瞻	6073
棟	6074
棧	6075
club	6076
棲	6077
餮	6078
饕	6079
検	6080
楊	6081
radio	6082
楓	6083
鸨	6084
楨	6085
there	6086
屙	6087
業	6088
極	6089
榮	6090
槍	6091
ufo	6092
bbq	6093
町	6094
soul	6095
槓	6096
pop	6097
掳	6098
sci	6099
槤	6100
槳	6101
樁	6102
back	6103
eq	6104
樓	6105
標	6106
pose	6107
asics	6108
樞	6109
fresh	6110
樣	6111
権	6112
cool	6113
樫	6114
樸	6115
樹	6116
樺	6117
橋	6118
dos	6119
rar	6120
機	6121
miller	6122
荥	6123
橢	6124
檔	6125
檜	6126
ww	6127
hola	6128
color	6129
檢	6130
檯	6131
spa	6132
檳	6133
maggie	6134
檸	6135
檻	6136
櫃	6137
嗔	6138
櫚	6139
ya	6140
check	6141
櫛	6142
櫥	6143
puma	6144
櫸	6145
cindy	6146
櫻	6147
欄	6148
lo	6149
權	6150
喰	6151
欒	6152
欖	6153
欽	6154
歎	6155
歐	6156
歓	6157
歛	6158
歯	6159
歲	6160
歷	6161
lt	6162
殘	6163
gigi	6164
outlook	6165
殞	6166
荼	6167
殤	6168
殭	6169
neo	6170
殯	6171
殲	6172
殺	6173
have	6174
today	6175
睑	6176
殼	6177
毀	6178
毆	6179
毘	6180
竺	6181
氈	6182
ray	6183
氣	6184
氫	6185
汆	6186
ru	6187
汎	6188
汙	6189
決	6190
沒	6191
huawei	6192
沖	6193
況	6194
arm	6195
洩	6196
taylor	6197
swift	6198
ts	6199
洶	6200
with	6201
浬	6202
涇	6203
cloud	6204
ipod	6205
zara	6206
涼	6207
灏	6208
mit	6209
tw	6210
淒	6211
豉	6212
cfa	6213
frm	6214
eos	6215
music	6216
ua	6217
samsung	6218
睽	6219
淚	6220
dance	6221
sunny	6222
淨	6223
淩	6224
淪	6225
淵	6226
済	6227
渉	6228
渋	6229
渙	6230
衮	6231
beautiful	6232
蜕	6233
狈	6234
減	6235
渦	6236
september	6237
測	6238
渾	6239
湊	6240
準	6241
溝	6242
垦	6243
撰	6244
尻	6245
溫	6246
叟	6247
they	6248
毓	6249
泓	6250
绾	6251
open	6252
ka	6253
溼	6254
滄	6255
滅	6256
滌	6257
con	6258
ep	6259
滙	6260
茼	6261
洵	6262
滝	6263
耷	6264
撅	6265
ft	6266
滬	6267
pos	6268
咫	6269
kimi	6270
滯	6271
kim	6272
studio	6273
滲	6274
鬟	6275
滷	6276
蔗	6277
柑	6278
lucky	6279
滸	6280
滾	6281
灞	6282
黍	6283
滿	6284
漁	6285
his	6286
漣	6287
linux	6288
york	6289
漬	6290
漲	6291
漸	6292
恁	6293
漿	6294
asp	6295
潑	6296
潛	6297
jimmy	6298
潤	6299
跎	6300
潧	6301
潰	6302
澀	6303
澆	6304
澗	6305
澤	6306
澱	6307
濁	6308
kai	6309
濃	6310
濕	6311
濘	6312
濟	6313
濤	6314
濫	6315
濱	6316
job	6317
濺	6318
ro	6319
濾	6320
瀅	6321
瀆	6322
瀉	6323
瀋	6324
wto	6325
瀏	6326
瀕	6327
eb	6328
礁	6329
旻	6330
io	6331
wap	6332
soho	6333
loft	6334
瀘	6335
ibm	6336
蕃	6337
瀝	6338
瀞	6339
瀟	6340
瀧	6341
iptv	6342
瀨	6343
瀬	6344
weibo	6345
paris	6346
cut	6347
瀾	6348
灑	6349
灘	6350
灝	6351
仟	6352
women	6353
灣	6354
災	6355
烏	6356
煒	6357
煖	6358
hpv	6359
煙	6360
煥	6361
english	6362
煩	6363
熒	6364
熱	6365
熾	6366
燁	6367
燄	6368
燈	6369
燉	6370
燒	6371
燙	6372
燜	6373
營	6374
燦	6375
咲	6376
燭	6377
燴	6378
燼	6379
爍	6380
tag	6381
爐	6382
爛	6383
熨	6384
鲅	6385
爭	6386
twitter	6387
菅	6388
爲	6389
爺	6390
坍	6391
爾	6392
蟾	6393
觊	6394
觎	6395
牆	6396
牽	6397
犢	6398
犧	6399
狀	6400
狹	6401
狽	6402
猙	6403
strong	6404
ace	6405
two	6406
啫	6407
猶	6408
獄	6409
獅	6410
痨	6411
獎	6412
match	6413
rmvb	6414
廿	6415
獣	6416
贰	6417
瑾	6418
shopping	6419
canada	6420
獰	6421
噌	6422
vogue	6423
taiwan	6424
蜷	6425
fashion	6426
獲	6427
獵	6428
cv	6429
獷	6430
獸	6431
gmat	6432
sat	6433
獺	6434
獻	6435
cb	6436
雹	6437
獼	6438
現	6439
琺	6440
瑋	6441
芊	6442
ken	6443
狒	6444
tiger	6445
瑠	6446
瑣	6447
彗	6448
瑤	6449
band	6450
瑩	6451
瑪	6452
璉	6453
璽	6454
瓊	6455
access	6456
瓏	6457
淼	6458
甌	6459
甕	6460
bruce	6461
lee	6462
np	6463
natural	6464
產	6465
産	6466
甾	6467
please	6468
畝	6469
畢	6470
莘	6471
safari	6472
sign	6473
畫	6474
異	6475
畳	6476
疇	6477
疊	6478
麸	6479
cpi	6480
痙	6481
plc	6482
旯	6483
嘭	6484
痠	6485
lcd	6486
痺	6487
焗	6488
international	6489
瘋	6490
tee	6491
瘍	6492
覆	6493
捻	6494
菓	6495
瘓	6496
look	6497
瘡	6498
瘧	6499
煦	6500
眈	6501
cia	6502
help	6503
ben	6504
療	6505
沱	6506
馗	6507
窕	6508
癇	6509
癡	6510
褶	6511
癢	6512
www	6513
dl	6514
癥	6515
癬	6516
癮	6517
癱	6518
癲	6519
發	6520
狍	6521
皚	6522
聆	6523
皰	6524
桢	6525
皺	6526
frank	6527
盃	6528
uv	6529
erp	6530
sg	6531
盜	6532
armani	6533
盞	6534
sea	6535
煸	6536
space	6537
盡	6538
監	6539
盤	6540
盧	6541
盪	6542
県	6543
眞	6544
眾	6545
joy	6546
皑	6547
睏	6548
犒	6549
睜	6550
睞	6551
瞇	6552
瞋	6553
瞓	6554
捯	6555
饬	6556
瞞	6557
瞼	6558
矇	6559
net	6560
矚	6561
矯	6562
硯	6563
碩	6564
確	6565
碼	6566
磚	6567
dear	6568
磯	6569
chicken	6570
dx	6571
礎	6572
礙	6573
礦	6574
before	6575
礪	6576
哧	6577
礫	6578
丨	6579
祿	6580
帷	6581
禍	6582
禎	6583
force	6584
han	6585
禦	6586
禪	6587
蔼	6588
禮	6589
mg	6590
禱	6591
禿	6592
稅	6593
pet	6594
bye	6595
稟	6596
熘	6597
icon	6598
稱	6599
稲	6600
穀	6601
charles	6602
穌	6603
積	6604
visa	6605
henry	6606
穎	6607
穢	6608
vision	6609
sql	6610
law	6611
穩	6612
窩	6613
窪	6614
叒	6615
叕	6616
窮	6617
gui	6618
pi	6619
嬲	6620
窯	6621
窺	6622
竄	6623
竅	6624
竇	6625
gap	6626
竊	6627
競	6628
ch	6629
笹	6630
pdf	6631
筆	6632
铐	6633
筊	6634
anti	6635
筍	6636
箇	6637
箏	6638
箝	6639
hdr	6640
version	6641
節	6642
範	6643
july	6644
築	6645
篠	6646
篤	6647
chris	6648
篩	6649
簍	6650
簡	6651
ubuntu	6652
moto	6653
簦	6654
簫	6655
muji	6656
簷	6657
簽	6658
window	6659
簾	6660
籃	6661
swatch	6662
籌	6663
籐	6664
籟	6665
籠	6666
籬	6667
籮	6668
籲	6669
粄	6670
ruby	6671
粧	6672
粵	6673
chi	6674
糞	6675
肴	6676
糧	6677
糬	6678
糰	6679
糾	6680
孑	6681
紀	6682
justin	6683
紂	6684
約	6685
紉	6686
漯	6687
紋	6688
納	6689
紐	6690
紓	6691
純	6692
紗	6693
紘	6694
紙	6695
link	6696
叁	6697
級	6698
褚	6699
enter	6700
紛	6701
紜	6702
紡	6703
細	6704
莪	6705
枰	6706
紳	6707
紹	6708
shop	6709
紺	6710
哋	6711
終	6712
angel	6713
蛤	6714
br	6715
絃	6716
迩	6717
wiki	6718
婺	6719
組	6720
袅	6721
谝	6722
絆	6723
allen	6724
鲶	6725
湉	6726
結	6727
絕	6728
絞	6729
絡	6730
絢	6731
泺	6732
給	6733
aaa	6734
絨	6735
end	6736
統	6737
碓	6738
絲	6739
絳	6740
絵	6741
絶	6742
絹	6743
綁	6744
栎	6745
綏	6746
囍	6747
綑	6748
冽	6749
經	6750
img	6751
継	6752
続	6753
綜	6754
綫	6755
伱	6756
綬	6757
blog	6758
綱	6759
網	6760
綴	6761
綵	6762
綸	6763
綺	6764
綻	6765
op	6766
down	6767
secret	6768
base	6769
綽	6770
綾	6771
綿	6772
edu	6773
galaxy	6774
緊	6775
緋	6776
緑	6777
藁	6778
罒	6779
緒	6780
緘	6781
com	6782
線	6783
緝	6784
緞	6785
締	6786
緣	6787
編	6788
緩	6789
圩	6790
硪	6791
緬	6792
锕	6793
驮	6794
緯	6795
練	6796
lily	6797
卟	6798
芃	6799
緹	6800
mail	6801
chen	6802
rick	6803
緻	6804
縄	6805
history	6806
縈	6807
縛	6808
縝	6809
縣	6810
縫	6811
縮	6812
lulu	6813
縱	6814
縴	6815
縷	6816
photoshop	6817
茱	6818
榛	6819
總	6820
take	6821
績	6822
trump	6823
繃	6824
涐	6825
stage	6826
繆	6827
繋	6828
織	6829
繕	6830
繚	6831
spring	6832
繡	6833
繩	6834
繪	6835
繭	6836
仃	6837
繳	6838
繹	6839
繼	6840
think	6841
繽	6842
續	6843
纍	6844
旳	6845
摞	6846
stay	6847
纏	6848
pizza	6849
纓	6850
纖	6851
纜	6852
丿	6853
嘁	6854
纰	6855
蓦	6856
缽	6857
罰	6858
罵	6859
mountain	6860
镐	6861
罷	6862
羈	6863
羣	6864
羥	6865
羨	6866
蒽	6867
習	6868
翹	6869
聖	6870
聯	6871
聰	6872
痦	6873
爻	6874
鲛	6875
谧	6876
seven	6877
聲	6878
聳	6879
聴	6880
orange	6881
職	6882
橹	6883
囡	6884
聽	6885
聾	6886
肅	6887
http	6888
胴	6889
index	6890
脅	6891
脇	6892
after	6893
脈	6894
脛	6895
jerry	6896
脣	6897
脩	6898
脫	6899
echo	6900
脳	6901
wind	6902
candy	6903
脹	6904
腎	6905
腦	6906
腫	6907
腳	6908
腸	6909
膚	6910
膠	6911
膩	6912
膽	6913
膾	6914
膿	6915
臉	6916
臍	6917
臓	6918
grace	6919
臟	6920
臥	6921
臨	6922
臺	6923
泫	6924
iii	6925
與	6926
興	6927
舉	6928
舊	6929
舎	6930
舗	6931
舾	6932
morning	6933
艙	6934
艦	6935
艱	6936
艷	6937
芻	6938
via	6939
茲	6940
涠	6941
荊	6942
荖	6943
踊	6944
piece	6945
荘	6946
莊	6947
莖	6948
莢	6949
莧	6950
莿	6951
菈	6952
kevin	6953
萊	6954
萩	6955
萵	6956
葉	6957
葦	6958
pan	6959
葯	6960
窈	6961
ian	6962
ly	6963
珉	6964
葷	6965
蒐	6966
蒔	6967
vpn	6968
蒞	6969
pv	6970
蒟	6971
蒼	6972
honey	6973
蓆	6974
蓋	6975
蓮	6976
蔔	6977
蔘	6978
course	6979
蔣	6980
蔥	6981
㑩	6982
蔭	6983
special	6984
蕁	6985
jo	6986
蕎	6987
蕩	6988
叵	6989
蕪	6990
蕭	6991
薈	6992
滁	6993
薊	6994
薑	6995
薔	6996
薦	6997
薩	6998
藍	6999
藝	7000
year	7001
藥	7002
藹	7003
admin	7004
蘆	7005
蘇	7006
蘊	7007
蘋	7008
蘚	7009
䌷	7010
蘿	7011
find	7012
處	7013
虛	7014
yumi	7015
tiffany	7016
侑	7017
虜	7018
號	7019
虧	7020
蚵	7021
蛻	7022
蜆	7023
蝕	7024
蝟	7025
蝦	7026
蝨	7027
蝸	7028
螞	7029
螢	7030
蟄	7031
蟎	7032
蟬	7033
cream	7034
蟲	7035
蟻	7036
蠅	7037
alice	7038
pvc	7039
蠍	7040
蠔	7041
蠟	7042
蠣	7043
蠱	7044
蠶	7045
蠻	7046
衆	7047
術	7048
衛	7049
衝	7050
衞	7051
衹	7052
sam	7053
paul	7054
袞	7055
use	7056
裊	7057
nana	7058
補	7059
裝	7060
歘	7061
裡	7062
製	7063
複	7064
褻	7065
襠	7066
襪	7067
襬	7068
襯	7069
襲	7070
規	7071
覓	7072
視	7073
覦	7074
覧	7075
親	7076
覬	7077
観	7078
娣	7079
read	7080
覷	7081
覺	7082
覽	7083
觸	7084
road	7085
訂	7086
small	7087
跻	7088
訊	7089
討	7090
訓	7091
訕	7092
訖	7093
託	7094
記	7095
訛	7096
seo	7097
訝	7098
訟	7099
訣	7100
訥	7101
訪	7102
設	7103
許	7104
訳	7105
訶	7106
診	7107
註	7108
pin	7109
詆	7110
詐	7111
詔	7112
評	7113
angela	7114
詛	7115
詞	7116
詠	7117
詡	7118
詢	7119
詣	7120
幢	7121
試	7122
skin	7123
詫	7124
詬	7125
詭	7126
span	7127
詮	7128
詰	7129
話	7130
該	7131
詳	7132
詼	7133
誅	7134
誇	7135
誌	7136
認	7137
誕	7138
誘	7139
nikon	7140
canon	7141
des	7142
語	7143
誠	7144
誡	7145
誣	7146
power	7147
誤	7148
sina	7149
men	7150
誥	7151
誦	7152
誨	7153
說	7154
説	7155
哌	7156
誰	7157
課	7158
誹	7159
誼	7160
調	7161
煳	7162
諄	7163
談	7164
諏	7165
諒	7166
論	7167
tpp	7168
ming	7169
諗	7170
諜	7171
諦	7172
諧	7173
諫	7174
諭	7175
諮	7176
room	7177
land	7178
諱	7179
諳	7180
諷	7181
諸	7182
nu	7183
諺	7184
諾	7185
謀	7186
謁	7187
謂	7188
謄	7189
謊	7190
謎	7191
huang	7192
琰	7193
classic	7194
謐	7195
謔	7196
謗	7197
謙	7198
講	7199
謝	7200
human	7201
謠	7202
㓥	7203
謨	7204
謬	7205
謹	7206
謾	7207
譁	7208
證	7209
譎	7210
譏	7211
識	7212
孃	7213
譙	7214
譚	7215
譜	7216
譯	7217
議	7218
譲	7219
譴	7220
護	7221
science	7222
讀	7223
變	7224
image	7225
讓	7226
讞	7227
豈	7228
豊	7229
豎	7230
豐	7231
joe	7232
豔	7233
豬	7234
core	7235
貓	7236
貝	7237
貞	7238
sns	7239
負	7240
財	7241
貢	7242
貧	7243
hotel	7244
貨	7245
sui	7246
販	7247
貪	7248
貫	7249
責	7250
wing	7251
貯	7252
貰	7253
week	7254
貳	7255
貴	7256
momo	7257
貶	7258
買	7259
貸	7260
費	7261
貼	7262
貽	7263
貿	7264
賀	7265
賁	7266
賂	7267
cookie	7268
賃	7269
賄	7270
break	7271
資	7272
賈	7273
賊	7274
賑	7275
賓	7276
賜	7277
賞	7278
eye	7279
mind	7280
賠	7281
賡	7282
賢	7283
賣	7284
賤	7285
賦	7286
質	7287
賬	7288
賭	7289
ago	7290
賴	7291
賺	7292
購	7293
賽	7294
page	7295
贅	7296
nick	7297
fish	7298
gov	7299
娓	7300
balance	7301
贈	7302
ebay	7303
贊	7304
贍	7305
贏	7306
贓	7307
贖	7308
set	7309
贛	7310
趕	7311
food	7312
plan	7313
趙	7314
趨	7315
amy	7316
跡	7317
age	7318
yahoo	7319
踉	7320
踐	7321
踴	7322
蹣	7323
蹤	7324
蹼	7325
躉	7326
change	7327
躊	7328
other	7329
躋	7330
璎	7331
躍	7332
躪	7333
mobile	7334
軀	7335
mkv	7336
車	7337
軋	7338
軌	7339
軍	7340
軒	7341
軟	7342
転	7343
mode	7344
tab	7345
軸	7346
軼	7347
軽	7348
kuso	7349
軾	7350
較	7351
載	7352
輒	7353
輓	7354
輔	7355
輕	7356
輛	7357
輟	7358
brand	7359
camera	7360
輩	7361
輪	7362
輯	7363
輸	7364
輻	7365
輾	7366
輿	7367
轄	7368
轅	7369
轆	7370
轉	7371
轍	7372
bot	7373
轎	7374
轟	7375
辦	7376
qa	7377
辭	7378
full	7379
va	7380
elle	7381
辮	7382
辯	7383
農	7384
辺	7385
辻	7386
逕	7387
jason	7388
這	7389
連	7390
週	7391
進	7392
運	7393
過	7394
達	7395
center	7396
铎	7397
違	7398
遙	7399
遜	7400
遞	7401
遠	7402
適	7403
遲	7404
遶	7405
遷	7406
選	7407
tbs	7408
遺	7409
遼	7410
test	7411
reading	7412
opera	7413
邁	7414
還	7415
邇	7416
邊	7417
邏	7418
郤	7419
郵	7420
into	7421
post	7422
hdmi	7423
郷	7424
than	7425
鄉	7426
jean	7427
鄒	7428
california	7429
鄔	7430
delete	7431
鄧	7432
鄭	7433
spark	7434
bella	7435
鄰	7436
鄲	7437
鄺	7438
醃	7439
醜	7440
醞	7441
醫	7442
醬	7443
釀	7444
釁	7445
lock	7446
釋	7447
釗	7448
grand	7449
tour	7450
釘	7451
針	7452
釣	7453
ngo	7454
釦	7455
under	7456
釧	7457
釵	7458
鈀	7459
鈉	7460
鈍	7461
鈎	7462
鈔	7463
鈕	7464
data	7465
鈞	7466
eric	7467
thomas	7468
鈣	7469
鈦	7470
鈪	7471
鈴	7472
鈺	7473
鈾	7474
alexander	7475
鉀	7476
givenchy	7477
鉅	7478
鉉	7479
鉑	7480
瑙	7481
left	7482
鉗	7483
鉚	7484
鉛	7485
鉤	7486
鉻	7487
銀	7488
銃	7489
銅	7490
銑	7491
銓	7492
chocolate	7493
銖	7494
銘	7495
銜	7496
銬	7497
stone	7498
london	7499
銭	7500
銳	7501
銷	7502
銹	7503
鋁	7504
鋅	7505
鋒	7506
鋤	7507
鋪	7508
鋰	7509
maker	7510
jeff	7511
oled	7512
鋸	7513
鋼	7514
錄	7515
錐	7516
kanye	7517
錚	7518
錠	7519
錢	7520
booking	7521
錦	7522
錨	7523
future	7524
錫	7525
錮	7526
錯	7527
pure	7528
microsoft	7529
録	7530
錳	7531
錶	7532
oa	7533
鍋	7534
鍍	7535
鍛	7536
application	7537
鍥	7538
鍰	7539
鍵	7540
鍺	7541
鍾	7542
鎂	7543
close	7544
鎊	7545
鎔	7546
east	7547
鎖	7548
鎚	7549
鎧	7550
鎬	7551
鎮	7552
鎳	7553
japan	7554
service	7555
鏈	7556
鏗	7557
鏘	7558
鏞	7559
鏟	7560
鏡	7561
鏢	7562
鏤	7563
鏽	7564
鐮	7565
鐲	7566
鐳	7567
sbs	7568
kbs	7569
mbc	7570
鐵	7571
instagram	7572
鐸	7573
bear	7574
has	7575
鐺	7576
鑄	7577
鑊	7578
鑒	7579
spotify	7580
鑣	7581
鑰	7582
鑼	7583
鑽	7584
wear	7585
鑾	7586
america	7587
鑿	7588
铤	7589
閃	7590
閉	7591
閎	7592
閏	7593
閔	7594
閘	7595
news	7596
acca	7597
閡	7598
閥	7599
wii	7600
閨	7601
閩	7602
閱	7603
business	7604
閲	7605
閹	7606
閻	7607
閾	7608
闆	7609
闍	7610
college	7611
program	7612
闔	7613
闕	7614
闖	7615
闘	7616
adi	7617
關	7618
闡	7619
闢	7620
陝	7621
陞	7622
陣	7623
陰	7624
陳	7625
陸	7626
険	7627
陽	7628
mary	7629
anna	7630
隊	7631
隕	7632
our	7633
際	7634
隣	7635
隨	7636
險	7637
隱	7638
隴	7639
隸	7640
雋	7641
雑	7642
fit	7643
雖	7644
雙	7645
雛	7646
雜	7647
雞	7648
rc	7649
離	7650
xa	7651
難	7652
雲	7653
電	7654
霊	7655
sogo	7656
霧	7657
vol	7658
霽	7659
was	7660
靂	7661
靄	7662
ips	7663
靚	7664
靜	7665
靦	7666
鞏	7667
living	7668
鞦	7669
韆	7670
richard	7671
韋	7672
tokyo	7673
韌	7674
韓	7675
jessica	7676
韜	7677
韻	7678
響	7679
頁	7680
頂	7681
頃	7682
項	7683
順	7684
november	7685
須	7686
頌	7687
預	7688
頑	7689
most	7690
頒	7691
頓	7692
university	7693
agoda	7694
qe	7695
頗	7696
領	7697
wall	7698
頜	7699
頡	7700
頤	7701
頭	7702
頰	7703
santa	7704
chicago	7705
gmail	7706
頷	7707
頸	7708
canmake	7709
頹	7710
media	7711
頻	7712
頼	7713
顆	7714
題	7715
額	7716
顎	7717
顏	7718
apec	7719
顔	7720
願	7721
zone	7722
model	7723
顛	7724
amazon	7725
類	7726
smap	7727
顧	7728
顫	7729
顯	7730
emily	7731
顱	7732
howard	7733
顴	7734
颯	7735
颱	7736
颳	7737
颶	7738
bell	7739
颼	7740
飄	7741
飆	7742
飛	7743
飩	7744
pepper	7745
voice	7746
飪	7747
dyson	7748
飯	7749
john	7750
飲	7751
johnson	7752
smith	7753
飼	7754
飽	7755
vivi	7756
nasa	7757
飾	7758
餃	7759
餅	7760
餉	7761
養	7762
餌	7763
餒	7764
sale	7765
餓	7766
餘	7767
fx	7768
餚	7769
餛	7770
餞	7771
餡	7772
館	7773
餵	7774
餾	7775
饅	7776
饈	7777
饋	7778
饌	7779
饍	7780
饑	7781
饒	7782
ib	7783
act	7784
饗	7785
饞	7786
馭	7787
sweet	7788
non	7789
player	7790
stephen	7791
馮	7792
馳	7793
馴	7794
駁	7795
駄	7796
駅	7797
駆	7798
駐	7799
sarah	7800
駒	7801
駕	7802
駛	7803
駝	7804
駭	7805
works	7806
駱	7807
駿	7808
騁	7809
騎	7810
騏	7811
jones	7812
騙	7813
place	7814
騨	7815
speed	7816
騰	7817
focus	7818
騷	7819
驀	7820
驅	7821
驊	7822
audi	7823
驍	7824
驒	7825
驕	7826
驗	7827
驚	7828
驛	7829
驟	7830
驢	7831
驥	7832
骯	7833
髏	7834
髒	7835
體	7836
髖	7837
髮	7838
鬆	7839
鬍	7840
oil	7841
鬚	7842
鬢	7843
鬧	7844
鬱	7845
魘	7846
魚	7847
魯	7848
魷	7849
鮑	7850
鮪	7851
rebecca	7852
鮭	7853
鮮	7854
cook	7855
research	7856
鯉	7857
鯊	7858
鯖	7859
鯛	7860
june	7861
machine	7862
鯨	7863
uniqlo	7864
鯰	7865
uk	7866
鯽	7867
鰍	7868
鰓	7869
monday	7870
鰭	7871
鰲	7872
鰻	7873
鰾	7874
鱈	7875
鱉	7876
鱔	7877
鱗	7878
鱷	7879
鱸	7880
鳩	7881
鳴	7882
鳶	7883
鴉	7884
鴕	7885
tips	7886
鴛	7887
鴦	7888
鴨	7889
von	7890
鴻	7891
鴿	7892
鵑	7893
鵜	7894
鵝	7895
鵡	7896
鵬	7897
鵰	7898
鵲	7899
rmk	7900
鶘	7901
鶩	7902
鶯	7903
鶴	7904
鷗	7905
鷲	7906
鷹	7907
鷺	7908
brown	7909
鸚	7910
鸞	7911
鹵	7912
鹹	7913
鹼	7914
鹽	7915
麗	7916
麥	7917
麩	7918
麴	7919
麵	7920
麺	7921
omega	7922
麼	7923
黃	7924
點	7925
黨	7926
黴	7927
齊	7928
齋	7929
vm	7930
齒	7931
spf	7932
swiss	7933
review	7934
price	7935
齡	7936
齢	7937
齣	7938
齦	7939
龍	7940
龐	7941
龔	7942
email	7943
龕	7944
final	7945
龜	7946
︰	7947
︱	7948
︶	7949
social	7950
︿	7951
﹁	7952
﹂	7953
﹍	7954
﹏	7955
oracle	7956
﹐	7957
﹑	7958
﹒	7959
﹔	7960
﹕	7961
﹖	7962
﹗	7963
﹙	7964
﹚	7965
﹝	7966
﹞	7967
eleven	7968
﹡	7969
rd	7970
﹣	7971
`	7972
|	7973
｡	7974
｢	7975
｣	7976
､	7977
･	7978
ｯ	7979
ｰ	7980
ｲ	7981
ｸ	7982
ｼ	7983
ｽ	7984
beauty	7985
ﾄ	7986
ﾉ	7987
ﾌ	7988
ﾗ	7989
ﾙ	7990
ﾝ	7991
ﾞ	7992
ﾟ	7993
￣	7994
￥	7995
👍	7996
🔥	7997
head	7998
😂	7999
message	8000
😎	8001
yam	8002
10	8003
2017	8004
12	8005
css	8006
11	8007
2016	8008
20	8009
30	8010
15	8011
06	8012
##s	8013
2015	8014
16	8015
14	8016
18	8017
13	8018
24	8019
17	8020
2014	8021
21	8022
22	8023
manager	8024
19	8025
25	8026
23	8027
hair	8028
100	8029
urban	8030
00	8031
list	8032
05	8033
2013	8034
##a	8035
title	8036
03	8037
09	8038
longchamp	8039
08	8040
28	8041
50	8042
01	8043
04	8044
27	8045
harry	8046
02	8047
2012	8048
netflix	8049
alex	8050
26	8051
##e	8052
07	8053
trip	8054
glass	8055
29	8056
2011	8057
40	8058
##t	8059
2010	8060
##o	8061
bim	8062
##d	8063
##i	8064
marc	8065
2009	8066
##n	8067
##m	8068
31	8069
##c	8070
##l	8071
##y	8072
##r	8073
##g	8074
2008	8075
60	8076
200	8077
##p	8078
80	8079
##f	8080
pixnet	8081
90	8082
tripadvisor	8083
500	8084
##er	8085
##k	8086
35	8087
##h	8088
2007	8089
2000	8090
70	8091
##b	8092
##x	8093
##u	8094
matt	8095
45	8096
300	8097
cam	8098
wine	8099
32	8100
1000	8101
2006	8102
48	8103
36	8104
38	8105
3d	8106
##w	8107
##ing	8108
55	8109
ctrip	8110
##on	8111
##v	8112
33	8113
##の	8114
34	8115
400	8116
id	8117
2005	8118
37	8119
llc	8120
99	8121
42	8122
39	8123
000	8124
##an	8125
cake	8126
41	8127
51	8128
52	8129
46	8130
49	8131
43	8132
53	8133
44	8134
##z	8135
58	8136
royal	8137
59	8138
2004	8139
56	8140
##か	8141
bay	8142
5000	8143
2003	8144
47	8145
blogthis	8146
54	8147
##le	8148
150	8149
2018	8150
57	8151
75	8152
##in	8153
##mm	8154
800	8155
3000	8156
65	8157
2001	8158
360	8159
movie	8160
95	8161
120	8162
##ng	8163
##を	8164
##us	8165
##に	8166
てす	8167
600	8168
##te	8169
85	8170
2002	8171
88	8172
##ed	8173
html	8174
order	8175
ncc	8176
64	8177
##て	8178
volvo	8179
##al	8180
##ic	8181
##は	8182
##ia	8183
mango	8184
##と	8185
72	8186
##q	8187
98	8188
nbsp	8189
##ce	8190
##en	8191
##is	8192
##ra	8193
el	8194
##es	8195
##j	8196
1999	8197
4g	8198
beach	8199
##cm	8200
3c	8201
##お	8202
66	8203
86	8204
##ne	8205
hill	8206
62	8207
cdma	8208
daily	8209
##re	8210
101	8211
68	8212
##tion	8213
1998	8214
67	8215
##ch	8216
##or	8217
##na	8218
96	8219
pinterest	8220
97	8221
63	8222
##ta	8223
said	8224
1997	8225
mp3	8226
self	8227
700	8228
##ll	8229
92	8230
1995	8231
61	8232
76	8233
bonnie	8234
250	8235
##ie	8236
##ma	8237
add	8238
110	8239
78	8240
##ion	8241
kl	8242
77	8243
6000	8244
##th	8245
##st	8246
94	8247
ec	8248
##se	8249
##et	8250
69	8251
180	8252
105	8253
81	8254
89	8255
ghost	8256
79	8257
93	8258
1990	8259
1996	8260
##ck	8261
##も	8262
##ly	8263
web885	8264
106	8265
2020	8266
91	8267
##ge	8268
4000	8269
path	8270
1500	8271
daniel	8272
isbn	8273
1994	8274
org	8275
##ry	8276
ikea	8277
0fork	8278
73	8279
3g	8280
##ter	8281
##ar	8282
card	8283
71	8284
vi	8285
82	8286
##la	8287
xperia	8288
130	8289
1970	8290
83	8291
prime	8292
87	8293
140	8294
##os	8295
##el	8296
tea	8297
74	8298
##ml	8299
p2p	8300
tina	8301
84	8302
mike	8303
##る	8304
tue	8305
ann	8306
posted	8307
language	8308
##at	8309
##ン	8310
##man	8311
##ル	8312
1980	8313
##it	8314
104	8315
##てす	8316
##me	8317
sap	8318
##り	8319
1992	8320
##de	8321
state	8322
##nt	8323
class	8324
1993	8325
##mb	8326
##ve	8327
##da	8328
160	8329
file	8330
##い	8331
##ps	8332
から	8333
##to	8334
1989	8335
https	8336
##son	8337
##ke	8338
ebd	8339
apk	8340
##um	8341
oct	8342
brake	8343
##ス	8344
film	8345
1200	8346
する	8347
1991	8348
##こ	8349
##ない	8350
##ss	8351
㖞	8352
900	8353
lofter	8354
1988	8355
4k	8356
##as	8357
leonardo	8358
wed	8359
win7	8360
##co	8361
sense	8362
o2o	8363
##go	8364
235	8365
1949	8366
drive	8367
しい	8368
vfm	8369
##id	8370
jr	8371
##ey	8372
123	8373
rss	8374
##sa	8375
##ro	8376
##am	8377
##no	8378
thu	8379
fri	8380
350	8381
##sh	8382
##ki	8383
103	8384
comments	8385
##のて	8386
霈	8387
##pe	8388
##ine	8389
1987	8390
8000	8391
##mi	8392
##ton	8393
wordpress	8394
banner	8395
church	8396
1986	8397
1985	8398
##ment	8399
107	8400
win10	8401
##ld	8402
##li	8403
victoria	8404
##rs	8405
##ri	8406
main	8407
##rd	8408
##ます	8409
して	8410
をお	8411
##io	8412
1984	8413
paypal	8414
policy	8415
##ty	8416
102	8417
##ba	8418
wong	8419
##ga	8420
privacy	8421
##ny	8422
##by	8423
##ur	8424
##hz	8425
1982	8426
##ang	8427
265	8428
netscape	8429
108	8430
##ka	8431
##ad	8432
survey	8433
1979	8434
1950	8435
wikia	8436
5g	8437
##tor	8438
##kg	8439
1983	8440
##rt	8441
campaign	8442
2500	8443
##ct	8444
##ts	8445
control	8446
carol	8447
170	8448
api	8449
##ns	8450
365	8451
##な	8452
##ao	8453
##ら	8454
##し	8455
##nd	8456
163	8457
には	8458
518	8459
##ya	8460
##il	8461
pierre	8462
0020	8463
belle	8464
897	8465
hotels	8466
##ian	8467
のお	8468
125	8469
6606	8470
##ers	8471
##day	8472
##ay	8473
##line	8474
##く	8475
##す	8476
##be	8477
dragon	8478
yamservice	8479
10000	8480
##dy	8481
##ies	8482
1978	8483
david	8484
##ha	8485
1960	8486
その	8487
##ot	8488
1981	8489
##va	8490
115	8491
##mo	8492
##land	8493
ltxsw	8494
##ation	8495
220	8496
##pa	8497
##ol	8498
1945	8499
7000	8500
table	8501
450	8502
season	8503
##ue	8504
##ト	8505
##ca	8506
##om	8507
oops	8508
##ure	8509
##ん	8510
##き	8511
した	8512
dean	8513
##bo	8514
240	8515
ferragamo	8516
energy	8517
##way	8518
##から	8519
4600	8520
##ko	8521
##do	8522
##un	8523
4s	8524
il	8525
corporation	8526
starbucks	8527
168	8528
pre	8529
louis	8530
modern	8531
##ni	8532
herme	8533
978	8534
##up	8535
##ds	8536
します	8537
kiehl	8538
128	8539
##ee	8540
##た	8541
##ive	8542
××	8543
mon	8544
##cc	8545
##ました	8546
##ble	8547
##ity	8548
charlie	8549
114	8550
##ex	8551
##ler	8552
##ap	8553
##book	8554
20000	8555
##ice	8556
##km	8557
esc	8558
##mg	8559
##ms	8560
menu	8561
##cy	8562
##view	8563
server	8564
station	8565
teddy	8566
##lo	8567
##ね	8568
##oo	8569
1600	8570
step1	8571
135	8572
inc	8573
1976	8574
##net	8575
##ls	8576
##ii	8577
step2	8578
1300	8579
ios9	8580
##box	8581
##ley	8582
111	8583
280	8584
##ent	8585
##les	8586
いいえ	8587
buffet	8588
s8	8589
atom	8590
##said	8591
etf	8592
2025	8593
adidas	8594
1958	8595
##ber	8596
##ner	8597
dec	8598
##der	8599
1800	8600
connectivity	8601
##hi	8602
firefox	8603
int	8604
109	8605
118	8606
mark	8607
skip	8608
1975	8609
##ir	8610
190	8611
global	8612
##う	8613
##ai	8614
##ver	8615
1900	8616
113	8617
129	8618
##ron	8619
##ster	8620
##sk	8621
##ft	8622
##ti	8623
䁖	8624
##my	8625
##ker	8626
ocean	8627
rf	8628
source	8629
136	8630
112	8631
##one	8632
126	8633
##ow	8634
1972	8635
goods	8636
##lin	8637
python	8638
119	8639
##ip	8640
##ics	8641
##ません	8642
520	8643
1955	8644
260	8645
1968	8646
618	8647
ivy	8648
sophie	8649
cache	8650
##ff	8651
くたさい	8652
ganji	8653
“	8654
”	8655
~	8656
(	8657
…	8658
+	8659
)	8660
##3	8661
=	8662
-	8663
<	8664
;	8665
%	8666
【	8667
】	8668
*	8669
余	8670
唿	8671
『	8672
』	8673
—	8674
‘	8675
@	8676
##nce	8677
[	8678
"	8679
&	8680
^	8681
1977	8682
’	8683
「	8684
」	8685
>	8686
1971	8687
1973	8688
]	8689
##per	8690
faq	8691
comment	8692
march	8693
april	8694
{	8695
}	8696
##って	8697
##ock	8698
〔	8699
〕	8700
116	8701
–	8702
幺	8703
$	8704
##bs	8705
jobs	8706
1974	8707
1969	8708
v1	8709
1956	8710
f1	8711
139	8712
##ah	8713
210	8714
adam	8715
taipei	8716
##lv	8717
lte	8718
##mp	8719
ryan	8720
1957	8721
550	8722
17life	8723
〈	8724
〉	8725
jane	8726
\	8727
199	8728
christian	8729
1966	8730
xml	8731
ver	8732
market	8733
##au	8734
999	8735
company	8736
roger	8737
##age	8738
##ting	8739
jan	8740
mysql	8741
jim	8742
steve	8743
vera	8744
george	8745
1959	8746
230	8747
##ung	8748
wonderland	8749
hotmail	8750
##ction	8751
festival	8752
event	8753
9000	8754
view	8755
children	8756
singapore	8757
system	8758
1946	8759
emba	8760
1962	8761
junior	8762
article	8763
##db	8764
design	8765
wedding	8766
part	8767
party	8768
って	8769
1967	8770
1964	8771
1948	8772
##ore	8773
##op	8774
この	8775
gsm	8776
010	8777
225	8778
1965	8779
##ong	8780
art	8781
320	8782
134	8783
020	8784
117	8785
pm2	8786
228	8787
1963	8788
var	8789
##ica	8790
2019	8791
##wa	8792
##や	8793
cookies	8794
1937	8795
homemesh	8796
search	8797
##れは	8798
##tv	8799
return	8800
##di	8801
##くたさい	8802
type	8803
った	8804
750	8805
##ier	8806
##si	8807
##います	8808
##ok	8809
silver	8810
##ット	8811
goris	8812
aug	8813
mandy	8814
##った	8815
3m	8816
##ut	8817
ftp	8818
##vi	8819
10	8820
1961	8821
happy	8822
##ac	8823
xddd	8824
122	8825
1920	8826
vsc	8827
138	8828
##ラ	8829
1940	8830
tags	8831
august	8832
154	8833
##fs	8834
##れ	8835
wd	8836
##sion	8837
##ム	8838
press	8839
##tt	8840
golden	8841
1080p	8842
##lt	8843
1952	8844
##bc	8845
##ック	8846
133	8847
121	8848
##rry	8849
201	8850
175	8851
3500	8852
1947	8853
error	8854
##ted	8855
##rn	8856
しています	8857
1954	8858
usd	8859
cbs	8860
##ンク	8861
001	8862
1953	8863
goo	8864
ても	8865
##ui	8866
127	8867
tel	8868
1930	8869
##ary	8870
item	8871
##pm	8872
270	8873
##za	8874
blogabstract	8875
##ger	8876
650	8877
gr2	8878
##します	8879
##m	8880
electronic	8881
asus	8882
また	8883
html5	8884
##hd	8885
m3	8886
132	8887
##od	8888
fed	8889
##ina	8890
165	8891
##いる	8892
192	8893
distribution	8894
になる	8895
1941	8896
にも	8897
pk10	8898
##ix	8899
##ana	8900
icecat	8901
00z	8902
william	8903
b1	8904
##ji	8905
##み	8906
##ard	8907
##ain	8908
##ze	8909
##bi	8910
cio	8911
smart	8912
h5	8913
##port	8914
curve	8915
##nm	8916
##dia	8917
utc	8918
##あり	8919
12345678910	8920
a4	8921
##and	8922
##im	8923
5s	8924
124	8925
##して	8926
##フ	8927
##ei	8928
national	8929
1951	8930
5cm	8931
888	8932
145	8933
1100	8934
5mm	8935
211	8936
2756	8937
mp4	8938
msci	8939
##po	8940
131	8941
380	8942
##bit	8943
cto	8944
wma	8945
##out	8946
##zz	8947
158	8948
opec	8949
ては	8950
##tes	8951
##ast	8952
2g	8953
##ling	8954
##よ	8955
jpeg	8956
傀	8957
##ory	8958
1938	8959
quick	8960
brian	8961
##ical	8962
content	8963
step3	8964
##cn	8965
win8	8966
155	8967
1400	8968
iphone7	8969
robert	8970
##した	8971
137	8972
dollars	8973
##ys	8974
##oc	8975
a1	8976
##lly	8977
##ks	8978
1939	8979
188	8980
download	8981
1944	8982
december	8983
います	8984
##board	8985
##lan	8986
winrar	8987
##que	8988
##ua	8989
##com	8990
1942	8991
saint	8992
1936	8993
480	8994
ettoday	8995
##ren	8996
##via	8997
149	8998
united	8999
b2b	9000
144	9001
㶶	9002
##tch	9003
##ial	9004
##nn	9005
nvidia	9006
step4	9007
156	9008
##イ	9009
mar	9010
591	9011
2765	9012
##xx	9013
##ser	9014
copyright	9015
1935	9016
##け	9017
ecu	9018
##ist	9019
##art	9020
##lm	9021
##ek	9022
##ning	9023
##if	9024
##ite	9025
video	9026
1943	9027
iot	9028
##ku	9029
october	9030
##ux	9031
##hs	9032
##ide	9033
box	9034
141	9035
##ins	9036
##ight	9037
185	9038
protected	9039
151	9040
162	9041
x1	9042
m2	9043
##fe	9044
##×	9045
##ho	9046
143	9047
gomaji	9048
##のか	9049
##lla	9050
##pp	9051
##ec	9052
6s	9053
720p	9054
##rm	9055
##ham	9056
fandom	9057
299	9058
##ell	9059
info	9060
4066	9061
161	9062
##able	9063
##ctor	9064
330	9065
399	9066
315	9067
dll	9068
rights	9069
ltd	9070
idc	9071
3kg	9072
1927	9073
142	9074
##ク	9075
304	9076
eps	9077
cbc	9078
146	9079
donald	9080
v2	9081
sodu	9082
##light	9083
javascript	9084
1931	9085
148	9086
1700	9087
まて	9088
310	9089
reserved	9090
htm	9091
##han	9092
2d	9093
178	9094
##ise	9095
##tions	9096
152	9097
##shi	9098
doc	9099
1933	9100
icp	9101
055	9102
##ram	9103
##pi	9104
##well	9105
wam	9106
b2	9107
からお	9108
##hu	9109
236	9110
1928	9111
##gb	9112
266	9113
f2	9114
153	9115
##ef	9116
##uan	9117
bwl	9118
##plus	9119
##res	9120
##ess	9121
hktvmall	9122
##ate	9123
##ese	9124
301	9125
feb	9126
4m	9127
inn	9128
ての	9129
159	9130
12345	9131
##ci	9132
##bet	9133
##nk	9134
202	9135
ssl	9136
##ute	9137
woshipm	9138
skype	9139
##fc	9140
##www	9141
007	9142
fpga	9143
##ght	9144
##gs	9145
claire	9146
iso9001	9147
さい	9148
䝙	9149
##ile	9150
##wood	9151
reply	9152
##uo	9153
network	9154
##em	9155
1932	9156
says	9157
##king	9158
##tive	9159
blogger	9160
なと	9161
256	9162
147	9163
##ox	9164
##zy	9165
##red	9166
##ium	9167
##lf	9168
##リ	9169
##ding	9170
lohas	9171
##tic	9172
##マ	9173
asia	9174
##cs	9175
##ある	9176
##che	9177
##ire	9178
##gy	9179
##ult	9180
january	9181
##カ	9182
disney	9183
166	9184
##ま	9185
##つ	9186
198	9187
##fa	9188
##mer	9189
pchome	9190
nov	9191
はい	9192
udn	9193
420	9194
##time	9195
##tte	9196
2030	9197
##ア	9198
foundation	9199
sep	9200
g20	9201
かかります	9202
1929	9203
308	9204
##おります	9205
309b	9206
777	9207
jennifer	9208
172	9209
ちてない	9210
4500	9211
magazine	9212
##tra	9213
##ては	9214
##ern	9215
ces	9216
s7	9217
##ous	9218
1934	9219
##int	9220
rosie	9221
183	9222
cho	9223
qr	9224
##car	9225
##our	9226
186	9227
##ant	9228
planet	9229
##d	9230
1914	9231
rends	9232
##jo	9233
##する	9234
mastercard	9235
##min	9236
tvbs	9237
290	9238
##ino	9239
##ris	9240
##ud	9241
2400	9242
##set	9243
169	9244
1912	9245
##her	9246
##ou	9247
しく	9248
䙓	9249
䜣	9250
205	9251
##ませんか	9252
232	9253
##fi	9254
勐	9255
express	9256
255	9257
䌽	9258
##ill	9259
aphojoy	9260
user	9261
meiki	9262
##ick	9263
apr	9264
tweet	9265
##av	9266
##ᆫ	9267
iphone6	9268
jul	9269
##dd	9270
ちてすか	9271
views	9272
##mark	9273
321	9274
䌼	9275
##ash	9276
10g	9277
5l	9278
##ome	9279
208	9280
㶽	9281
koreanmall	9282
##ak	9283
q2	9284
206	9285
tcp	9286
䴖	9287
㧟	9288
スタッフ	9289
mlb	9290
##lle	9291
𡒄	9292
㧑	9293
䍁	9294
#	9295
##watch	9296
䯄	9297
179	9298
䞐	9299
䍀	9300
911	9301
null	9302
䴘	9303
##und	9304
䴙	9305
##8	9306
##5	9307
##6	9308
·	9309
：	9310
屌	9311
涧	9312
壑	9313
棹	9314
嗟	9315
鸾	9316
旌	9317
杳	9318
霭	9319
迥	9320
霁	9321
祇	9322
樵	9323
宦	9324
顷	9325
暝	9326
觞	9327
濛	9328
隠	9329
峦	9330
泠	9331
藜	9332
溟	9333
嶂	9334
诏	9335
捲	9336
皎	9337
槎	9338
蟠	9339
濯	9340
戍	9341
屐	9342
潺	9343
仞	9344
欹	9345
闾	9346
萋	9347
岫	9348
凫	9349
谪	9350
蓑	9351
藉	9352
偃	9353
筇	9354
峭	9355
翳	9356
衾	9357
瓮	9358
祗	9359
嵬	9360
磴	9361
簟	9362
篁	9363
畦	9364
袂	9365
篆	9366
薜	9367
磬	9368
瀛	9369
辇	9370
扃	9371
蹇	9372
汲	9373
髯	9374
雉	9375
夙	9376
镫	9377
粲	9378
谒	9379
缨	9380
蛩	9381
（	9382
）	9383
/	9384
×	9385
～	9386
÷	9387
锌	9388
磷	9389
烯	9390
瘙	9391
酯	9392
锰	9393
锂	9394
肽	9395
＋	9396
酉	9397
疝	9398
硒	9399
酚	9400
戊	9401
烷	9402
癸	9403
壬	9404
戌	9405
囗	9406
巳	9407
锚	9408
瘘	9409
斛	9410
吒	9411
氙	9412
阪	9413
芪	9414
溴	9415
＂	9416
；	9417
―	9418
－	9419
＝	9420
android	9421
xbox	9422
π	9423
最	9424
反	9425
感	9426
那	9427
种	9428
说	9429
教	9430
类	9431
的	9432
小	9433
品	9434
前	9435
面	9436
搞	9437
笑	9438
##4	9439
后	9440
煽	9441
情	9442
也	9443
不	9444
喜	9445
欢	9446
咱	9447
工	9448
人	9449
要	9450
替	9451
国	9452
家	9453
想	9454
我	9455
下	9456
岗	9457
谁	9458
.	9459
所	9460
以	9461
还	9462
是	9463
陈	9464
二	9465
作	9466
更	9467
有	9468
味	9469
道	9470
##9	9471
百	9472
看	9473
厌	9474
他	9475
长	9476
得	9477
就	9478
哈	9479
养	9480
伤	9481
行	9482
必	9483
须	9484
康	9485
复	9486
又	9487
习	9488
了	9489
一	9490
遍	9491
马	9492
大	9493
帅	9494
抓	9495
紧	9496
时	9497
间	9498
慢	9499
鲷	9500
鳍	9501
佔	9502
毂	9503
鲀	9504
铢	9505
茯	9506
偻	9507
佝	9508
酰	9509
覃	9510
酐	9511
蝽	9512
苋	9513
盂	9514
铬	9515
肱	9516
鹟	9517
蒡	9518
荃	9519
疥	9520
焯	9521
蔺	9522
谚	9523
矽	9524
苷	9525
骐	9526
髋	9527
膑	9528
葚	9529
憩	9530
硼	9531
脲	9532
钊	9533
鸫	9534
鞅	9535
炔	9536
稷	9537
鄱	9538
亳	9539
鳕	9540
霰	9541
贲	9542
颞	9543
葆	9544
馏	9545
痢	9546
蚜	9547
骊	9548
郦	9549
溧	9550
萸	9551
祀	9552
麝	9553
腓	9554
蜍	9555
鹂	9556
铵	9557
钣	9558
蕨	9559
芡	9560
呋	9561
燊	9562
肟	9563
漕	9564
羟	9565
崙	9566
啉	9567
骥	9568
蟋	9569
钴	9570
纂	9571
眦	9572
龋	9573
吡	9574
鳃	9575
髁	9576
贮	9577
札	9578
橼	9579
蚧	9580
骶	9581
鲑	9582
诃	9583
谥	9584
胍	9585
蟀	9586
淞	9587
嘌	9588
邸	9589
隼	9590
淬	9591
呤	9592
髌	9593
蓟	9594
镍	9595
胫	9596
羌	9597
茭	9598
涿	9599
蠊	9600
銮	9601
沅	9602
嗪	9603
岀	9604
钜	9605
钼	9606
氩	9607
蛱	9608
鹄	9609
蜃	9610
钡	9611
苄	9612
秆	9613
纣	9614
疽	9615
醚	9616
耵	9617
笈	9618
仄	9619
弼	9620
瓯	9621
鹳	9622
鹀	9623
铡	9624
聍	9625
猷	9626
冼	9627
绦	9628
秸	9629
螟	9630
璜	9631
锉	9632
疖	9633
沭	9634
虻	9635
韮	9636
樨	9637
谟	9638
骞	9639
汞	9640
岷	9641
遴	9642
啶	9643
腭	9644
甬	9645
衙	9646
炀	9647
琮	9648
鲢	9649
邬	9650
榈	9651
滘	9652
跖	9653
蜇	9654
矾	9655
笺	9656
箔	9657
芩	9658
癔	9659
浜	9660
囟	9661
帼	9662
骋	9663
蠹	9664
烃	9665
儡	9666
鸮	9667
扦	9668
酞	9669
鹜	9670
镭	9671
疟	9672
翊	9673
帛	9674
赓	9675
晁	9676
泮	9677
邨	9678
讴	9679
螈	9680
艽	9681
徙	9682
枞	9683
鲟	9684
颍	9685
蜱	9686
螯	9687
薹	9688
盱	9689
瘢	9690
桡	9691
箴	9692
琨	9693
琏	9694
髂	9695
涪	9696
铣	9697
谏	9698
阆	9699
昶	9700
聿	9701
苣	9702
醪	9703
眙	9704
蚩	9705
纥	9706
嵇	9707
皲	9708
鲉	9709
耦	9710
沣	9711
勰	9712
砥	9713
邳	9714
弋	9715
蛉	9716
谕	9717
蜊	9718
荪	9719
焱	9720
碣	9721
懋	9722
赳	9723
墉	9724
疳	9725
缙	9726
楔	9727
匾	9728
纨	9729
绔	9730
瘊	9731
蠡	9732
涣	9733
颢	9734
睢	9735
铿	9736
钨	9737
黜	9738
喹	9739
痈	9740
渥	9741
潴	9742
豇	9743
濂	9744
溉	9745
剌	9746
遨	9747
菡	9748
鹎	9749
铨	9750
罹	9751
罡	9752
羧	9753
鲳	9754
稹	9755
珪	9756
楹	9757
巽	9758
苻	9759
佞	9760
唳	9761
淖	9762
碚	9763
妤	9764
鹫	9765
獭	9766
碁	9767
侗	9768
韫	9769
谵	9770
涞	9771
徕	9772
氦	9773
莒	9774
诘	9775
珏	9776
榭	9777
汛	9778
兖	9779
囱	9780
锹	9781
壅	9782
焘	9783
岘	9784
鹬	9785
苜	9786
蓿	9787
丅	9788
吋	9789
酊	9790
砼	9791
桧	9792
竽	9793
垩	9794
堃	9795
镕	9796
炆	9797
鳚	9798
醴	9799
蚬	9800
稞	9801
颉	9802
枥	9803
胄	9804
萘	9805
骅	9806
鲆	9807
刈	9808
獾	9809
谡	9810
鳢	9811
鹩	9812
蹟	9813
铀	9814
苁	9815
攸	9816
柘	9817
砷	9818
疔	9819
葭	9820
芾	9821
喙	9822
撷	9823
讬	9824
瑗	9825
翦	9826
鵙	9827
贻	9828
祚	9829
洮	9830
麋	9831
滦	9832
璟	9833
胛	9834
澍	9835
蜒	9836
骝	9837
劾	9838
崧	9839
蝾	9840
缰	9841
嵘	9842
垠	9843
艮	9844
鲾	9845
砲	9846
毗	9847
菖	9848
耒	9849
筏	9850
樾	9851
怆	9852
鹞	9853
倬	9854
魣	9855
瘿	9856
鲮	9857
犸	9858
牦	9859
锭	9860
鳙	9861
啮	9862
鞣	9863
螋	9864
旸	9865
垚	9866
鹈	9867
鹕	9868
堇	9869
嵊	9870
芨	9871
潞	9872
鸲	9873
舷	9874
鸪	9875
甪	9876
喴	9877
笆	9878
饯	9879
槲	9880
玠	9881
鰕	9882
讚	9883
鹧	9884
荸	9885
鲇	9886
蛏	9887
邝	9888
岬	9889
遏	9890
舂	9891
巜	9892
綦	9893
玑	9894
蒹	9895
孪	9896
菽	9897
锺	9898
鮨	9899
椹	9900
昰	9901
浠	9902
鄢	9903
缬	9904
夔	9905
纾	9906
骠	9907
荻	9908
揆	9909
庠	9910
脘	9911
椴	9912
菟	9913
辊	9914
刎	9915
煅	9916
葳	9917
醐	9918
垛	9919
铋	9920
锷	9921
郯	9922
鼹	9923
缜	9924
笕	9925
螽	9926
鲣	9927
僱	9928
鲹	9929
珙	9930
珐	9931
胗	9932
裟	9933
鳟	9934
糸	9935
垅	9936
箐	9937
铆	9938
埭	9939
砭	9940
楫	9941
磡	9942
癀	9943
庖	9944
缢	9945
悭	9946
鹱	9947
煊	9948
膦	9949
淝	9950
気	9951
铰	9952
朐	9953
敕	9954
锗	9955
耘	9956
镛	9957
蜉	9958
涓	9959
鄯	9960
蝰	9961
濉	9962
骈	9963
淦	9964
燧	9965
闳	9966
刿	9967
瑭	9968
鮈	9969
鹨	9970
邈	9971
蝼	9972
氚	9973
佶	9974
翱	9975
脍	9976
袈	9977
浯	9978
埗	9979
坻	9980
缄	9981
柞	9982
骧	9983
铖	9984
锴	9985
貘	9986
跗	9987
烺	9988
坳	9989
檗	9990
逑	9991
亓	9992
缮	9993
粳	9994
颛	9995
岙	9996
绻	9997
芎	9998
袪	9999
豕	10000
晷	10001
赟	10002
鳉	10003
澧	10004
娑	10005
饴	10006
崆	10007
鲽	10008
砜	10009
珩	10010
耜	10011
锆	10012
涸	10013
俣	10014
锲	10015
雒	10016
晔	10017
珲	10018
孛	10019
皴	10020
鼩	10021
蛄	10022
蕲	10023
粼	10024
郏	10025
刍	10026
嘧	10027
镗	10028
驷	10029
嵋	10030
儋	10031
肄	10032
诒	10033
歺	10034
栉	10035
祜	10036
沆	10037
豺	10038
瓒	10039
蠓	10040
勳	10041
羑	10042
郅	10043
鬃	10044
钎	10045
桉	10046
囯	10047
蜿	10048
骺	10049
炝	10050
砀	10051
邺	10052
绀	10053
锟	10054
萁	10055
瓤	10056
邡	10057
琬	10058
逖	10059
甙	10060
繇	10061
滛	10062
稗	10063
菸	10064
璘	10065
鲭	10066
塾	10067
勣	10068
蓖	10069
菀	10070
垭	10071
戡	10072
邛	10073
鳐	10074
峒	10075
槃	10076
肼	10077
徳	10078
樯	10079
幄	10080
亍	10081
湟	10082
蒌	10083
靛	10084
锑	10085
佃	10086
氘	10087
踞	10088
赭	10089
昇	10090
鸬	10091
薮	10092
麂	10093
阕	10094
鹛	10095
恂	10096
蕖	10097
娡	10098
檄	10099
钸	10100
昉	10101
鵖	10102
琯	10103
忱	10104
恽	10105
崃	10106
蝮	10107
铱	10108
夲	10109
釆	10110
犇	10111
芫	10112
冃	10113
邗	10114
砧	10115
腈	10116
霎	10117
歙	10118
榉	10119
镌	10120
幡	10121
牍	10122
嫒	10123
萼	10124
鹚	10125
虢	10126
缱	10127
滟	10128
鼯	10129
瘰	10130
菰	10131
鮻	10132
鲂	10133
鲬	10134
皝	10135
逯	10136
鲃	10137
缵	10138
翀	10139
姪	10140
蓥	10141
钿	10142
砗	10143
磲	10144
杓	10145
罘	10146
锶	10147
腘	10148
绗	10149
僖	10150
畠	10151
艹	10152
郢	10153
殒	10154
篦	10155
俶	10156
郓	10157
貉	10158
俚	10159
鳔	10160
峇	10161
沏	10162
笳	10163
蛲	10164
苡	10165
舖	10166
魟	10167
燚	10168
宓	10169
籤	10170
諡	10171
豸	10172
姒	10173
奭	10174
樘	10175
畑	10176
祉	10177
桁	10178
赉	10179
靥	10180
衿	10181
鎏	10182
裢	10183
鲎	10184
簌	10185
爰	10186
舫	10187
悪	10188
虬	10189
熠	10190
绶	10191
芗	10192
阈	10193
乚	10194
庝	10195
廋	10196
钒	10197
渑	10198
潋	10199
桅	10200
蘅	10201
亶	10202
蚶	10203
紮	10204
搠	10205
镳	10206
魮	10207
鮟	10208
鱇	10209
畿	10210
钏	10211
铍	10212
鹡	10213
鸰	10214
掸	10215
枋	10216
鳜	10217
蓼	10218
蒺	10219
垡	10220
冗	10221
褡	10222
缎	10223
郗	10224
贽	10225
秣	10226
頫	10227
焓	10228
夌	10229
熵	10230
蜢	10231
琚	10232
囫	10233
囵	10234
讥	10235
蠖	10236
茕	10237
巿	10238
乩	10239
铧	10240
娉	10241
杲	10242
萏	10243
洺	10244
杼	10245
苈	10246
秕	10247
胬	10248
甡	10249
飏	10250
镠	10251
蓁	10252
昺	10253
谘	10254
弢	10255
彳	10256
蟌	10257
劭	10258
勖	10259
鵟	10260
箓	10261
艋	10262
悌	10263
篙	10264
蕈	10265
澹	10266
峤	10267
矗	10268
嗌	10269
笫	10270
祘	10271
愎	10272
増	10273
畈	10274
镚	10275
禛	10276
唛	10277
鹍	10278
汩	10279
栢	10280
谯	10281
蝣	10282
刽	10283
垟	10284
庥	10285
郧	10286
捌	10287
吲	10288
楸	10289
耨	10290
鹮	10291
蚰	10292
铷	10293
廯	10294
骛	10295
鲡	10296
犍	10297
鮀	10298
玗	10299
翌	10300
叡	10301
蛞	10302
蝓	10303
喑	10304
墀	10305
猇	10306
痄	10307
镝	10308
嫲	10309
洄	10310
癒	10311
昃	10312
槻	10313
璿	10314
鱵	10315
穟	10316
箜	10317
篌	10318
鞑	10319
靼	10320
髫	10321
澶	10322
夥	10323
璠	10324
咥	10325
汜	10326
誊	10327
炘	10328
玦	10329
蕻	10330
耆	10331
黼	10332
葶	10333
抟	10334
栒	10335
赜	10336
佺	10337
圻	10338
龛	10339
汨	10340
饷	10341
魍	10342
昴	10343
彘	10344
猗	10345
岖	10346
婀	10347
檫	10348
咭	10349
桜	10350
髻	10351
偲	10352
咛	10353
歩	10354
滠	10355
髙	10356
蹴	10357
湍	10358
鎌	10359
卮	10360
哚	10361
镉	10362
榅	10363
桲	10364
槑	10365
乂	10366
谑	10367
荽	10368
埙	10369
邰	10370
溆	10371
庹	10372
鸱	10373
滂	10374
钤	10375
杈	10376
硚	10377
滢	10378
顼	10379
彟	10380
喾	10381
钯	10382
仝	10383
螅	10384
珣	10385
姮	10386
妺	10387
蘼	10388
梶	10389
桤	10390
莙	10391
鳀	10392
麐	10393
澪	10394
瓌	10395
丼	10396
慾	10397
崑	10398
鎗	10399
骢	10400
祓	10401
睨	10402
翃	10403
颎	10404
隰	10405
鳽	10406
柟	10407
杌	10408
砬	10409
薷	10410
菘	10411
锢	10412
佤	10413
査	10414
啇	10415
鄄	10416
篝	10417
亻	10418
秭	10419
鍊	10420
庒	10421
醌	10422
箅	10423
塍	10424
楽	10425
墒	10426
俟	10427
陟	10428
崮	10429
廪	10430
毽	10431
尓	10432
呔	10433
跬	10434
阋	10435
礻	10436
匍	10437
楢	10438
蓍	10439
鹘	10440
浐	10441
镒	10442
臾	10443
铄	10444
楣	10445
鋆	10446
遽	10447
睥	10448
焜	10449
镓	10450
湮	10451
摈	10452
癍	10453
蟥	10454
荙	10455
黇	10456
镈	10457
鳎	10458
捩	10459
黉	10460
僭	10461
醣	10462
毬	10463
樑	10464
迺	10465
爌	10466
荜	10467
偈	10468
哙	10469
鳇	10470
裾	10471
躄	10472
娫	10473
礽	10474
旖	10475
冔	10476
绂	10477
辿	10478
唞	10479
舺	10480
潟	10481
笏	10482
钕	10483
楝	10484
褴	10485
猞	10486
魉	10487
瓠	10488
狨	10489
苎	10490
鼋	10491
嗫	10492
礴	10493
埴	10494
氐	10495
趸	10496
讫	10497
呑	10498
孓	10499
亅	10500
抜	10501
嗄	10502
珥	10503
轭	10504
砾	10505
醅	10506
羰	10507
妯	10508
娌	10509
袤	10510
変	10511
凇	10512
罔	10513
湴	10514
鹗	10515
檩	10516
稔	10517
煨	10518
麾	10519
畹	10520
滏	10521
掣	10522
滳	10523
谗	10524
酢	10525
禤	10526
瘕	10527
恸	10528
仡	10529
呎	10530
氕	10531
擢	10532
迤	10533
苤	10534
悫	10535
羸	10536
栆	10537
鸅	10538
癃	10539
鱲	10540
耧	10541
鮰	10542
鸸	10543
鹋	10544
屄	10545
畲	10546
枏	10547
澉	10548
逌	10549
湳	10550
蠃	10551
濬	10552
嬗	10553
猡	10554
曽	10555
凖	10556
侂	10557
寯	10558
鼒	10559
蚖	10560
忞	10561
廙	10562
顗	10563
柽	10564
棻	10565
柰	10566
犰	10567
狳	10568
铳	10569
亟	10570
褛	10571
芘	10572
佚	10573
戸	10574
仼	10575
诜	10576
氿	10577
浈	10578
钆	10579
鉄	10580
伫	10581
円	10582
魑	10583
陲	10584
佥	10585
様	10586
桷	10587
愽	10588
侓	10589
忡	10590
丌	10591
砣	10592
扌	10593
蟮	10594
媞	10595
铯	10596
颡	10597
牯	10598
趺	10599
舀	10600
颔	10601
胼	10602
诙	10603
晌	10604
娈	10605
拄	10606
乗	10607
愍	10608
竛	10609
邠	10610
籼	10611
晩	10612
佯	10613
渃	10614
伝	10615
蘖	10616
曈	10617
龢	10618
氾	10619
萜	10620
儆	10621
埇	10622
孖	10623
弁	10624
蔵	10625
嚢	10626
艏	10627
枘	10628
婼	10629
箬	10630
圪	10631
橐	10632
酃	10633
绌	10634
鏖	10635
啖	10636
蝥	10637
雫	10638
鲻	10639
鲔	10640
羗	10641
獐	10642
阇	10643
腴	10644
瑷	10645
尪	10646
褫	10647
犛	10648
粝	10649
锔	10650
悝	10651
桫	10652
椤	10653
诔	10654
砦	10655
狎	10656
巎	10657
蜾	10658
笪	10659
鸻	10660
垧	10661
戆	10662
堉	10663
鏸	10664
琇	10665
鯙	10666
裒	10667
钺	10668
玚	10669
儁	10670
訾	10671
腧	10672
玹	10673
棐	10674
踽	10675
愔	10676
碇	10677
暐	10678
黾	10679
猁	10680
觑	10681
舛	10682
収	10683
凊	10684
傩	10685
囝	10686
吿	10687
哓	10688
朊	10689
圧	10690
氖	10691
汊	10692
俅	10693
敝	10694
轸	10695
聩	10696
枧	10697
椋	10698
圹	10699
揸	10700
梾	10701
恵	10702
孳	10703
腙	10704
葑	10705
応	10706
馓	10707
茌	10708
挿	10709
弾	10710
薙	10711
圏	10712
沤	10713
沢	10714
胝	10715
髭	10716
埤	10717
翥	10718
殓	10719
邙	10720
峄	10721
炟	10722
刬	10723
疃	10724
觐	10725
溱	10726
婳	10727
坩	10728
祙	10729
痳	10730
捭	10731
疋	10732
舐	10733
蠼	10734
獴	10735
硐	10736
冮	10737
晙	10738
梿	10739
嘹	10740
吥	10741
愬	10742
栛	10743
啜	10744
饸	10745
幔	10746
枳	10747
鲺	10748
迣	10749
荮	10750
蘘	10751
绉	10752
颏	10753
蹠	10754
谶	10755
杬	10756
呒	10757
霑	10758
笄	10759
瑈	10760
鳊	10761
苾	10762
邾	10763
琤	10764
徭	10765
栐	10766
暱	10767
斡	10768
黻	10769
湧	10770
鑑	10771
馑	10772
祕	10773
勔	10774
岌	10775
圜	10776
榑	10777
媾	10778
缫	10779
蚡	10780
瓿	10781
垌	10782
硧	10783
觜	10784
尛	10785
鹇	10786
傈	10787
僳	10788
鮡	10789
挹	10790
簕	10791
鰶	10792
殛	10793
涙	10794
诤	10795
瓘	10796
暠	10797
瑀	10798
鷉	10799
棨	10800
璈	10801
蛸	10802
鲿	10803
鱚	10804
壦	10805
廌	10806
鸺	10807
鹠	10808
黧	10809
玙	10810
洢	10811
旎	10812
蜑	10813
俳	10814
诂	10815
寔	10816
凪	10817
辂	10818
榘	10819
纡	10820
蟜	10821
垍	10822
腠	10823
溞	10824
埼	10825
茀	10826
沔	10827
妘	10828
嵯	10829
阝	10830
蒎	10831
梱	10832
扺	10833
淸	10834
毎	10835
镙	10836
塬	10837
匚	10838
渌	10839
挢	10840
诿	10841
摒	10842
鸶	10843
仏	10844
曷	10845
诰	10846
砟	10847
厶	10848
髀	10849
缟	10850
菪	10851
淙	10852
殄	10853
玕	10854
倏	10855
埕	10856
酩	10857
泞	10858
掬	10859
垕	10860
镣	10861
薬	10862
迸	10863
卾	10864
巻	10865
挌	10866
塱	10867
挷	10868
逄	10869
踵	10870
戦	10871
怱	10872
徇	10873
睌	10874
囔	10875
揠	10876
帙	10877
恻	10878
氹	10879
圀	10880
苺	10881
莼	10882
蚨	10883
卍	10884
桖	10885
哞	10886
蹑	10887
盥	10888
阗	10889
铥	10890
箧	10891
奌	10892
骖	10893
戢	10894
俸	10895
甑	10896
嫱	10897
枊	10898
妀	10899
袛	10900
刭	10901
赝	10902
証	10903
棂	10904
勄	10905
泅	10906
伉	10907
饹	10908
肫	10909
冣	10910
罴	10911
玘	10912
跛	10913
阊	10914
芶	10915
珹	10916
姫	10917
潸	10918
荑	10919
睪	10920
疬	10921
乣	10922
竜	10923
蚴	10924
绨	10925
茛	10926
崁	10927
讦	10928
牠	10929
効	10930
倢	10931
伃	10932
脒	10933
洹	10934
牒	10935
柃	10936
爨	10937
酆	10938
槭	10939
埚	10940
鳡	10941
濞	10942
臬	10943
醯	10944
竑	10945
苌	10946
閒	10947
甦	10948
砵	10949
谿	10950
窭	10951
胪	10952
闼	10953
槊	10954
彀	10955
剡	10956
絺	10957
缳	10958
笞	10959
黥	10960
洴	10961
陉	10962
偪	10963
糌	10964
俷	10965
艨	10966
艟	10967
譞	10968
耏	10969
塽	10970
琎	10971
蒴	10972
纮	10973
洧	10974
锜	10975
桕	10976
鲼	10977
鸊	10978
嬿	10979
鐭	10980
枬	10981
鋐	10982
鼱	10983
妫	10984
蒨	10985
掮	10986
熞	10987
谠	10988
菝	10989
鯻	10990
玞	10991
仉	10992
锽	10993
垿	10994
屺	10995
燠	10996
贠	10997
垓	10998
荦	10999
媁	11000
昖	11001
榎	11002
藨	11003
瑱	11004
瑮	11005
瑂	11006
璂	11007
瘅	11008
忤	11009
坜	11010
梼	11011
镧	11012
鴗	11013
赈	11014
禩	11015
矸	11016
菔	11017
爿	11018
怃	11019
蓠	11020
膻	11021
涔	11022
缶	11023
関	11024
氵	11025
氤	11026
氲	11027
厍	11028
恣	11029
謇	11030
唁	11031
粿	11032
桎	11033
蕤	11034
両	11035
卐	11036
殚	11037
艿	11038
窨	11039
靣	11040
襁	11041
褓	11042
莅	11043
媓	11044
笤	11045
凼	11046
佂	11047
迳	11048
苐	11049
涑	11050
姌	11051
帢	11052
総	11053
擘	11054
蔴	11055
怏	11056
廻	11057
茏	11058
胨	11059
狃	11060
込	11061
発	11062
鲥	11063
慱	11064
惴	11065
拃	11066
徜	11067
砉	11068
読	11069
逋	11070
逶	11071
耄	11072
亊	11073
聃	11074
匐	11075
觧	11076
犭	11077
鄠	11078
槁	11079
箦	11080
旃	11081
馔	11082
氷	11083
淯	11084
浥	11085
淠	11086
褔	11087
狻	11088
螭	11089
郞	11090
験	11091
歴	11092
辶	11093
榷	11094
焼	11095
蛘	11096
篑	11097
钖	11098
茔	11099
逡	11100
亸	11101
甍	11102
螮	11103
蝀	11104
绠	11105
兕	11106
羃	11107
舲	11108
荇	11109
炷	11110
茆	11111
伋	11112
瘗	11113
舸	11114
瘼	11115
嶙	11116
峋	11117
堞	11118
窅	11119
踬	11120
繞	11121
牖	11122
漈	11123
踈	11124
眇	11125
僥	11126
辀	11127
髪	11128
鹥	11129
麈	11130
欤	11131
箂	11132
痼	11133
岢	11134
觱	11135
磔	11136
畬	11137
鹯	11138
鹁	11139
鶗	11140
鴂	11141
闱	11142
坼	11143
踟	11144
蹰	11145
畤	11146
杪	11147
褲	11148
铫	11149
盍	11150
箨	11151
籴	11152
徵	11153
柅	11154
歔	11155
欷	11156
抆	11157
圞	11158
隈	11159
摅	11160
旄	11161
鏁	11162
瀫	11163
甃	11164
檠	11165
栊	11166
穰	11167
霪	11168
俎	11169
暾	11170
鸴	11171
猺	11172
锸	11173
铗	11174
齑	11175
秫	11176
鼙	11177
阽	11178
裈	11179
萑	11180
柣	11181
呶	11182
棰	11183
辔	11184
屣	11185
槪	11186
薝	11187
僦	11188
厓	11189
膴	11190
繄	11191
歊	11192
磵	11193
箯	11194
髠	11195
鬬	11196
廛	11197
湲	11198
霅	11199
纻	11200
觚	11201
鹢	11202
玎	11203
洫	11204
岿	11205
穑	11206
飖	11207
薤	11208
巑	11209
岏	11210
槔	11211
闉	11212
跫	11213
翚	11214
鞴	11215
鶑	11216
嵝	11217
枻	11218
瞢	11219
舻	11220
侖	11221
箸	11222
褊	11223
韨	11224
枌	11225
阃	11226
刔	11227
孥	11228
僮	11229
栴	11230
珰	11231
輝	11232
姹	11233
硎	11234
圉	11235
雠	11236
潆	11237
爇	11238
夾	11239
鶱	11240
搦	11241
耋	11242
纆	11243
鲋	11244
岧	11245
峣	11246
泬	11247
漻	11248
踌	11249
躇	11250
罏	11251
挈	11252
舠	11253
缲	11254
柁	11255
氅	11256
旐	11257
讣	11258
脔	11259
鬥	11260
涘	11261
碛	11262
讵	11263
陎	11264
觇	11265
饧	11266
晡	11267
搴	11268
鹙	11269
鸧	11270
橦	11271
阛	11272
煉	11273
葺	11274
跣	11275
秾	11276
楮	11277
帔	11278
踯	11279
躅	11280
罳	11281
褰	11282
滃	11283
筳	11284
綀	11285
癯	11286
浼	11287
馿	11288
噤	11289
簃	11290
沄	11291
罽	11292
堄	11293
鹓	11294
翛	11295
硗	11296
鲰	11297
堠	11298
鸂	11299
鶒	11300
痏	11301
掾	11302
斫	11303
蘧	11304
硉	11305
殳	11306
缣	11307
筼	11308
筜	11309
襕	11310
栝	11311
楶	11312
躔	11313
竨	11314
榡	11315
裨	11316
蚍	11317
浍	11318
蚋	11319
觌	11320
磎	11321
湑	11322
睟	11323
騧	11324
椮	11325
虓	11326
抔	11327
鹆	11328
骍	11329
寤	11330
殁	11331
孀	11332
轳	11333
禳	11334
阒	11335
賮	11336
啭	11337
稂	11338
莠	11339
孱	11340
踡	11341
驽	11342
骀	11343
狖	11344
毵	11345
牝	11346
亹	11347
狷	11348
麽	11349
肸	11350
蚃	11351
埌	11352
辚	11353
骕	11354
斂	11355
濆	11356
徂	11357
鲠	11358
蟪	11359
酾	11360
祂	11361
靷	11362
襥	11363
頀	11364
徉	11365
熳	11366
崦	11367
喁	11368
耫	11369
屦	11370
谀	11371
浃	11372
颀	11373
斸	11374
暕	11375
劚	11376
矍	11377
幞	11378
舣	11379
椽	11380
洚	11381
阍	11382
帱	11383
螀	11384
悃	11385
柝	11386
伾	11387
巘	11388
籞	11389
烝	11390
跚	11391
拊	11392
屧	11393
襦	11394
蠲	11395
崤	11396
閟	11397
笭	11398
箵	11399
蔌	11400
瀌	11401
礡	11402
廨	11403
遰	11404
僓	11405
熇	11406
鲙	11407
俦	11408
騘	11409
铓	11410
雩	11411
舳	11412
剜	11413
湫	11414
荅	11415
綢	11416
筰	11417
涴	11418
嚬	11419
黟	11420
钲	11421
濩	11422
隗	11423
髹	11424
矧	11425
餠	11426
溽	11427
鲚	11428
窠	11429
舑	11430
骎	11431
籀	11432
诨	11433
荄	11434
蘩	11435
喣	11436
詟	11437
幰	11438
泖	11439
飧	11440
綠	11441
葹	11442
鄮	11443
曛	11444
魃	11445
樗	11446
薾	11447
芰	11448
蓊	11449
蓂	11450
沴	11451
裀	11452
遘	11453
灺	11454
帏	11455
颣	11456
磈	11457
遑	11458
舄	11459
襜	11460
篵	11461
鸑	11462
鷟	11463
筸	11464
椠	11465
陔	11466
壖	11467
颙	11468
斝	11469
饤	11470
慥	11471
棼	11472
汔	11473
怛	11474
蹺	11475
鹔	11476
鹴	11477
艓	11478
實	11479
鬻	11480
皤	11481
酴	11482
醿	11483
僪	11484
霙	11485
甓	11486
蠧	11487
蹁	11488
跹	11489
祼	11490
诮	11491
崚	11492
嶒	11493
瀹	11494
噡	11495
屷	11496
鵩	11497
骓	11498
筚	11499
篥	11500
苖	11501
酤	11502
痚	11503
薨	11504
隮	11505
瘳	11506
虺	11507
隤	11508
跲	11509
鄜	11510
弭	11511
纛	11512
脽	11513
逦	11514
屼	11515
頩	11516
懶	11517
塶	11518
沩	11519
垆	11520
侔	11521
岝	11522
崿	11523
辋	11524
搘	11525
瀰	11526
晼	11527
赪	11528
昮	11529
愆	11530
珮	11531
榼	11532
匏	11533
豢	11534
錬	11535
櫜	11536
澥	11537
褉	11538
欃	11539
歡	11540
罍	11541
筌	11542
殢	11543
蹙	11544
瓞	11545
劖	11546
浄	11547
鳏	11548
轓	11549
驺	11550
砻	11551
恝	11552
欻	11553
蠺	11554
沍	11555
棁	11556
麏	11557
麚	11558
缊	11559
揖	11560
皪	11561
怙	11562
翮	11563
翾	11564
泚	11565
騊	11566
駼	11567
醾	11568
罅	11569
臘	11570
暌	11571
萡	11572
挲	11573
耞	11574
暵	11575
眃	11576
搢	11577
蔿	11578
篪	11579
觳	11580
㝹	11581
旛	11582
箄	11583
醁	11584
剺	11585
鼍	11586
埽	11587
蹶	11588
摺	11589
趼	11590
幷	11591
迓	11592
轺	11593
頳	11594
撄	11595
鬅	11596
鬿	11597
蛚	11598
隳	11599
旆	11600
谮	11601
瑴	11602
啻	11603
嵚	11604
牂	11605
鎝	11606
螘	11607
羜	11608
縠	11609
裛	11610
榾	11611
柮	11612
纕	11613
醮	11614
聱	11615
鞔	11616
鼕	11617
罭	11618
刲	11619
遒	11620
耰	11621
虿	11622
牸	11623
巉	11624
媪	11625
跕	11626
饫	11627
桴	11628
奁	11629
偓	11630
跸	11631
馡	11632
蕺	11633
酹	11634
妣	11635
赙	11636
夐	11637
輶	11638
豳	11639
搰	11640
恇	11641
晅	11642
朅	11643
呓	11644
籯	11645
酡	11646
畋	11647
艖	11648
縻	11649
缑	11650
攲	11651
纔	11652
昽	11653
臞	11654
繻	11655
祲	11656
妪	11657
蹐	11658
渫	11659
伛	11660
媵	11661
遄	11662
鬯	11663
缁	11664
虨	11665
帻	11666
鬙	11667
罨	11668
笻	11669
鞯	11670
齓	11671
嫪	11672
圮	11673
姱	11674
鄚	11675
歃	11676
侪	11677
劓	11678
罟	11679
谰	11680
篘	11681
殪	11682
灊	11683
嵿	11684
瑅	11685
漭	11686
噂	11687
阘	11688
酲	11689
氍	11690
毹	11691
虮	11692
箑	11693
榱	11694
酎	11695
匼	11696
悰	11697
糁	11698
階	11699
伥	11700
贶	11701
槴	11702
糅	11703
抃	11704
畛	11705
辎	11706
毳	11707
憗	11708
魝	11709
縧	11710
眬	11711
畀	11712
軿	11713
蟏	11714
鳷	11715
萚	11716
塳	11717
磾	11718
氎	11719
巃	11720
糵	11721
幛	11722
飗	11723
臑	11724
衽	11725
飐	11726
笥	11727
鬖	11728
镵	11729
铙	11730
斾	11731
缃	11732
醖	11733
哂	11734
訇	11735
穫	11736
擐	11737
愯	11738
騑	11739
觫	11740
滹	11741
悮	11742
猊	11743
茳	11744
痡	11745
寛	11746
愠	11747
檎	11748
袢	11749
漙	11750
怿	11751
鱍	11752
澌	11753
逭	11754
蒯	11755
貀	11756
菼	11757
觥	11758
嫜	11759
牣	11760
埏	11761
跂	11762
縢	11763
嵫	11764
鸩	11765
喈	11766
羮	11767
矼	11768
贳	11769
醨	11770
厩	11771
韡	11772
缯	11773
僛	11774
痓	11775
璁	11776
羝	11777
痍	11778
詈	11779
郐	11780
堙	11781
躞	11782
蹀	11783
揵	11784
鞿	11785
憀	11786
壈	11787
簄	11788
苴	11789
畚	11790
嵴	11791
愕	11792
燹	11793
薧	11794
筥	11795
嗥	11796
卼	11797
臲	11798
囘	11799
匜	11800
祧	11801
踨	11802
琲	11803
嵽	11804
嵲	11805
疴	11806
泎	11807
豗	11808
晣	11809
磻	11810
雘	11811
憹	11812
谲	11813
阸	11814
舡	11815
罾	11816
湔	11817
燖	11818
鳦	11819
駪	11820
狉	11821
竦	11822
潔	11823
噀	11824
秪	11825
籾	11826
嚭	11827
湓	11828
垤	11829
桊	11830
疠	11831
蒉	11832
榖	11833
嶤	11834
梏	11835
罥	11836
畎	11837
螫	11838
魀	11839
痁	11840
飨	11841
瀣	11842
鬲	11843
筿	11844
迮	11845
裲	11846
觏	11847
箪	11848
噞	11849
絇	11850
岨	11851
赀	11852
昪	11853
笮	11854
賨	11855
罌	11856
酂	11857
鬌	11858
迴	11859
鹣	11860
叆	11861
叇	11862
矰	11863
鞬	11864
裼	11865
栱	11866
囿	11867
芼	11868
藋	11869
恚	11870
甽	11871
貙	11872
鞚	11873
阓	11874
陬	11875
郛	11876
醑	11877
糇	11878
袿	11879
旰	11880
峍	11881
煁	11882
煼	11883
鍪	11884
聑	11885
閣	11886
鴃	11887
艅	11888
艎	11889
庑	11890
瀼	11891
飔	11892
斨	11893
忪	11894
俜	11895
掼	11896
蟂	11897
芟	11898
葅	11899
涏	11900
蟫	11901
榠	11902
赑	11903
屃	11904
饾	11905
邅	11906
繫	11907
缡	11908
髡	11909
媫	11910
渟	11911
掞	11912
瘵	11913
馘	11914
蜩	11915
玭	11916
嫠	11917
簊	11918
澒	11919
锱	11920
忿	11921
跏	11922
弉	11923
畯	11924
钁	11925
徬	11926
鸷	11927
晬	11928
摵	11929
囷	11930
澬	11931
飂	11932
嵾	11933
猱	11934
揺	11935
塿	11936
裯	11937
糢	11938
骙	11939
儱	11940
麹	11941
洑	11942
瀍	11943
惄	11944
咍	11945
歳	11946
鳯	11947
絧	11948
倥	11949
偬	11950
帯	11951
畇	11952
嬖	11953
弇	11954
瀔	11955
纩	11956
搑	11957
赍	11958
訴	11959
筮	11960
構	11961
踆	11962
猧	11963
汍	11964
鄓	11965
麛	11966
苫	11967
儹	11968
洎	11969
嗾	11970
掫	11971
髑	11972
郇	11973
醵	11974
滉	11975
鄐	11976
曩	11977
凘	11978
磉	11979
豨	11980
鸹	11981
敧	11982
竮	11983
蒻	11984
綮	11985
騄	11986
攎	11987
渖	11988
跄	11989
瞽	11990
禊	11991
桄	11992
醲	11993
旟	11994
幨	11995
楛	11996
彴	11997
巀	11998
嶪	11999
蟺	12000
靮	12001
簅	12002
饙	12003
刖	12004
崱	12005
屴	12006
骦	12007
铻	12008
蕞	12009
箋	12010
堋	12011
耔	12012
龁	12013
榰	12014
瀺	12015
灂	12016
刳	12017
釭	12018
枨	12019
邉	12020
槜	12021
翙	12022
沚	12023
窣	12024
榇	12025
迕	12026
曀	12027
谄	12028
恫	12029
嘒	12030
缌	12031
禋	12032
鹖	12033
礨	12034
佾	12035
絅	12036
岣	12037
劬	12038
皦	12039
楦	12040
唼	12041
泇	12042
祃	12043
畓	12044
鮹	12045
襞	12046
轣	12047
獬	12048
埒	12049
堁	12050
幮	12051
鬐	12052
釂	12053
娂	12054
踶	12055
摝	12056
筲	12057
宬	12058
螖	12059
鲦	12060
鯈	12061
槱	12062
荭	12063
坱	12064
坙	12065
褕	12066
檨	12067
徍	12068
龠	12069
潏	12070
睍	12071
睆	12072
鴷	12073
嶅	12074
朣	12075
漘	12076
朓	12077
轹	12078
禆	12079
稌	12080
慝	12081
鞮	12082
鵊	12083
闬	12084
颟	12085
顸	12086
黠	12087
晛	12088
惣	12089
爞	12090
襩	12091
湱	12092
獠	12093
菂	12094
僝	12095
谽	12096
谺	12097
柩	12098
忝	12099
卺	12100
渰	12101
荩	12102
澴	12103
哝	12104
僾	12105
忾	12106
怄	12107
雰	12108
楩	12109
漷	12110
哕	12111
鼔	12112
绺	12113
拚	12114
喟	12115
蓤	12116
褌	12117
渼	12118
鬘	12119
嫘	12120
葰	12121
痩	12122
痌	12123
瘝	12124
襻	12125
禴	12126
踱	12127
楙	12128
旂	12129
睺	12130
椟	12131
膡	12132
箾	12133
悛	12134
壸	12135
惓	12136
騃	12137
茑	12138
絜	12139
哢	12140
瞭	12141
迨	12142
峆	12143
滆	12144
牁	12145
铊	12146
稉	12147
豜	12148
洌	12149
嶀	12150
瞍	12151
燐	12152
侸	12153
轫	12154
鹾	12155
铦	12156
鼐	12157
維	12158
瑳	12159
環	12160
呡	12161
馐	12162
巌	12163
粜	12164
卌	12165
澽	12166
觯	12167
缦	12168
蝛	12169
诳	12170
洇	12171
舴	12172
怵	12173
蓣	12174
嘏	12175
侫	12176
泐	12177
蔦	12178
峯	12179
缂	12180
経	12181
猢	12182
狲	12183
剎	12184
茻	12185
秝	12186
澨	12187
缋	12188
籥	12189
旊	12190
襼	12191
棫	12192
罝	12193
愓	12194
遌	12195
逹	12196
園	12197
國	12198
皕	12199
徢	12200
饔	12201
璆	12202
濶	12203
籣	12204
饘	12205
怍	12206
岵	12207
皜	12208
昳	12209
埸	12210
汧	12211
汈	12212
襮	12213
鼷	12214
辏	12215
東	12216
帨	12217
懔	12218
睲	12219
酽	12220
狅	12221
莳	12222
亀	12223
艄	12224
鍂	12225
芵	12226
璄	12227
窳	12228
炤	12229
呖	12230
攫	12231
於	12232
裏	12233
夤	12234
搛	12235
皞	12236
覈	12237
噍	12238
摛	12239
甆	12240
谖	12241
棗	12242
憑	12243
蔀	12244
啁	12245
诓	12246
檓	12247
畄	12248
華	12249
仚	12250
岺	12251
溘	12252
唎	12253
拏	12254
蜮	12255
帟	12256
眄	12257
桠	12258
洣	12259
恴	12260
逰	12261
倮	12262
颃	12263
鄏	12264
赧	12265
悒	12266
穾	12267
椪	12268
诌	12269
風	12270
蕿	12271
瘽	12272
倨	12273
枒	12274
姦	12275
傘	12276
狴	12277
犴	12278
鹒	12279
莩	12280
苲	12281
沬	12282
忉	12283
黩	12284
帡	12285
幪	12286
嫽	12287
踔	12288
缿	12289
帋	12290
喨	12291
嶰	12292
綍	12293
噙	12294
篯	12295
霨	12296
莸	12297
慠	12298
扢	12299
溇	12300
譽	12301
丠	12302
牗	12303
單	12304
祊	12305
耉	12306
洈	12307
穉	12308
歭	12309
僰	12310
嶷	12311
洨	12312
柢	12313
荛	12314
擿	12315
隻	12316
獨	12317
為	12318
郂	12319
燔	12320
汭	12321
瑸	12322
耇	12323
僴	12324
憁	12325
圯	12326
垲	12327
箖	12328
箊	12329
垞	12330
莛	12331
濙	12332
豋	12333
鲞	12334
骉	12335
駥	12336
戰	12337
鐘	12338
闊	12339
門	12340
詩	12341
枩	12342
怗	12343
駉	12344
舘	12345
栘	12346
儵	12347
曌	12348
閰	12349
钭	12350
泔	12351
忮	12352
玨	12353
兲	12354
偘	12355
闌	12356
祏	12357
豭	12358
閑	12359
間	12360
耑	12361
匄	12362
龃	12363
龉	12364
悱	12365
搵	12366
恹	12367
赗	12368
崒	12369
骘	12370
旒	12371
蔙	12372
坔	12373
羍	12374
遊	12375
誺	12376
俬	12377
槚	12378
谞	12379
锨	12380
亁	12381
鳳	12382
徼	12383
仳	12384
篾	12385
縁	12386
矅	12387
凉	12388
朶	12389
瞀	12390
開	12391
敎	12392
愛	12393
垴	12394
蹒	12395
墈	12396
栁	12397
臶	12398
鲐	12399
皛	12400
镬	12401
塠	12402
皵	12403
橑	12404
檵	12405
姽	12406
炰	12407
塅	12408
枵	12409
傕	12410
寀	12411
囹	12412
圄	12413
卬	12414
椁	12415
弞	12416
镋	12417
歬	12418
苿	12419
圖	12420
歸	12421
扆	12422
瓴	12423
冏	12424
楯	12425
庀	12426
缛	12427
镆	12428
铘	12429
嗉	12430
釄	12431
莨	12432
斁	12433
癎	12434
螣	12435
踘	12436
羅	12437
漢	12438
請	12439
觀	12440
長	12441
張	12442
紅	12443
酼	12444
礩	12445
亷	12446
胙	12447
咢	12448
翕	12449
葞	12450
鄣	12451
鼚	12452
抺	12453
穂	12454
劏	12455
姸	12456
戽	12457
錾	12458
彊	12459
蟢	12460
瘌	12461
鱮	12462
缻	12463
尌	12464
箎	12465
秬	12466
秠	12467
芑	12468
揄	12469
闿	12470
怘	12471
脁	12472
尨	12473
灒	12474
彥	12475
瞾	12476
鴈	12477
坫	12478
隹	12479
衎	12480
倞	12481
陹	12482
弨	12483
蕡	12484
赆	12485
処	12486
礅	12487
搉	12488
偾	12489
駃	12490
〇	12491
扽	12492
矱	12493
搧	12494
搥	12495
頍	12496
鲧	12497
禝	12498
啐	12499
狝	12500
掊	12501
儥	12502
戕	12503
郿	12504
龆	12505
岈	12506
镲	12507
當	12508
賛	12509
覌	12510
泃	12511
咮	12512
瑑	12513
蚼	12514
鞳	12515
褦	12516
襶	12517
瘖	12518
廑	12519
趄	12520
棓	12521
瞠	12522
璚	12523
麀	12524
齾	12525
钹	12526
蕰	12527
玡	12528
龀	12529
鲊	12530
撝	12531
傔	12532
衄	12533
镢	12534
鏊	12535
勷	12536
萆	12537
湜	12538
酕	12539
醄	12540
碅	12541
磳	12542
樆	12543
鱆	12544
砑	12545
崐	12546
礞	12547
嫏	12548
靑	12549
糥	12550
埵	12551
烻	12552
簴	12553
倕	12554
尢	12555
吶	12556
沇	12557
蘭	12558
覩	12559
觍	12560
帲	12561
駬	12562
棪	12563
揎	12564
祾	12565
帞	12566
湎	12567
瘏	12568
埊	12569
疁	12570
缗	12571
蘜	12572
戋	12573
簠	12574
蹚	12575
凐	12576
凕	12577
柲	12578
寃	12579
蒇	12580
彫	12581
媺	12582
瓻	12583
谆	12584
窓	12585
鴒	12586
耩	12587
芄	12588
殂	12589
憺	12590
篚	12591
鳣	12592
刾	12593
潕	12594
雦	12595
蓕	12596
繖	12597
矞	12598
塻	12599
髺	12600
玢	12601
敨	12602
倌	12603
萅	12604
篴	12605
毖	12606
挜	12607
菉	12608
聙	12609
潄	12610
悻	12611
嫮	12612
裉	12613
兒	12614
榫	12615
尅	12616
龡	12617
鳒	12618
後	12619
瑯	12620
跩	12621
眚	12622
雊	12623
摽	12624
餔	12625
鑲	12626
硖	12627
遹	12628
笾	12629
艚	12630
鷃	12631
滪	12632
寘	12633
氡	12634
謦	12635
欬	12636
偸	12637
塥	12638
褾	12639
佻	12640
茝	12641
湯	12642
嫓	12643
媸	12644
臈	12645
圊	12646
醓	12647
醢	12648
掎	12649
菳	12650
計	12651
見	12652
珃	12653
馂	12654
躭	12655
笴	12656
蜺	12657
醹	12658
嶻	12659
嶫	12660
礿	12661
橂	12662
萬	12663
睚	12664
棬	12665
甎	12666
弸	12667
鉏	12668
勍	12669
绋	12670
欵	12671
筪	12672
雝	12673
禭	12674
霣	12675
淏	12676
墚	12677
锛	12678
帑	12679
溷	12680
勅	12681
懐	12682
時	12683
犂	12684
獦	12685
鬵	12686
褀	12687
稜	12688
槏	12689
棊	12690
詄	12691
搡	12692
甿	12693
挐	12694
顠	12695
飮	12696
飢	12697
礓	12698
鴡	12699
鳲	12700
嫄	12701
戺	12702
庋	12703
圬	12704
錘	12705
觔	12706
诎	12707
簮	12708
蹔	12709
湇	12710
輈	12711
铩	12712
砡	12713
絪	12714
瀸	12715
豰	12716
苘	12717
輋	12718
堧	12719
盩	12720
蛴	12721
螬	12722
丄	12723
旹	12724
埜	12725
穼	12726
眅	12727
畊	12728
忖	12729
谹	12730
冭	12731
燋	12732
欱	12733
歕	12734
鹪	12735
烜	12736
罣	12737
葇	12738
杕	12739
砝	12740
旾	12741
岊	12742
薃	12743
靈	12744
傧	12745
佽	12746
懑	12747
嶭	12748
偱	12749
貎	12750
蓐	12751
檷	12752
哿	12753
嘐	12754
塈	12755
盬	12756
虡	12757
稧	12758
峁	12759
硙	12760
覚	12761
慄	12762
慇	12763
懃	12764
搿	12765
皊	12766
瞵	12767
郕	12768
煺	12769
擥	12770
嘨	12771
揿	12772
燻	12773
嵖	12774
锞	12775
椷	12776
賖	12777
墬	12778
槠	12779
黁	12780
讌	12781
炁	12782
伕	12783
乸	12784
慭	12785
橚	12786
橫	12787
鞵	12788
虀	12789
恟	12790
戥	12791
俓	12792
酻	12793
菿	12794
馞	12795
丱	12796
闇	12797
戗	12798
劼	12799
烋	12800
鏦	12801
盦	12802
煕	12803
慊	12804
庳	12805
籝	12806
镮	12807
濳	12808
臛	12809
嶶	12810
潖	12811
嵓	12812
洸	12813
浞	12814
餰	12815
荳	12816
汯	12817
臜	12818
髴	12819
剳	12820
籧	12821
膂	12822
阏	12823
筩	12824
酙	12825
緖	12826
菋	12827
蕍	12828
嫰	12829
铒	12830
矌	12831
盰	12832
舢	12833
覇	12834
葼	12835
咴	12836
廾	12837
挼	12838
逥	12839
孭	12840
晊	12841
疎	12842
梂	12843
鄘	12844
嘥	12845
嶺	12846
碔	12847
砆	12848
唻	12849
坺	12850
镏	12851
樂	12852
堯	12853
柈	12854
晲	12855
綄	12856
慞	12857
獍	12858
尒	12859
幍	12860
埘	12861
锼	12862
镪	12863
鼖	12864
酇	12865
満	12866
䞍	12867
晜	12868
闩	12869
憍	12870
燿	12871
垸	12872
冱	12873
義	12874
麃	12875
羵	12876
兿	12877
诹	12878
翂	12879
翐	12880
搯	12881
種	12882
颕	12883
褵	12884
蕝	12885
鬏	12886
嶓	12887
笶	12888
蘗	12889
玅	12890
徃	12891
埻	12892
趔	12893
鄅	12894
栻	12895
撙	12896
韾	12897
牴	12898
戯	12899
缧	12900
绁	12901
揃	12902
藘	12903
辁	12904
勠	12905
麯	12906
遅	12907
蔸	12908
颿	12909
丗	12910
姞	12911
餂	12912
梐	12913
俍	12914
榦	12915
龇	12916
绖	12917
罇	12918
嶊	12919
崣	12920
靉	12921
靆	12922
鼛	12923
鄼	12924
咈	12925
簏	12926
淺	12927
浡	12928
窔	12929
硃	12930
沝	12931
釐	12932
锃	12933
閤	12934
喦	12935
醽	12936
祡	12937
怊	12938
蓏	12939
揷	12940
霂	12941
砳	12942
奓	12943
沨	12944
璩	12945
牾	12946
靘	12947
蠏	12948
掱	12949
巣	12950
噰	12951
牕	12952
紬	12953
巂	12954
栌	12955
罱	12956
聶	12957
洡	12958
滱	12959
掭	12960
菑	12961
蕸	12962
稃	12963
镘	12964
佴	12965
鳥	12966
馬	12967
幙	12968
饩	12969
胾	12970
櫡	12971
垯	12972
巵	12973
琱	12974
簰	12975
晧	12976
泆	12977
暍	12978
躃	12979
焐	12980
趠	12981
菻	12982
昍	12983
朤	12984
問	12985
聞	12986
無	12987
昐	12988
憝	12989
柺	12990
鬂	12991
岞	12992
胠	12993
杩	12994
鬷	12995
爼	12996
壠	12997
輏	12998
伲	12999
1919	13000
##tal	13001
222	13002
171	13003
##less	13004
4399	13005
##rl	13006
pcb	13007
499	13008
157	13009
なし	13010
##mhz	13011
660	13012
##house	13013
##key	13014
##o	13015
##hy	13016
##web	13017
oem	13018
##gg	13019
##wan	13020
182	13021
203	13022
##val	13023
233	13024
2021	13025
##ons	13026
doi	13027
trivago	13028
overdope	13029
##ance	13030
##ち	13031
573032185	13032
imf	13033
216	13034
##so	13035
##he	13036
##rp	13037
##ake	13038
amp	13039
ps4	13040
880	13041
##link	13042
##hp	13043
crm	13044
##eng	13045
195	13046
photos	13047
2300	13048
##style	13049
##ント	13050
176	13051
##gi	13052
i7	13053
##ray	13054
370	13055
i5	13056
##max	13057
8g	13058
173	13059
##pc	13060
##ッフ	13061
189	13062
##ace	13063
vps	13064
february	13065
167	13066
pantos	13067
1921	13068
jquery	13069
##berg	13070
##news	13071
1911	13072
##いて	13073
fks	13074
せます	13075
164	13076
340	13077
##all	13078
##rus	13079
1924	13080
##works	13081
blogtitle	13082
loftpermalink	13083
187	13084
martin	13085
##め	13086
15000	13087
fda	13088
v3	13089
##ja	13090
##ロ	13091
かある	13092
##ea	13093
をこ	13094
##top	13095
##ness	13096
salvatore	13097
##lu	13098
204	13099
215	13100
している	13101
##ul	13102
1925	13103
b2c	13104
##のは	13105
##a	13106
##けと	13107
##ean	13108
##gle	13109
##back	13110
powered	13111
x2	13112
##tan	13113
1918	13114
##nes	13115
##イン	13116
181	13117
##zi	13118
##las	13119
##oe	13120
184	13121
##sd	13122
221	13123
##bot	13124
##world	13125
##zo	13126
top100	13127
1926	13128
pmi	13129
802	13130
234	13131
##vr	13132
177	13133
174	13134
ofweek	13135
##list	13136
##ort	13137
##なら	13138
##lon	13139
として	13140
##tc	13141
##of	13142
##bus	13143
##gen	13144
##コ	13145
a3	13146
nas	13147
##lie	13148
##ria	13149
##coin	13150
##bt	13151
212	13152
nata	13153
vive	13154
health	13155
##ook	13156
##よう	13157
##sy	13158
msg	13159
しました	13160
3ce	13161
##word	13162
193	13163
ebooks	13164
r8	13165
318	13166
##より	13167
2200	13168
207	13169
months	13170
1905	13171
rewards	13172
##ther	13173
1917	13174
0800	13175
##xi	13176
##チ	13177
##sc	13178
micro	13179
850	13180
blogfp	13181
1922	13182
m1	13183
264	13184
##bb	13185
ml	13186
##tar	13187
##のお	13188
##ky	13189
anthony	13190
196	13191
253	13192
##yo	13193
218	13194
##ara	13195
##aa	13196
##rc	13197
##tz	13198
##ston	13199
より	13200
##eo	13201
##ade	13202
1923	13203
##win	13204
##ura	13205
heart	13206
##den	13207
##ita	13208
##sm	13209
png	13210
2100	13211
610	13212
rakuten	13213
##use	13214
680	13215
311	13216
##ode	13217
##fo	13218
223	13219
214	13220
しの	13221
##hone	13222
##れる	13223
##ことか	13224
be2	13225
##ology	13226
990	13227
##con	13228
##ford	13229
##joy	13230
##kb	13231
##こさいます	13232
##rade	13233
##ach	13234
docker	13235
##ful	13236
rfid	13237
ul	13238
##ase	13239
##star	13240
580	13241
11	13242
a2	13243
sdk	13244
edited	13245
##are	13246
cmos	13247
##mc	13248
238	13249
##ella	13250
##ため	13251
bloomberg	13252
##read	13253
##ison	13254
##vm	13255
node	13256
journal	13257
18k	13258
##play	13259
245	13260
##cer	13261
20	13262
##yu	13263
191	13264
288	13265
##ings	13266
asr	13267
##lia	13268
3200	13269
step5	13270
##cd	13271
いします	13272
1234	13273
pixstyleme	13274
273	13275
2800	13276
1280	13277
12	13278
430	13279
みの	13280
##tus	13281
##rial	13282
##life	13283
##ae	13284
saas	13285
tcs	13286
##rk	13287
##wang	13288
##sp	13289
##ving	13290
390	13291
premium	13292
##その	13293
##ヒ	13294
##lton	13295
209	13296
える	13297
##ple	13298
##cal	13299
021	13300
##んな	13301
##sen	13302
##ville	13303
##ius	13304
てお	13305
##mah	13306
##なく	13307
tila	13308
820	13309
##tin	13310
resort	13311
##ws	13312
p10	13313
5d	13314
report	13315
##ru	13316
##には	13317
##est	13318
##レ	13319
links	13320
##ツ	13321
##dm	13322
azure	13323
きな	13324
limited	13325
4gb	13326
##mon	13327
1910	13328
##eam	13329
213	13330
1913	13331
なとの	13332
226	13333
blogspot	13334
された	13335
699	13336
e3	13337
##ments	13338
##ik	13339
##kw	13340
##bin	13341
##ata	13342
960	13343
##せ	13344
219	13345
##vin	13346
##tu	13347
##ula	13348
194	13349
##ろ	13350
##ature	13351
835	13352
files	13353
top10	13354
950	13355
s6	13356
marriott	13357
##シ	13358
avira	13359
##っと	13360
##ran	13361
##home	13362
oculus	13363
##ral	13364
307	13365
##force	13366
##ini	13367
##bert	13368
のある	13369
##nder	13370
##mber	13371
2600	13372
plurk	13373
##sis	13374
00kg	13375
720	13376
##ence	13377
##ω	13378
##nc	13379
##ても	13380
##name	13381
malaysia	13382
unix	13383
##イト	13384
3600	13385
##ncy	13386
##nie	13387
12000	13388
akb48	13389
##ye	13390
##oid	13391
404	13392
##chi	13393
##いた	13394
xuehai	13395
##orm	13396
##rf	13397
275	13398
さん	13399
##ware	13400
980	13401
##pro	13402
text	13403
##era	13404
560	13405
227	13406
##ub	13407
8891	13408
scp	13409
##zen	13410
2022	13411
museum	13412
qvod	13413
apache	13414
jcb	13415
##hr	13416
302	13417
490	13418
##row	13419
4d	13420
##ish	13421
github	13422
306	13423
312	13424
##スト	13425
##lot	13426
##ane	13427
andrew	13428
のハイト	13429
##tina	13430
t1	13431
ed2k	13432
##vel	13433
りの	13434
5a	13435
705	13436
197	13437
##メ	13438
bytes	13439
##ene	13440
231	13441
##cker	13442
##px	13443
100g	13444
topapp	13445
229	13446
helpapp	13447
14k	13448
g4g	13449
630	13450
ldquo	13451
あり	13452
##fork	13453
edition	13454
##gan	13455
##zon	13456
##qq	13457
##google	13458
##ism	13459
224	13460
explorer	13461
##zer	13462
toyota	13463
category	13464
select	13465
visual	13466
##labels	13467
restaurant	13468
##md	13469
posts	13470
s1	13471
##ico	13472
もっと	13473
123456	13474
217	13475
sports	13476
s3	13477
1915	13478
shell	13479
x86	13480
##new	13481
470	13482
##here	13483
4a	13484
swissinfo	13485
v8	13486
dram	13487
##ual	13488
##vice	13489
3a	13490
##wer	13491
sport	13492
q1	13493
ios10	13494
public	13495
##c	13496
rt	13497
##れた	13498
1080	13499
##mll	13500
30	13501
460	13502
##uk	13503
##ミ	13504
x3	13505
298	13506
0t	13507
##ming	13508
239	13509
e5	13510
h7n9	13511
worldcat	13512
##あります	13513
##vo	13514
##led	13515
##ax	13516
249	13517
410	13518
##ert	13519
925	13520
##lr	13521
599	13522
##ナ	13523
capital	13524
##hing	13525
1g	13526
##chat	13527
##s	13528
##たい	13529
##ule	13530
2m	13531
##e	13532
digital	13533
268	13534
##pad	13535
870	13536
quot	13537
##ring	13538
wali	13539
##まて	13540
2k	13541
2b	13542
という	13543
costco	13544
316	13545
north	13546
333	13547
##city	13548
##p	13549
philips	13550
##mann	13551
management	13552
panasonic	13553
##cl	13554
##vd	13555
##ping	13556
##rge	13557
##lk	13558
##ましょう	13559
css3	13560
##ney	13561
##ular	13562
##tter	13563
lz	13564
にお	13565
##ありません	13566
1916	13567
pci	13568
##tm	13569
237	13570
##yan	13571
##そ	13572
について	13573
##let	13574
##キ	13575
##ᅵ	13576
##pt	13577
a8	13578
##berry	13579
1895	13580
##ew	13581
a5	13582
##ション	13583
##wn	13584
##og	13585
##code	13586
girls	13587
##rid	13588
villa	13589
git	13590
r11	13591
games	13592
##cket	13593
##anonymoussaid	13594
##ag	13595
##ame	13596
##gc	13597
##lis	13598
gmp	13599
##gin	13600
vmalife	13601
##cher	13602
##tis	13603
530	13604
##rant	13605
325	13606
##ats	13607
261	13608
##ven	13609
440	13610
##ように	13611
305	13612
value	13613
macd	13614
yougou	13615
##dn	13616
661	13617
##ano	13618
##urt	13619
##rent	13620
continue	13621
script	13622
##wen	13623
##ect	13624
263	13625
319	13626
##chel	13627
##フト	13628
##cat	13629
258	13630
x5	13631
fox	13632
243	13633
##さん	13634
##blog	13635
loading	13636
##yn	13637
##tp	13638
799	13639
vdc	13640
##rmb	13641
##ような	13642
241	13643
square	13644
688	13645
##しい	13646
##field	13647
##reen	13648
##ors	13649
##ju	13650
c1	13651
start	13652
510	13653
##air	13654
##map	13655
cdn	13656
##wo	13657
m8	13658
100km	13659
##get	13660
##base	13661
##ood	13662
vsa	13663
##aw	13664
##ail	13665
251	13666
なのて	13667
count	13668
t2	13669
##ᅡ	13670
##een	13671
2700	13672
##gp	13673
##eg	13674
##ose	13675
816	13676
285	13677
##ories	13678
##shop	13679
v4	13680
1909	13681
##ᆼ	13682
zip	13683
##sta	13684
bas	13685
##yer	13686
hadoop	13687
##ube	13688
##wi	13689
1906	13690
0755	13691
##low	13692
centre	13693
5v	13694
d3	13695
##fer	13696
252	13697
##media	13698
281	13699
540	13700
0l	13701
exchange	13702
262	13703
series	13704
##san	13705
##bank	13706
##k	13707
q3	13708
##nge	13709
##mail	13710
##lp	13711
259	13712
1888	13713
client	13714
きを	13715
##nse	13716
855	13717
adchoice	13718
##и	13719
##stry	13720
##なたの	13721
246	13722
##zone	13723
apps	13724
##ab	13725
248	13726
cisco	13727
##タ	13728
##rner	13729
kymco	13730
##care	13731
##pu	13732
##yi	13733
minkoff	13734
p1	13735
への	13736
annie	13737
269	13738
playstation	13739
257	13740
になります	13741
866	13742
##bar	13743
505	13744
1904	13745
##xy	13746
##ery	13747
##share	13748
raid	13749
1908	13750
##ob	13751
##ball	13752
v6	13753
##hk	13754
242	13755
##cp	13756
technology	13757
##rie	13758
サイトは	13759
277	13760
##ona	13761
##sl	13762
303	13763
rdquo	13764
##lex	13765
##rum	13766
namespace	13767
##やり	13768
620	13769
##ale	13770
##atic	13771
##erson	13772
##ql	13773
##ves	13774
##type	13775
##この	13776
##てきます	13777
d2	13778
##mix	13779
##bian	13780
との	13781
a9	13782
##lc	13783
##hc	13784
リストに	13785
tower	13786
##ration	13787
##mit	13788
ます	13789
##nch	13790
prefix	13791
1907	13792
##point	13793
1901	13794
ott	13795
##http	13796
##ury	13797
baidu	13798
##ink	13799
member	13800
##logy	13801
nownews	13802
##js	13803
##shot	13804
##tb	13805
##こと	13806
247	13807
eba	13808
##tics	13809
##lus	13810
ける	13811
v5	13812
##ama	13813
##ions	13814
##lls	13815
##down	13816
##ress	13817
day2	13818
##kv	13819
related	13820
joseph	13821
283	13822
##ark	13823
32gb	13824
g9	13825
30000	13826
##ans	13827
##tty	13828
s5	13829
##bee	13830
かあります	13831
thread	13832
005	13833
##ari	13834
276	13835
##verse	13836
##ことて	13837
244	13838
nego	13839
dom	13840
401	13841
666	13842
positioning	13843
##tton	13844
278	13845
alexa	13846
みリストを	13847
##g	13848
##ties	13849
##llow	13850
##du	13851
002	13852
institute	13853
271	13854
##rth	13855
##lar	13856
2345	13857
590	13858
##des	13859
sidebar	13860
15	13861
site	13862
##cky	13863
##kit	13864
##ime	13865
323	13866
##fun	13867
##ひ	13868
gogoro	13869
a7	13870
twd600	13871
いて	13872
##vis	13873
30ml	13874
##cture	13875
##をお	13876
information	13877
##オ	13878
friday	13879
##くれる	13880
てすか	13881
##tta	13882
##tel	13883
6500	13884
##lock	13885
economy	13886
254	13887
かお	13888
267	13889
tinker	13890
375	13891
8gb	13892
##app	13893
985	13894
##right	13895
##cent	13896
7500	13897
814	13898
##its	13899
##asia	13900
dropbox	13901
##てすか	13902
##tti	13903
books	13904
272	13905
100ml	13906
##tle	13907
##ller	13908
##ken	13909
##more	13910
##boy	13911
309	13912
##dom	13913
t3	13914
##ider	13915
##なります	13916
##unch	13917
1903	13918
810	13919
5500	13920
##かった	13921
##put	13922
により	13923
s2	13924
##gh	13925
amoled	13926
div	13927
##tr	13928
port	13929
##tags	13930
##nus	13931
adsense	13932
##а	13933
ide	13934
##へ	13935
thunder	13936
##town	13937
##ique	13938
##body	13939
##erry	13940
てした	13941
295	13942
##the	13943
object	13944
udnbkk	13945
16gb	13946
##mic	13947
##tro	13948
r2	13949
##alk	13950
##nity	13951
1880	13952
##いました	13953
428	13954
s4	13955
##oa	13956
n1	13957
sgs	13958
docomo	13959
##tf	13960
##ack	13961
fc2	13962
##ded	13963
##sco	13964
##rite	13965
286	13966
0mm	13967
##ada	13968
##now	13969
##ndy	13970
ucbug	13971
sputniknews	13972
legalminer	13973
##ika	13974
##xp	13975
2gb	13976
##bu	13977
q10	13978
b6	13979
##rman	13980
##gm	13981
##fig	13982
ppi	13983
##ります	13984
jchere	13985
てきます	13986
003	13987
tech	13988
##tto	13989
soc	13990
##gl	13991
##len	13992
earth	13993
640	13994
521	13995
##pper	13996
##てきる	13997
##ロク	13998
##ition	13999
##ference	14000
suite	14001
##ig	14002
##mond	14003
##cation	14004
398	14005
##pr	14006
279	14007
101vip	14008
358	14009
282	14010
64gb	14011
3800	14012
345	14013
airport	14014
##over	14015
284	14016
##おり	14017
##ith	14018
##su	14019
##いるのて	14020
co2	14021
##llo	14022
no1	14023
vmware	14024
24h	14025
##qi	14026
reader	14027
##admin	14028
##ora	14029
false	14030
##log	14031
1898	14032
838	14033
##ces	14034
f4	14035
##ume	14036
##oper	14037
flickr	14038
netcomponents	14039
##af	14040
williams	14041
##ound	14042
##cg	14043
##site	14044
##iko	14045
いお	14046
274	14047
5m	14048
##ath	14049
1902	14050
##hip	14051
cell	14052
317	14053
##rey	14054
780	14055
##cks	14056
012	14057
##dp	14058
sso	14059
324	14060
shtml	14061
##mw	14062
##キンク	14063
string	14064
522	14065
られた	14066
insee	14067
russell	14068
##ations	14069
289	14070
##vs	14071
##flow	14072
##late	14073
287	14074
##nter	14075
g1	14076
512	14077
##ever	14078
##lab	14079
##nger	14080
sata	14081
d1	14082
50ml	14083
cms	14084
##cing	14085
292	14086
3300	14087
editor	14088
296	14089
##nap	14090
security	14091
association	14092
##ens	14093
##bra	14094
##かり	14095
sofascore	14096
とは	14097
##ign	14098
jonathan	14099
build	14100
labels	14101
##oto	14102
tesla	14103
gohappy	14104
general	14105
ajax	14106
1024	14107
##かる	14108
サイト	14109
society	14110
##test	14111
##urs	14112
fedora	14113
##ich	14114
mozilla	14115
328	14116
##dr	14117
urn	14118
##lina	14119
##r	14120
##die	14121
##try	14122
##ader	14123
1250	14124
##なり	14125
570	14126
##chen	14127
##ᆯ	14128
##ten	14129
uhz	14130
##ough	14131
##hen	14132
states	14133
session	14134
506	14135
##cus	14136
##py	14137
##ward	14138
##ep	14139
34e	14140
library	14141
##サイト	14142
##cle	14143
##ree	14144
313	14145
q4	14146
##ctive	14147
##ool	14148
##ira	14149
388	14150
rq	14151
e6	14152
##ez	14153
368	14154
##card	14155
##cha	14156
2a	14157
##さ	14158
day3	14159
f3	14160
##end	14161
france	14162
rna	14163
##ala	14164
##え	14165
##tail	14166
##ょう	14167
support	14168
##ries	14169
##なる	14170
##ved	14171
copy	14172
iis	14173
##ways	14174
hgih	14175
profile	14176
ssh	14177
entertainment	14178
##wd	14179
click	14180
##ond	14181
##tom	14182
kic	14183
pixel	14184
##ov	14185
##fl	14186
product	14187
6a	14188
##pd	14189
##gate	14190
audio	14191
##sky	14192
##ture	14193
329	14194
##ape	14195
##なと	14196
nand	14197
##load	14198
##ream	14199
a6	14200
525	14201
##post	14202
50cm	14203
##we	14204
555	14205
guide	14206
314	14207
zenfone	14208
##ike	14209
335	14210
forum	14211
##ould	14212
software	14213
##ious	14214
else	14215
lohasthree	14216
##gar	14217
##れます	14218
##ggle	14219
##ric	14220
50000	14221
##own	14222
eclipse	14223
355	14224
3ds	14225
##side	14226
061	14227
361	14228
##other	14229
##ける	14230
##tech	14231
##ator	14232
485	14233
engine	14234
##ged	14235
##t	14236
plaza	14237
##fit	14238
westbrook	14239
50mm	14240
##みませんか	14241
291	14242
reuters	14243
##ily	14244
contextlink	14245
##hn	14246
##cil	14247
bridge	14248
##cel	14249
1890	14250
cambridge	14251
##ize	14252
15g	14253
##aid	14254
##data	14255
790	14256
##head	14257
award	14258
butler	14259
##sun	14260
meta	14261
##mar	14262
ps3	14263
pmid	14264
##すか	14265
670	14266
kitchen	14267
##lic	14268
そして	14269
day1	14270
##text	14271
##page	14272
##rris	14273
pm1	14274
##ket	14275
##っています	14276
1001	14277
kids	14278
trackback	14279
##hai	14280
c3	14281
display	14282
##hl	14283
n2	14284
1896	14285
idea	14286
さんも	14287
##sent	14288
airmail	14289
##ug	14290
##men	14291
pwm	14292
けます	14293
028	14294
##lution	14295
369	14296
852	14297
awards	14298
schemas	14299
354	14300
wikipedia	14301
font	14302
##tional	14303
##vy	14304
c2	14305
293	14306
##れている	14307
##dget	14308
##ein	14309
っている	14310
contact	14311
スキル	14312
339	14313
294	14314
##uel	14315
##ument	14316
730	14317
##hang	14318
みてす	14319
q5	14320
##sue	14321
##ndi	14322
##cept	14323
わせ	14324
331	14325
popular	14326
##ste	14327
##tag	14328
p2	14329
501	14330
trc	14331
1899	14332
##west	14333
##live	14334
honda	14335
messenger	14336
##rap	14337
v9	14338
543	14339
##とは	14340
unity	14341
appqq	14342
はすへて	14343
025	14344
##tone	14345
##テ	14346
##ass	14347
502	14348
moneydj	14349
##tical	14350
12306	14351
していると	14352
miacare	14353
##mn	14354
tmt	14355
##core	14356
vim	14357
##may	14358
target	14359
338	14360
435	14361
2050	14362
867	14363
737	14364
services	14365
##ope	14366
##わ	14367
pinkoi	14368
1a	14369
##なから	14370
##rain	14371
##ement	14372
##シャンルの	14373
374	14374
366	14375
そんな	14376
p9	14377
##ᆨ	14378
1111	14379
##tier	14380
##vic	14381
385	14382
690	14383
isofix	14384
m4	14385
322	14386
めて	14387
davis	14388
##lay	14389
##uck	14390
050	14391
weeks	14392
##hop	14393
920	14394
##n	14395
##ear	14396
eia	14397
405	14398
##fly	14399
##ship	14400
##リア	14401
1860	14402
eur	14403
297	14404
425	14405
valley	14406
##iel	14407
##ude	14408
rn	14409
k2	14410
##ena	14411
されます	14412
patrick	14413
feed	14414
5757	14415
30g	14416
process	14417
qqmei	14418
##thing	14419
aws	14420
##ters	14421
##kin	14422
または	14423
board	14424
##vertisement	14425
##ien	14426
unicode	14427
##dge	14428
r1	14429
359	14430
##tant	14431
いを	14432
##twitter	14433
cool1	14434
される	14435
##れて	14436
##l	14437
isp	14438
standard	14439
402	14440
##fu	14441
326	14442
##iner	14443
googlemsn	14444
pixnetfacebookyahoo	14445
##ラン	14446
x7	14447
886	14448
##uce	14449
##ev	14450
##きました	14451
##file	14452
9678	14453
403	14454
shirt	14455
6l	14456
##rio	14457
##hat	14458
3mm	14459
##lio	14460
ロクイン	14461
##abc	14462
336	14463
890	14464
##vc	14465
##rity	14466
cnc	14467
7866	14468
ipv6	14469
1897	14470
##ost	14471
imsean	14472
##fet	14473
##ンス	14474
352	14475
dji	14476
327	14477
##come	14478
##んて	14479
3100	14480
##beth	14481
##なった	14482
1m	14483
601	14484
active	14485
##aft	14486
##don	14487
3p	14488
349	14489
##khz	14490
415	14491
353	14492
1889	14493
341	14494
709	14495
457	14496
x6	14497
##face	14498
x4	14499
##mate	14500
##jing	14501
337	14502
##mand	14503
inwedding	14504
##gn	14505
##mmy	14506
##pmlast	14507
なとはお	14508
##wu	14509
##かあります	14510
##あ	14511
note7	14512
せからこ	14513
##bel	14514
##dio	14515
##ht	14516
union	14517
382	14518
14	14519
##ivity	14520
##y	14521
コメント	14522
domain	14523
##isa	14524
##lter	14525
5k	14526
f5	14527
##cts	14528
powerpoint	14529
tft	14530
g2	14531
##テル	14532
zol	14533
##act	14534
mwc	14535
381	14536
343	14537
もう	14538
nbapop	14539
408	14540
てある	14541
eds	14542
##room	14543
previous	14544
author	14545
tomtom	14546
##ets	14547
financial	14548
っています	14549
5t	14550
1gb	14551
##hg	14552
fairmont	14553
008	14554
h2	14555
function	14556
##けて	14557
356	14558
also	14559
1b	14560
625	14561
##raph	14562
1894	14563
##ils	14564
i3	14565
334	14566
avenue	14567
##host	14568
による	14569
##bon	14570
##tsu	14571
navigation	14572
50g	14573
fintech	14574
h6	14575
##ことを	14576
8cm	14577
##ject	14578
##vas	14579
##firm	14580
credit	14581
##wf	14582
form	14583
##nor	14584
##space	14585
json	14586
sbl	14587
##dc	14588
921	14589
392	14590
##sol	14591
edward	14592
##ために	14593
development	14594
washington	14595
##nsis	14596
818	14597
##sio	14598
##ym	14599
##bor	14600
##wt	14601
ieee	14602
##めて	14603
camp	14604
##tw	14605
##oka	14606
connect	14607
##rss	14608
##work	14609
##atus	14610
2mm	14611
##times	14612
##ather	14613
##cord	14614
009	14615
##eep	14616
hitachi	14617
##pan	14618
e1	14619
##press	14620
386	14621
frigidaire	14622
##tl	14623
hsu	14624
332	14625
ev	14626
いた	14627
てきる	14628
learning	14629
##ull	14630
expedia	14631
archives	14632
##wei	14633
6gb	14634
cf1	14635
508	14636
004	14637
747	14638
##rip	14639
h1	14640
##nis	14641
##をこ	14642
128gb	14643
##にお	14644
3t	14645
しており	14646
emc	14647
##oon	14648
384	14649
412	14650
15058	14651
wilson	14652
chapter	14653
##bug	14654
##cms	14655
##dar	14656
##oh	14657
e2	14658
##nba	14659
rcep	14660
342	14661
aspx	14662
080	14663
gnu	14664
める	14665
##count	14666
advanced	14667
##url	14668
##ging	14669
367	14670
8591	14671
am09	14672
346	14673
##i	14674
##cia	14675
##という	14676
##のてす	14677
##tation	14678
host	14679
techorz	14680
##mini	14681
##mporary	14682
##ering	14683
4200	14684
798	14685
##next	14686
cma	14687
##mbps	14688
##gas	14689
##ift	14690
##dot	14691
##ィ	14692
455	14693
amana	14694
##りの	14695
426	14696
##ros	14697
ir	14698
##eet	14699
##ible	14700
710	14701
##aka	14702
dcs	14703
##v	14704
l1	14705
##lor	14706
##iu	14707
588	14708
830	14709
##gt	14710
1tb	14711
articles	14712
create	14713
##burg	14714
##iki	14715
database	14716
##rex	14717
##cam	14718
##you	14719
gaming	14720
##lee	14721
##itor	14722
overchicstoretvhome	14723
systems	14724
##xt	14725
416	14726
p3	14727
760	14728
##nan	14729
407	14730
486	14731
x9	14732
install	14733
626	14734
##ann	14735
##ph	14736
##rcle	14737
##nic	14738
860	14739
##nar	14740
##とう	14741
768	14742
metro	14743
##rian	14744
##table	14745
##しています	14746
##sn	14747
395	14748
inparadise	14749
6m	14750
7x24	14751
4800	14752
##jia	14753
eeworld	14754
creative	14755
g5	14756
g3	14757
357	14758
parker	14759
ecfa	14760
village	14761
からの	14762
18000	14763
sylvia	14764
hbl	14765
##ques	14766
##onsored	14767
##きます	14768
##tein	14769
ie6	14770
383	14771
##stack	14772
389	14773
##ads	14774
##baby	14775
bbe	14776
##lone	14777
##uid	14778
ads	14779
022	14780
gundam	14781
351	14782
006	14783
scrum	14784
##ave	14785
mems	14786
##oy	14787
##なりました	14788
##talk	14789
lamigo	14790
##eme	14791
wade	14792
kde	14793
498	14794
##lace	14795
tvg	14796
##covery	14797
##ners	14798
##rea	14799
##aine	14800
##ision	14801
##sia	14802
##bow	14803
413	14804
458	14805
406	14806
##love	14807
711	14808
801	14809
z2	14810
##pl	14811
456	14812
1840	14813
mobil	14814
##uy	14815
427	14816
nginx	14817
##oi	14818
めた	14819
##rr	14820
6221	14821
##mple	14822
##sson	14823
371	14824
##nts	14825
91tv	14826
comhd	14827
crv3000	14828
##uard	14829
1868	14830
397	14831
field	14832
gallery	14833
##bia	14834
rate	14835
redis	14836
traction	14837
930	14838
011	14839
なら	14840
jose	14841
372	14842
##tory	14843
899	14844
379	14845
##hia	14846
すく	14847
##sit	14848
24	14849
##walk	14850
##xure	14851
500g	14852
##pact	14853
pacific	14854
carlo	14855
##walker	14856
1850	14857
##can	14858
516	14859
##hoo	14860
##b	14861
##yy	14862
13913459	14863
##iti	14864
##bbs	14865
c5	14866
oxford	14867
##ニア	14868
##ola	14869
##bre	14870
701	14871
##pus	14872
##rder	14873
075	14874
##ぁ	14875
なお	14876
##nia	14877
sotheby	14878
side	14879
##ugh	14880
##orage	14881
##ush	14882
##bat	14883
##dt	14884
364	14885
r9	14886
##gio	14887
511	14888
##lax	14889
##moon	14890
393	14891
411	14892
348	14893
lonzo	14894
8k	14895
##ェ	14896
evolution	14897
##イフ	14898
##kk	14899
##レス	14900
arduino	14901
344	14902
b12	14903
##lux	14904
arpg	14905
##rdon	14906
##als	14907
##ida	14908
とても	14909
362	14910
##ちの	14911
20mm	14912
##nda	14913
387	14914
##posted	14915
1870	14916
422	14917
##mine	14918
##skip	14919
##form	14920
##ssion	14921
education	14922
394	14923
##tee	14924
##jie	14925
##night	14926
epson	14927
pack	14928
あります	14929
##ppy	14930
テリヘル	14931
##eh	14932
##rence	14933
##lvin	14934
mhz	14935
##trix	14936
##uch	14937
##dra	14938
##sse	14939
1mdb	14940
##urn	14941
##lmer	14942
せよ	14943
611	14944
378	14945
##sha	14946
##あなたに	14947
##きた	14948
840	14949
holiday	14950
373	14951
074	14952
##vg	14953
##nos	14954
##rail	14955
gartner	14956
6p	14957
##dium	14958
kit	14959
488	14960
b3	14961
eco	14962
##ろう	14963
20g	14964
##stone	14965
autocad	14966
##np	14967
f16	14968
write	14969
029	14970
m5	14971
##ias	14972
images	14973
atp	14974
##dk	14975
fsm	14976
504	14977
1350	14978
52kb	14979
##xxx	14980
##のに	14981
##cake	14982
414	14983
unit	14984
lim	14985
1v	14986
##ification	14987
published	14988
16g	14989
analytics	14990
##q	14991
##nel	14992
gmt	14993
##icon	14994
##bby	14995
ios11	14996
445	14997
waze	14998
いてす	14999
##ハ	15000
9985	15001
##ust	15002
framework	15003
52sykb	15004
wwdc	15005
027	15006
30cm	15007
##fw	15008
##ての	15009
1389	15010
##xon	15011
brandt	15012
##ses	15013
##dragon	15014
vetements	15015
anne	15016
monte	15017
official	15018
##へて	15019
##ere	15020
##nne	15021
##oud	15022
もちろん	15023
50	15024
etnews	15025
##graphy	15026
421	15027
863	15028
##ちゃん	15029
444	15030
##rtex	15031
##てお	15032
l2	15033
##gma	15034
mount	15035
ccd	15036
たと	15037
archive	15038
ddos	15039
e7	15040
##ホ	15041
day4	15042
##ウ	15043
gis	15044
453	15045
495	15046
factory	15047
##ito	15048
guest	15049
##lling	15050
536	15051
n3	15052
しかし	15053
mega	15054
13	15055
dac	15056
##jun	15057
##facebook	15058
6991	15059
##tos	15060
##stin	15061
##shine	15062
##mu	15063
1893	15064
##たけて	15065
503	15066
465	15067
request	15068
##gence	15069
##っ	15070
1886	15071
347	15072
363	15073
q7	15074
##zzi	15075
diary	15076
##tore	15077
409	15078
##ead	15079
468	15080
cst	15081
##osa	15082
agent	15083
##jiang	15084
##ちは	15085
##lam	15086
##nix	15087
##sday	15088
##よって	15089
g6	15090
##master	15091
##zl	15092
16	15093
8mm	15094
nb40	15095
thai	15096
##ルフ	15097
ln284ct	15098
##itz	15099
##food	15100
##lent	15101
originals	15102
##stro	15103
##lts	15104
418	15105
##bscribe	15106
ntd	15107
yesstyle	15108
##かも	15109
hmv	15110
##tment	15111
d5	15112
2cm	15113
arts	15114
sms	15115
##pn	15116
##я	15117
##いい	15118
topios9	15119
539	15120
lifestyle	15121
virtual	15122
##ague	15123
##deo	15124
024	15125
unt	15126
##nnis	15127
##ᅩ	15128
faq1	15129
1884	15130
396	15131
##ette	15132
441	15133
##pop	15134
のこ	15135
release	15136
##cast	15137
073	15138
ありな	15139
500ml	15140
##ews	15141
5c	15142
##stle	15143
ios7	15144
##ima	15145
787	15146
lenovo	15147
013	15148
vornado	15149
100m	15150
417	15151
##desk	15152
##クok	15153
##ald	15154
1867	15155
9595	15156
2900	15157
##van	15158
##x	15159
common	15160
##jy	15161
##lines	15162
g7	15163
419	15164
にこ	15165
##mes	15166
##self	15167
##note	15168
jb	15169
##ことかてきます	15170
##との	15171
##ova	15172
451	15173
##wing	15174
##ますのて	15175
りは	15176
##hua	15177
##rect	15178
rainer	15179
##unge	15180
448	15181
##かな	15182
guestname	15183
##uma	15184
##kins	15185
##zu	15186
tokichoi	15187
##price	15188
county	15189
##med	15190
##mus	15191
391	15192
address	15193
えて	15194
openload	15195
##group	15196
##hin	15197
##iginal	15198
##oz	15199
emi	15200
##public	15201
##sch	15202
album	15203
##dden	15204
##bell	15205
hostel	15206
##drive	15207
##rmin	15208
376	15209
boot	15210
828	15211
##fx	15212
1885	15213
##nome	15214
##ctionary	15215
##oman	15216
##lish	15217
##cr	15218
##hm	15219
433	15220
##how	15221
432	15222
francis	15223
c919	15224
b5	15225
evernote	15226
##uc	15227
vga	15228
##urg	15229
##cca	15230
##uality	15231
019	15232
6g	15233
れる	15234
multi	15235
##また	15236
##ett	15237
##ani	15238
##tax	15239
##rma	15240
inside	15241
740	15242
leonnhurt	15243
##jin	15244
ict	15245
れた	15246
notes	15247
200mm	15248
くの	15249
##dical	15250
##lli	15251
result	15252
442	15253
438	15254
##last	15255
998	15256
32g	15257
けた	15258
5kg	15259
##dan	15260
##rame	15261
##oot	15262
marketing	15263
##hur	15264
2l	15265
sync	15266
xuite	15267
##ground	15268
515	15269
discuz	15270
##getrelax	15271
##ince	15272
##bay	15273
##イス	15274
apt	15275
##pass	15276
##rix	15277
c4	15278
##とても	15279
niusnews	15280
##ello	15281
770	15282
##eting	15283
##mobile	15284
18	15285
culture	15286
015	15287
##のてすか	15288
377	15289
1020	15290
area	15291
##ience	15292
616	15293
details	15294
universal	15295
dit	15296
はお	15297
private	15298
u11	15299
kanshu	15300
##ified	15301
fung	15302
##nny	15303
475	15304
023	15305
##fr	15306
##lean	15307
3s	15308
##pin	15309
429	15310
##rin	15311
25000	15312
##bility	15313
usb3	15314
##baru	15315
##gion	15316
vdf	15317
1871	15318
karl	15319
qualcomm	15320
1010	15321
oldid	15322
##tors	15323
population	15324
##ernel	15325
1882	15326
mmorpg	15327
##mv	15328
##bike	15329
603	15330
##ager	15331
exhibition	15332
##del	15333
##pods	15334
fpx	15335
structure	15336
##free	15337
##tings	15338
##rley	15339
##copyright	15340
##mma	15341
3400	15342
4l	15343
##anda	15344
##コメント	15345
595	15346
nikkie	15347
##ルハイト	15348
publishing	15349
##mall	15350
##gnet	15351
20cm	15352
513	15353
##クセス	15354
e88	15355
970	15356
##dog	15357
fishbase	15358
##ß	15359
##æ	15360
##÷	15361
##ø	15362
##α	15363
##β	15364
##γ	15365
##δ	15366
##ε	15367
##η	15368
##θ	15369
##ι	15370
##κ	15371
##λ	15372
##μ	15373
##ν	15374
##ο	15375
##π	15376
##ρ	15377
##ς	15378
##σ	15379
##τ	15380
##υ	15381
##φ	15382
##χ	15383
##ψ	15384
##б	15385
##в	15386
##г	15387
##д	15388
##е	15389
##ж	15390
##з	15391
##к	15392
##л	15393
##м	15394
##н	15395
##о	15396
##п	15397
##р	15398
##с	15399
##т	15400
##у	15401
##ф	15402
##х	15403
##ц	15404
##ч	15405
##ш	15406
##ы	15407
##ь	15408
##ᄀ	15409
##ᄁ	15410
##ᄂ	15411
##ᄃ	15412
##ᄅ	15413
##ᄆ	15414
##ᄇ	15415
##ᄈ	15416
##ᄉ	15417
##ᄋ	15418
##ᄌ	15419
##ᄎ	15420
##ᄏ	15421
##ᄐ	15422
##ᄑ	15423
##ᄒ	15424
##ᅢ	15425
##ᅣ	15426
##ᅥ	15427
##ᅦ	15428
##ᅧ	15429
##ᅨ	15430
##ᅪ	15431
##ᅬ	15432
##ᅭ	15433
##ᅮ	15434
##ᅯ	15435
##ᅲ	15436
##ᅳ	15437
##ᅴ	15438
##ᆷ	15439
##ᆸ	15440
##ᆺ	15441
##ᆻ	15442
##	15443
##ぃ	15444
##ぇ	15445
##ぬ	15446
##ふ	15447
##ほ	15448
##む	15449
##ゃ	15450
##ゅ	15451
##ゆ	15452
##ょ	15453
##ァ	15454
##ゥ	15455
##エ	15456
##ォ	15457
##ケ	15458
##サ	15459
##セ	15460
##ソ	15461
##ッ	15462
##ニ	15463
##ヌ	15464
##ネ	15465
##ノ	15466
##ヘ	15467
##モ	15468
##ャ	15469
##ヤ	15470
##ュ	15471
##ユ	15472
##ョ	15473
##ヨ	15474
##ワ	15475
##ヲ	15476
##ㆍ	15477
##f	15478
##h	15479
##j	15480
##u	15481
##w	15482
##z	15483
剧	15484
多	15485
点	15486
会	15487
提	15488
高	15489
##7	15490
语	15491
言	15492
抖	15493
包	15494
袱	15495
没	15496
确	15497
实	15498
对	15499
已	15500
经	15501
徐	15502
##00	15503
##10	15504
##2017	15505
##2016	15506
##20	15507
##17	15508
##11	15509
##12	15510
##30	15511
##50	15512
##15	15513
##16	15514
##80	15515
##88	15516
##60	15517
##90	15518
##2015	15519
##21	15520
##99	15521
##40	15522
##18	15523
##01	15524
##13	15525
##24	15526
##22	15527
##016	15528
##32	15529
##017	15530
##14	15531
##70	15532
##25	15533
##23	15534
##26	15535
##31	15536
##19	15537
##100	15538
##28	15539
##06	15540
##48	15541
##015	15542
##35	15543
##29	15544
##02	15545
##05	15546
##33	15547
##55	15548
##2014	15549
##66	15550
##77	15551
##27	15552
##61	15553
##2013	15554
##45	15555
##03	15556
##47	15557
##000	15558
##71	15559
##04	15560
##95	15561
##68	15562
##07	15563
##78	15564
##38	15565
##73	15566
##08	15567
##36	15568
##64	15569
##85	15570
##75	15571
##98	15572
##51	15573
##86	15574
##42	15575
##58	15576
##09	15577
##34	15578
##41	15579
##2012	15580
##62	15581
##44	15582
##53	15583
##81	15584
##65	15585
##91	15586
##46	15587
##56	15588
##39	15589
##52	15590
##63	15591
##69	15592
##89	15593
##97	15594
##67	15595
##96	15596
##43	15597
##87	15598
##2011	15599
##37	15600
##54	15601
##72	15602
##79	15603
##49	15604
##84	15605
##2010	15606
##83	15607
##92	15608
##82	15609
##76	15610
##59	15611
##57	15612
##93	15613
##94	15614
##74	15615
##500	15616
##123	15617
##2000	15618
##200	15619
##001	15620
##2009	15621
##800	15622
##888	15623
##300	15624
##600	15625
##360	15626
##365	15627
##1000	15628
##2008	15629
##900	15630
##2007	15631
##580	15632
##400	15633
##750	15634
##168	15635
##009	15636
##013	15637
##014	15638
##999	15639
##700	15640
##480	15641
##163	15642
##101	15643
##010	15644
##012	15645
##150	15646
##340	15647
##120	15648
##011	15649
##110	15650
##470	15651
##250	15652
##160	15653
##007	15654
##370	15655
##3000	15656
##520	15657
嚗	15658
憭	15659
摰	15660
氽	15661
鈭	15662
銝	15663
铌	15664
隞	15665
隡	15666
windows7	15667
##0m	15668
##2c	15669
##2d	15670
##2f	15671
##3c	15672
##3d	15673
##5s	15674
##a1	15675
##a2	15676
##a5	15677
##m2	15678
##n1	15679
##n2	15680
##o2	15681
##r3	15682
##r4	15683
##v4	15684
##x2	15685
##x5	15686
##0mm	15687
_	15688
ā	15689
á	15690
ǎ	15691
à	15692
ō	15693
ó	15694
ǒ	15695
ò	15696
ē	15697
é	15698
ě	15699
è	15700
ī	15701
í	15702
ǐ	15703
ì	15704
ū	15705
ú	15706
ǔ	15707
ù	15708
ǖ	15709
ǘ	15710
ǚ	15711
ǜ	15712
āi	15713
ái	15714
ǎi	15715
ài	15716
ēi	15717
éi	15718
ěi	15719
èi	15720
uī	15721
uí	15722
uǐ	15723
uì	15724
āo	15725
áo	15726
ǎo	15727
ào	15728
ōu	15729
óu	15730
ǒu	15731
òu	15732
iū	15733
iú	15734
iǔ	15735
iù	15736
iē	15737
ié	15738
iě	15739
iè	15740
üē	15741
üé	15742
üě	15743
üè	15744
ēr	15745
ér	15746
ěr	15747
èr	15748
ān	15749
án	15750
ǎn	15751
àn	15752
ēn	15753
én	15754
ěn	15755
èn	15756
īn	15757
ín	15758
ǐn	15759
ìn	15760
ūn	15761
ún	15762
ǔn	15763
ùn	15764
ǖn	15765
ǘn	15766
ǚn	15767
ǜn	15768
āng	15769
áng	15770
ǎng	15771
àng	15772
ēng	15773
éng	15774
ěng	15775
èng	15776
īng	15777
íng	15778
ǐng	15779
ìng	15780
ōng	15781
óng	15782
ǒng	15783
òng	15784
ü	15785
##ā	15786
##á	15787
##ǎ	15788
##à	15789
##ō	15790
##ó	15791
##ǒ	15792
##ò	15793
##ē	15794
##é	15795
##ě	15796
##è	15797
##ī	15798
##í	15799
##ǐ	15800
##ì	15801
##ū	15802
##ú	15803
##ǔ	15804
##ù	15805
##ǖ	15806
##ǘ	15807
##ǚ	15808
##ǜ	15809
##āi	15810
##ái	15811
##ǎi	15812
##ài	15813
##ēi	15814
##éi	15815
##ěi	15816
##èi	15817
##uī	15818
##uí	15819
##uǐ	15820
##uì	15821
##āo	15822
##áo	15823
##ǎo	15824
##ào	15825
##ōu	15826
##óu	15827
##ǒu	15828
##òu	15829
##iū	15830
##iú	15831
##iǔ	15832
##iù	15833
##iē	15834
##ié	15835
##iě	15836
##iè	15837
##üē	15838
##üé	15839
##üě	15840
##üè	15841
##ēr	15842
##ér	15843
##ěr	15844
##èr	15845
##ān	15846
##án	15847
##ǎn	15848
##àn	15849
##ēn	15850
##én	15851
##ěn	15852
##èn	15853
##īn	15854
##ín	15855
##ǐn	15856
##ìn	15857
##ūn	15858
##ún	15859
##ǔn	15860
##ùn	15861
##ǖn	15862
##ǘn	15863
##ǚn	15864
##ǜn	15865
##āng	15866
##áng	15867
##ǎng	15868
##àng	15869
##ēng	15870
##éng	15871
##ěng	15872
##èng	15873
##īng	15874
##íng	15875
##ǐng	15876
##ìng	15877
##ōng	15878
##óng	15879
##ǒng	15880
##òng	15881
##ü	15882
had	15883
were	15884
which	15885
him	15886
their	15887
been	15888
would	15889
then	15890
them	15891
could	15892
during	15893
through	15894
between	15895
while	15896
later	15897
around	15898
did	15899
such	15900
being	15901
used	15902
against	15903
many	15904
both	15905
these	15906
known	15907
until	15908
even	15909
didn	15910
because	15911
born	15912
since	15913
still	15914
became	15915
any	15916
including	15917
took	15918
same	15919
each	15920
called	15921
much	15922
however	15923
four	15924
another	15925
found	15926
won	15927
going	15928
away	15929
hand	15930
several	15931
following	15932
released	15933
played	15934
began	15935
district	15936
those	15937
held	15938
own	15939
early	15940
league	15941
government	15942
came	15943
based	15944
thought	15945
looked	15946
along	15947
went	15948
few	15949
father	15950
former	15951
located	15952
got	15953
though	15954
every	15955
century	15956
without	15957
within	15958
building	15959
large	15960
named	15961
started	15962
once	15963
should	15964
built	15965
british	15966
death	15967
moved	15968
door	15969
need	15970
president	15971
wasn	15972
although	15973
due	15974
major	15975
died	15976
third	15977
knew	15978
asked	15979
turned	15980
wanted	15981
together	15982
received	15983
son	15984
served	15985
different	15986
behind	15987
himself	15988
felt	15989
members	15990
football	15991
near	15992
having	15993
saw	15994
mother	15995
army	15996
front	15997
late	15998
hands	15999
put	16000
division	16001
across	16002
told	16003
often	16004
ever	16005
french	16006
six	16007
include	16008
tell	16009
among	16010
species	16011
really	16012
according	16013
half	16014
original	16015
gave	16016
making	16017
enough	16018
opened	16019
must	16020
included	16021
given	16022
german	16023
woman	16024
community	16025
might	16026
million	16027
court	16028
short	16029
round	16030
seen	16031
always	16032
become	16033
sure	16034
almost	16035
director	16036
council	16037
career	16038
things	16039
using	16040
couldn	16041
better	16042
students	16043
married	16044
nothing	16045
worked	16046
others	16047
record	16048
anything	16049
continued	16050
give	16051
military	16052
established	16053
returned	16054
does	16055
written	16056
thing	16057
feet	16058
far	16059
already	16060
championship	16061
western	16062
department	16063
role	16064
various	16065
production	16066
television	16067
produced	16068
working	16069
region	16070
present	16071
period	16072
looking	16073
least	16074
total	16075
england	16076
wife	16077
per	16078
brother	16079
soon	16080
political	16081
taken	16082
created	16083
further	16084
able	16085
reached	16086
joined	16087
upon	16088
done	16089
important	16090
either	16091
appeared	16092
position	16093
ground	16094
lead	16095
election	16096
arms	16097
police	16098
instead	16099
words	16100
moment	16101
someone	16102
announced	16103
less	16104
wrote	16105
past	16106
followed	16107
founded	16108
finally	16109
india	16110
taking	16111
records	16112
considered	16113
northern	16114
toward	16115
european	16116
outside	16117
described	16118
track	16119
playing	16120
heard	16121
professional	16122
australia	16123
miles	16124
yet	16125
trying	16126
blood	16127
southern	16128
maybe	16129
everything	16130
mouth	16131
race	16132
recorded	16133
above	16134
daughter	16135
points	16136
middle	16137
move	16138
tried	16139
elected	16140
closed	16141
ten	16142
minister	16143
chief	16144
person	16145
similar	16146
brought	16147
rest	16148
formed	16149
floor	16150
doing	16151
killed	16152
training	16153
needed	16154
turn	16155
finished	16156
railway	16157
rather	16158
sent	16159
example	16160
ran	16161
term	16162
coming	16163
currently	16164
forces	16165
despite	16166
areas	16167
fact	16168
dead	16169
originally	16170
germany	16171
probably	16172
developed	16173
pulled	16174
stood	16175
signed	16176
songs	16177
child	16178
eventually	16179
met	16180
average	16181
teams	16182
minutes	16183
current	16184
kind	16185
decided	16186
usually	16187
eastern	16188
seemed	16189
episode	16190
bed	16191
added	16192
indian	16193
route	16194
available	16195
throughout	16196
addition	16197
appointed	16198
eight	16199
construction	16200
mean	16201
remained	16202
schools	16203
sometimes	16204
events	16205
possible	16206
australian	16207
forward	16208
debut	16209
seat	16210
performance	16211
committee	16212
features	16213
character	16214
herself	16215
lot	16216
russian	16217
range	16218
hours	16219
sold	16220
quickly	16221
directed	16222
guitar	16223
performed	16224
players	16225
smile	16226
myself	16227
placed	16228
province	16229
towards	16230
wouldn	16231
leading	16232
whole	16233
designed	16234
census	16235
europe	16236
attack	16237
japanese	16238
getting	16239
alone	16240
lower	16241
wide	16242
hospital	16243
believe	16244
changed	16245
sister	16246
gone	16247
hadn	16248
ship	16249
studies	16250
academy	16251
shot	16252
below	16253
involved	16254
kept	16255
largest	16256
especially	16257
beginning	16258
movement	16259
section	16260
female	16261
professor	16262
lord	16263
longer	16264
walked	16265
actually	16266
civil	16267
families	16268
thus	16269
aircraft	16270
completed	16271
includes	16272
captain	16273
fight	16274
vocals	16275
featured	16276
fourth	16277
officer	16278
hear	16279
means	16280
medical	16281
groups	16282
lips	16283
competition	16284
entire	16285
lived	16286
leaving	16287
federal	16288
tournament	16289
passed	16290
independent	16291
kingdom	16292
spent	16293
fine	16294
doesn	16295
reported	16296
fall	16297
raised	16298
itself	16299
replaced	16300
leader	16301
theatre	16302
whose	16303
parents	16304
spanish	16305
canadian	16306
degree	16307
writing	16308
awarded	16309
higher	16310
coast	16311
provided	16312
senior	16313
organization	16314
stopped	16315
onto	16316
countries	16317
parts	16318
conference	16319
interest	16320
saying	16321
allowed	16322
earlier	16323
matter	16324
winning	16325
try	16326
happened	16327
moving	16328
los	16329
breath	16330
nearly	16331
mid	16332
certain	16333
italian	16334
african	16335
standing	16336
fell	16337
artist	16338
shows	16339
deal	16340
mine	16341
industry	16342
everyone	16343
republic	16344
provide	16345
student	16346
primary	16347
owned	16348
older	16349
heavy	16350
1st	16351
makes	16352
attention	16353
anyone	16354
africa	16355
stated	16356
length	16357
ended	16358
fingers	16359
command	16360
staff	16361
foreign	16362
opening	16363
governor	16364
okay	16365
medal	16366
kill	16367
introduced	16368
chest	16369
hell	16370
feeling	16371
success	16372
meet	16373
reason	16374
meeting	16375
novel	16376
trade	16377
buildings	16378
guy	16379
goal	16380
native	16381
husband	16382
previously	16383
entered	16384
producer	16385
operations	16386
takes	16387
covered	16388
forced	16389
roman	16390
complete	16391
successful	16392
texas	16393
cold	16394
traditional	16395
films	16396
clear	16397
approximately	16398
nine	16399
prince	16400
question	16401
tracks	16402
ireland	16403
regional	16404
personal	16405
operation	16406
economic	16407
holding	16408
twenty	16409
additional	16410
hour	16411
regular	16412
historic	16413
places	16414
whom	16415
shook	16416
secretary	16417
prior	16418
scored	16419
units	16420
ask	16421
property	16422
ready	16423
immediately	16424
month	16425
listed	16426
contract	16427
themselves	16428
lines	16429
navy	16430
writer	16431
meant	16432
runs	16433
practice	16434
championships	16435
singer	16436
commission	16437
required	16438
starting	16439
generally	16440
giving	16441
attended	16442
couple	16443
stand	16444
catholic	16445
caught	16446
executive	16447
thinking	16448
chair	16449
quite	16450
shoulder	16451
hope	16452
decision	16453
plays	16454
defeated	16455
municipality	16456
whether	16457
offered	16458
slowly	16459
pain	16460
direction	16461
mission	16462
mostly	16463
noted	16464
individual	16465
managed	16466
lives	16467
plant	16468
helped	16469
except	16470
studied	16471
computer	16472
figure	16473
relationship	16474
issue	16475
significant	16476
loss	16477
smiled	16478
gun	16479
highest	16480
male	16481
bring	16482
goals	16483
mexico	16484
problem	16485
distance	16486
commercial	16487
completely	16488
location	16489
annual	16490
famous	16491
neck	16492
caused	16493
italy	16494
understand	16495
greek	16496
highway	16497
wrong	16498
comes	16499
appearance	16500
issues	16501
musical	16502
companies	16503
castle	16504
income	16505
assembly	16506
bass	16507
initially	16508
parliament	16509
artists	16510
experience	16511
particular	16512
walk	16513
foot	16514
engineering	16515
talking	16516
dropped	16517
boys	16518
stars	16519
remember	16520
carried	16521
train	16522
stadium	16523
angeles	16524
evidence	16525
becoming	16526
assistant	16527
soviet	16528
upper	16529
youth	16530
reach	16531
actor	16532
numerous	16533
nodded	16534
arrived	16535
minute	16536
believed	16537
complex	16538
victory	16539
associated	16540
temple	16541
chance	16542
perhaps	16543
bishop	16544
launched	16545
particularly	16546
retired	16547
subject	16548
prize	16549
contains	16550
yeah	16551
theory	16552
empire	16553
suddenly	16554
waiting	16555
trust	16556
recording	16557
terms	16558
champion	16559
religious	16560
zealand	16561
names	16562
2nd	16563
ancient	16564
corner	16565
represented	16566
legal	16567
justice	16568
cause	16569
watched	16570
brothers	16571
material	16572
changes	16573
simply	16574
response	16575
answer	16576
historical	16577
stories	16578
straight	16579
feature	16580
increased	16581
administration	16582
virginia	16583
activities	16584
cultural	16585
overall	16586
winner	16587
programs	16588
basketball	16589
legs	16590
guard	16591
cast	16592
doctor	16593
flight	16594
results	16595
remains	16596
cost	16597
effect	16598
winter	16599
larger	16600
islands	16601
problems	16602
chairman	16603
grew	16604
commander	16605
isn	16606
failed	16607
selected	16608
hurt	16609
fort	16610
regiment	16611
majority	16612
plans	16613
shown	16614
pretty	16615
irish	16616
characters	16617
directly	16618
scene	16619
likely	16620
operated	16621
allow	16622
matches	16623
looks	16624
houses	16625
fellow	16626
marriage	16627
rules	16628
florida	16629
expected	16630
nearby	16631
congress	16632
peace	16633
recent	16634
wait	16635
subsequently	16636
variety	16637
serving	16638
agreed	16639
poor	16640
attempt	16641
wood	16642
democratic	16643
rural	16644
mile	16645
appears	16646
township	16647
soldiers	16648
##ized	16649
pennsylvania	16650
closer	16651
fighting	16652
claimed	16653
score	16654
physical	16655
filled	16656
genus	16657
specific	16658
sitting	16659
mom	16660
therefore	16661
supported	16662
status	16663
fear	16664
cases	16665
meaning	16666
wales	16667
minor	16668
spain	16669
vice	16670
parish	16671
separate	16672
horse	16673
fifth	16674
remaining	16675
branch	16676
presented	16677
stared	16678
uses	16679
forms	16680
baseball	16681
exactly	16682
choice	16683
discovered	16684
composed	16685
truth	16686
russia	16687
dad	16688
ring	16689
referred	16690
numbers	16691
greater	16692
metres	16693
slightly	16694
direct	16695
increase	16696
responsible	16697
crew	16698
rule	16699
trees	16700
troops	16701
broke	16702
goes	16703
individuals	16704
hundred	16705
weight	16706
creek	16707
sleep	16708
defense	16709
provides	16710
ordered	16711
jewish	16712
safe	16713
judge	16714
whatever	16715
corps	16716
realized	16717
growing	16718
cities	16719
gaze	16720
lies	16721
spread	16722
letter	16723
showed	16724
situation	16725
mayor	16726
transport	16727
watching	16728
workers	16729
extended	16730
expression	16731
normal	16732
chart	16733
multiple	16734
border	16735
mrs	16736
walls	16737
piano	16738
heat	16739
cannot	16740
earned	16741
products	16742
drama	16743
era	16744
authority	16745
seasons	16746
join	16747
grade	16748
difficult	16749
territory	16750
mainly	16751
stations	16752
squadron	16753
stepped	16754
iron	16755
19th	16756
serve	16757
appear	16758
speak	16759
broken	16760
charge	16761
knowledge	16762
kilometres	16763
removed	16764
ships	16765
campus	16766
pushed	16767
britain	16768
leaves	16769
recently	16770
boston	16771
latter	16772
acquired	16773
poland	16774
quality	16775
officers	16776
presence	16777
planned	16778
nations	16779
mass	16780
broadcast	16781
influence	16782
wild	16783
emperor	16784
electric	16785
headed	16786
ability	16787
promoted	16788
yellow	16789
ministry	16790
throat	16791
smaller	16792
politician	16793
latin	16794
spoke	16795
cars	16796
males	16797
lack	16798
acting	16799
seeing	16800
consists	16801
estate	16802
pressure	16803
newspaper	16804
olympics	16805
conditions	16806
beat	16807
elements	16808
walking	16809
vote	16810
needs	16811
carolina	16812
featuring	16813
levels	16814
francisco	16815
purpose	16816
females	16817
dutch	16818
duke	16819
ahead	16820
gas	16821
safety	16822
serious	16823
turning	16824
highly	16825
lieutenant	16826
firm	16827
amount	16828
mixed	16829
proposed	16830
perfect	16831
agreement	16832
affairs	16833
3rd	16834
seconds	16835
contemporary	16836
paid	16837
prison	16838
label	16839
administrative	16840
intended	16841
constructed	16842
academic	16843
teacher	16844
races	16845
formerly	16846
nation	16847
issued	16848
shut	16849
drums	16850
housing	16851
seems	16852
graduated	16853
mentioned	16854
picked	16855
recognized	16856
shortly	16857
protection	16858
picture	16859
notable	16860
elections	16861
1980s	16862
loved	16863
percent	16864
racing	16865
elizabeth	16866
volume	16867
hockey	16868
beside	16869
settled	16870
competed	16871
replied	16872
drew	16873
actress	16874
marine	16875
scotland	16876
steel	16877
glanced	16878
farm	16879
risk	16880
tonight	16881
positive	16882
singles	16883
effects	16884
gray	16885
screen	16886
residents	16887
sides	16888
none	16889
secondary	16890
literature	16891
polish	16892
destroyed	16893
flying	16894
founder	16895
households	16896
lay	16897
reserve	16898
industrial	16899
younger	16900
approach	16901
appearances	16902
ones	16903
finish	16904
powerful	16905
fully	16906
growth	16907
honor	16908
jersey	16909
projects	16910
revealed	16911
infantry	16912
pair	16913
equipment	16914
visit	16915
evening	16916
grant	16917
effort	16918
treatment	16919
buried	16920
republican	16921
primarily	16922
bottom	16923
owner	16924
1970s	16925
israel	16926
gives	16927
remain	16928
spot	16929
produce	16930
champions	16931
accepted	16932
ways	16933
##ally	16934
losing	16935
split	16936
capacity	16937
basis	16938
trial	16939
questions	16940
20th	16941
guess	16942
officially	16943
memorial	16944
naval	16945
initial	16946
##ization	16947
whispered	16948
median	16949
engineer	16950
sydney	16951
columbia	16952
strength	16953
tears	16954
senate	16955
asian	16956
draw	16957
warm	16958
supposed	16959
transferred	16960
leaned	16961
candidate	16962
escape	16963
mountains	16964
potential	16965
activity	16966
seem	16967
traffic	16968
murder	16969
slow	16970
orchestra	16971
haven	16972
agency	16973
taught	16974
website	16975
comedy	16976
unable	16977
storm	16978
planning	16979
albums	16980
rugby	16981
environment	16982
scientific	16983
grabbed	16984
protect	16985
boat	16986
typically	16987
damage	16988
principal	16989
divided	16990
dedicated	16991
ohio	16992
pick	16993
fought	16994
driver	16995
empty	16996
shoulders	16997
sort	16998
thank	16999
berlin	17000
prominent	17001
account	17002
freedom	17003
necessary	17004
efforts	17005
headquarters	17006
follows	17007
alongside	17008
suggested	17009
operating	17010
steps	17011
technical	17012
begin	17013
easily	17014
teeth	17015
speaking	17016
settlement	17017
scale	17018
renamed	17019
enemy	17020
semi	17021
joint	17022
compared	17023
scottish	17024
leadership	17025
analysis	17026
offers	17027
georgia	17028
pieces	17029
captured	17030
animal	17031
deputy	17032
organized	17033
combined	17034
method	17035
challenge	17036
1960s	17037
huge	17038
wants	17039
battalion	17040
sons	17041
rise	17042
crime	17043
types	17044
facilities	17045
telling	17046
platform	17047
sit	17048
1990s	17049
tells	17050
assigned	17051
pull	17052
commonly	17053
alive	17054
letters	17055
concept	17056
conducted	17057
wearing	17058
happen	17059
bought	17060
becomes	17061
holy	17062
gets	17063
defeat	17064
languages	17065
purchased	17066
occurred	17067
titled	17068
declared	17069
applied	17070
sciences	17071
concert	17072
sounds	17073
jazz	17074
brain	17075
painting	17076
fleet	17077
tax	17078
michigan	17079
animals	17080
leaders	17081
episodes	17082
birth	17083
clubs	17084
palace	17085
critical	17086
refused	17087
fair	17088
leg	17089
laughed	17090
returning	17091
surrounding	17092
participated	17093
formation	17094
lifted	17095
pointed	17096
connected	17097
rome	17098
medicine	17099
laid	17100
powers	17101
tall	17102
shared	17103
focused	17104
knowing	17105
yards	17106
entrance	17107
falls	17108
calling	17109
sources	17110
chosen	17111
beneath	17112
resources	17113
yard	17114
nominated	17115
silence	17116
defined	17117
gained	17118
thirty	17119
bodies	17120
adopted	17121
christmas	17122
widely	17123
register	17124
apart	17125
iran	17126
premier	17127
serves	17128
unknown	17129
parties	17130
generation	17131
continues	17132
fields	17133
brigade	17134
quiet	17135
teaching	17136
clothes	17137
impact	17138
weapons	17139
partner	17140
flat	17141
theater	17142
relations	17143
plants	17144
suffered	17145
begins	17146
seats	17147
armed	17148
models	17149
worth	17150
laws	17151
communities	17152
classes	17153
background	17154
knows	17155
thanks	17156
quarter	17157
reaching	17158
humans	17159
carry	17160
killing	17161
format	17162
setting	17163
architecture	17164
disease	17165
railroad	17166
possibly	17167
arthur	17168
thoughts	17169
doors	17170
density	17171
crowd	17172
illinois	17173
stomach	17174
tone	17175
unique	17176
reports	17177
anyway	17178
liberal	17179
vehicle	17180
thick	17181
dry	17182
drug	17183
faced	17184
largely	17185
facility	17186
theme	17187
holds	17188
creation	17189
strange	17190
colonel	17191
revolution	17192
politics	17193
turns	17194
silent	17195
rail	17196
relief	17197
independence	17198
combat	17199
shape	17200
determined	17201
sales	17202
learned	17203
4th	17204
finger	17205
providing	17206
heritage	17207
fiction	17208
situated	17209
designated	17210
allowing	17211
hosted	17212
sight	17213
interview	17214
estimated	17215
reduced	17216
toronto	17217
footballer	17218
keeping	17219
guys	17220
damn	17221
claim	17222
motion	17223
sixth	17224
stayed	17225
rear	17226
receive	17227
handed	17228
twelve	17229
dress	17230
audience	17231
granted	17232
brazil	17233
spirit	17234
##ated	17235
noticed	17236
olympic	17237
representative	17238
tight	17239
trouble	17240
reviews	17241
drink	17242
vampire	17243
missing	17244
roles	17245
ranked	17246
newly	17247
household	17248
finals	17249
critics	17250
phase	17251
massachusetts	17252
pilot	17253
unlike	17254
philadelphia	17255
bright	17256
guns	17257
crown	17258
organizations	17259
roof	17260
respectively	17261
clearly	17262
tongue	17263
marked	17264
circle	17265
bronze	17266
expanded	17267
sexual	17268
supply	17269
yourself	17270
inspired	17271
labour	17272
reference	17273
draft	17274
connection	17275
reasons	17276
driving	17277
jesus	17278
cells	17279
entry	17280
neither	17281
trail	17282
claims	17283
atlantic	17284
orders	17285
labor	17286
nose	17287
afraid	17288
identified	17289
intelligence	17290
calls	17291
cancer	17292
attacked	17293
passing	17294
positions	17295
imperial	17296
grey	17297
swedish	17298
avoid	17299
extra	17300
uncle	17301
covers	17302
allows	17303
surprise	17304
materials	17305
fame	17306
hunter	17307
citizens	17308
figures	17309
environmental	17310
confirmed	17311
shit	17312
titles	17313
performing	17314
difference	17315
acts	17316
attacks	17317
existing	17318
votes	17319
opportunity	17320
nor	17321
entirely	17322
trains	17323
opposite	17324
pakistan	17325
develop	17326
resulted	17327
representatives	17328
actions	17329
reality	17330
pressed	17331
barely	17332
conversation	17333
faculty	17334
northwest	17335
ends	17336
documentary	17337
nuclear	17338
stock	17339
sets	17340
eat	17341
alternative	17342
resulting	17343
creating	17344
surprised	17345
cemetery	17346
drop	17347
finding	17348
cricket	17349
streets	17350
tradition	17351
ride	17352
ear	17353
explained	17354
composer	17355
injury	17356
apartment	17357
municipal	17358
educational	17359
occupied	17360
netherlands	17361
clean	17362
billion	17363
constitution	17364
learn	17365
maximum	17366
classical	17367
lose	17368
opposition	17369
ontario	17370
hills	17371
rolled	17372
ending	17373
drawn	17374
permanent	17375
lewis	17376
sites	17377
chamber	17378
scoring	17379
height	17380
lyrics	17381
staring	17382
officials	17383
snow	17384
oldest	17385
qualified	17386
interior	17387
apparently	17388
succeeded	17389
thousand	17390
dinner	17391
lights	17392
existence	17393
heavily	17394
greatest	17395
conservative	17396
send	17397
bowl	17398
catch	17399
duty	17400
speech	17401
authorities	17402
princess	17403
performances	17404
versions	17405
shall	17406
graduate	17407
pictures	17408
effective	17409
remembered	17410
poetry	17411
desk	17412
crossed	17413
starring	17414
starts	17415
passenger	17416
sharp	17417
acres	17418
ass	17419
weather	17420
falling	17421
rank	17422
fund	17423
supporting	17424
adult	17425
heads	17426
southeast	17427
lane	17428
condition	17429
transfer	17430
prevent	17431
regions	17432
earl	17433
federation	17434
relatively	17435
answered	17436
besides	17437
obtained	17438
portion	17439
reaction	17440
liked	17441
peak	17442
counter	17443
religion	17444
chain	17445
rare	17446
convention	17447
aid	17448
lie	17449
vehicles	17450
perform	17451
squad	17452
wonder	17453
lying	17454
crazy	17455
sword	17456
attempted	17457
centuries	17458
weren	17459
philosophy	17460
interested	17461
sweden	17462
wolf	17463
frequently	17464
abandoned	17465
literary	17466
alliance	17467
task	17468
entitled	17469
threw	17470
promotion	17471
tiny	17472
soccer	17473
visited	17474
achieved	17475
defence	17476
internal	17477
persian	17478
methods	17479
arrested	17480
otherwise	17481
programming	17482
villages	17483
elementary	17484
districts	17485
rooms	17486
criminal	17487
conflict	17488
worry	17489
trained	17490
attempts	17491
waited	17492
signal	17493
truck	17494
subsequent	17495
programme	17496
communist	17497
faith	17498
sector	17499
carrying	17500
laugh	17501
controlled	17502
korean	17503
showing	17504
origin	17505
fuel	17506
evil	17507
brief	17508
identity	17509
darkness	17510
pool	17511
missed	17512
publication	17513
wings	17514
invited	17515
briefly	17516
standards	17517
kissed	17518
ideas	17519
climate	17520
causing	17521
walter	17522
worse	17523
albert	17524
winners	17525
desire	17526
aged	17527
northeast	17528
dangerous	17529
gate	17530
doubt	17531
wooden	17532
poet	17533
rising	17534
funding	17535
communications	17536
communication	17537
violence	17538
copies	17539
prepared	17540
investigation	17541
skills	17542
pulling	17543
containing	17544
ultimately	17545
offices	17546
singing	17547
understanding	17548
tomorrow	17549
christ	17550
ward	17551
pope	17552
stands	17553
5th	17554
flow	17555
studios	17556
aired	17557
commissioned	17558
contained	17559
exist	17560
americans	17561
wrestling	17562
approved	17563
kid	17564
employed	17565
respect	17566
suit	17567
asking	17568
increasing	17569
frame	17570
angry	17571
selling	17572
1950s	17573
thin	17574
finds	17575
temperature	17576
statement	17577
ali	17578
explain	17579
inhabitants	17580
towns	17581
extensive	17582
narrow	17583
flowers	17584
promise	17585
somewhere	17586
closely	17587
bureau	17588
cape	17589
weekly	17590
presidential	17591
legislative	17592
launch	17593
founding	17594
artillery	17595
strike	17596
un	17597
institutions	17598
roll	17599
writers	17600
landing	17601
chose	17602
anymore	17603
attorney	17604
billboard	17605
receiving	17606
agricultural	17607
breaking	17608
sought	17609
dave	17610
admitted	17611
lands	17612
mexican	17613
##bury	17614
specifically	17615
hole	17616
moscow	17617
roads	17618
accident	17619
proved	17620
struck	17621
guards	17622
stuff	17623
slid	17624
expansion	17625
melbourne	17626
opposed	17627
sub	17628
southwest	17629
architect	17630
failure	17631
plane	17632
tank	17633
listen	17634
regarding	17635
wet	17636
introduction	17637
metropolitan	17638
fighter	17639
inch	17640
grown	17641
gene	17642
anger	17643
fixed	17644
khan	17645
domestic	17646
worldwide	17647
chapel	17648
mill	17649
functions	17650
examples	17651
developing	17652
turkey	17653
hits	17654
pocket	17655
antonio	17656
papers	17657
grow	17658
unless	17659
circuit	17660
18th	17661
concerned	17662
attached	17663
journalist	17664
selection	17665
journey	17666
converted	17667
provincial	17668
painted	17669
hearing	17670
aren	17671
bands	17672
negative	17673
aside	17674
wondered	17675
knight	17676
lap	17677
noise	17678
billy	17679
shooting	17680
bedroom	17681
priest	17682
resistance	17683
motor	17684
homes	17685
sounded	17686
giant	17687
scenes	17688
equal	17689
comic	17690
patients	17691
hidden	17692
solid	17693
actual	17694
bringing	17695
afternoon	17696
touched	17697
funds	17698
consisted	17699
marie	17700
canal	17701
treaty	17702
turkish	17703
recognition	17704
residence	17705
cathedral	17706
broad	17707
knees	17708
incident	17709
shaped	17710
fired	17711
norwegian	17712
handle	17713
cheek	17714
contest	17715
represent	17716
representing	17717
birds	17718
advantage	17719
emergency	17720
wrapped	17721
drawing	17722
notice	17723
broadcasting	17724
somehow	17725
bachelor	17726
seventh	17727
collected	17728
registered	17729
establishment	17730
assumed	17731
chemical	17732
personnel	17733
retirement	17734
portuguese	17735
wore	17736
tied	17737
device	17738
threat	17739
progress	17740
advance	17741
##ised	17742
banks	17743
hired	17744
manchester	17745
nfl	17746
teachers	17747
structures	17748
forever	17749
tennis	17750
helping	17751
saturday	17752
applications	17753
junction	17754
incorporated	17755
neighborhood	17756
dressed	17757
ceremony	17758
influenced	17759
hers	17760
stairs	17761
decades	17762
inner	17763
kansas	17764
hung	17765
hoped	17766
gain	17767
scheduled	17768
downtown	17769
engaged	17770
austria	17771
clock	17772
norway	17773
certainly	17774
pale	17775
victor	17776
employees	17777
plate	17778
putting	17779
surrounded	17780
##ists	17781
finishing	17782
blues	17783
tropical	17784
minnesota	17785
consider	17786
philippines	17787
accept	17788
retrieved	17789
concern	17790
anderson	17791
properties	17792
institution	17793
gordon	17794
successfully	17795
vietnam	17796
backing	17797
outstanding	17798
muslim	17799
crossing	17800
folk	17801
producing	17802
usual	17803
demand	17804
occurs	17805
observed	17806
lawyer	17807
educated	17808
pleasure	17809
budget	17810
items	17811
quietly	17812
colorado	17813
philip	17814
typical	17815
##worth	17816
derived	17817
survived	17818
asks	17819
mental	17820
jake	17821
jews	17822
distinguished	17823
sri	17824
extremely	17825
athletic	17826
loud	17827
thousands	17828
worried	17829
transportation	17830
horses	17831
weapon	17832
arena	17833
importance	17834
users	17835
objects	17836
contributed	17837
douglas	17838
aware	17839
senator	17840
johnny	17841
sisters	17842
engines	17843
flag	17844
investment	17845
samuel	17846
shock	17847
capable	17848
clark	17849
row	17850
wheel	17851
refers	17852
familiar	17853
biggest	17854
wins	17855
hate	17856
maintained	17857
drove	17858
hamilton	17859
expressed	17860
injured	17861
underground	17862
churches	17863
wars	17864
tunnel	17865
passes	17866
stupid	17867
agriculture	17868
softly	17869
cabinet	17870
regarded	17871
joining	17872
indiana	17873
dates	17874
spend	17875
behavior	17876
woods	17877
protein	17878
gently	17879
chase	17880
morgan	17881
mention	17882
burning	17883
wake	17884
combination	17885
occur	17886
mirror	17887
leads	17888
indeed	17889
impossible	17890
paintings	17891
covering	17892
soldier	17893
locations	17894
attendance	17895
sell	17896
historian	17897
wisconsin	17898
invasion	17899
argued	17900
painter	17901
diego	17902
changing	17903
egypt	17904
experienced	17905
inches	17906
missouri	17907
grounds	17908
spoken	17909
switzerland	17910
reform	17911
rolling	17912
forget	17913
massive	17914
resigned	17915
burned	17916
tennessee	17917
locked	17918
values	17919
improved	17920
wounded	17921
universe	17922
sick	17923
dating	17924
facing	17925
purchase	17926
##pur	17927
moments	17928
merged	17929
anniversary	17930
coal	17931
brick	17932
understood	17933
causes	17934
dynasty	17935
queensland	17936
establish	17937
stores	17938
crisis	17939
promote	17940
hoping	17941
cards	17942
referee	17943
extension	17944
raise	17945
arizona	17946
improve	17947
colonial	17948
formal	17949
charged	17950
palm	17951
hide	17952
rescue	17953
faces	17954
feelings	17955
candidates	17956
juan	17957
6th	17958
courses	17959
weekend	17960
luke	17961
cash	17962
fallen	17963
delivered	17964
affected	17965
installed	17966
carefully	17967
tries	17968
hollywood	17969
costs	17970
lincoln	17971
responsibility	17972
shore	17973
proper	17974
normally	17975
maryland	17976
assistance	17977
constant	17978
offering	17979
friendly	17980
waters	17981
persons	17982
realize	17983
contain	17984
trophy	17985
partnership	17986
factor	17987
musicians	17988
bound	17989
oregon	17990
indicated	17991
houston	17992
medium	17993
consisting	17994
somewhat	17995
cycle	17996
beer	17997
moore	17998
frederick	17999
gotten	18000
worst	18001
weak	18002
approached	18003
arranged	18004
chin	18005
loan	18006
bond	18007
fifteen	18008
pattern	18009
disappeared	18010
translated	18011
##zed	18012
lip	18013
arab	18014
capture	18015
interests	18016
insurance	18017
shifted	18018
cave	18019
prix	18020
warning	18021
sections	18022
courts	18023
coat	18024
plot	18025
smell	18026
golf	18027
favorite	18028
maintain	18029
knife	18030
voted	18031
degrees	18032
finance	18033
quebec	18034
opinion	18035
translation	18036
manner	18037
ruled	18038
operate	18039
productions	18040
choose	18041
musician	18042
confused	18043
tired	18044
separated	18045
stream	18046
techniques	18047
committed	18048
attend	18049
ranking	18050
kings	18051
throw	18052
passengers	18053
measure	18054
horror	18055
mining	18056
sand	18057
danger	18058
salt	18059
calm	18060
decade	18061
dam	18062
require	18063
runner	18064
rush	18065
associate	18066
greece	18067
rivers	18068
consecutive	18069
matthew	18070
##ski	18071
sighed	18072
sq	18073
documents	18074
closing	18075
tie	18076
accused	18077
islamic	18078
distributed	18079
directors	18080
organisation	18081
7th	18082
breathing	18083
mad	18084
lit	18085
arrival	18086
concrete	18087
taste	18088
composition	18089
shaking	18090
faster	18091
amateur	18092
adjacent	18093
stating	18094
twin	18095
flew	18096
publications	18097
obviously	18098
ridge	18099
storage	18100
carl	18101
pages	18102
concluded	18103
desert	18104
driven	18105
universities	18106
ages	18107
terminal	18108
sequence	18109
borough	18110
constituency	18111
cousin	18112
economics	18113
dreams	18114
margaret	18115
notably	18116
reduce	18117
montreal	18118
17th	18119
ears	18120
saved	18121
vocal	18122
riding	18123
roughly	18124
threatened	18125
meters	18126
meanwhile	18127
landed	18128
compete	18129
repeated	18130
grass	18131
czech	18132
regularly	18133
charges	18134
sudden	18135
appeal	18136
solution	18137
describes	18138
classification	18139
glad	18140
parking	18141
belt	18142
physics	18143
rachel	18144
hungarian	18145
participate	18146
expedition	18147
damaged	18148
gift	18149
childhood	18150
fifty	18151
mathematics	18152
jumped	18153
letting	18154
defensive	18155
mph	18156
testing	18157
hundreds	18158
shoot	18159
owners	18160
matters	18161
smoke	18162
israeli	18163
kentucky	18164
dancing	18165
mounted	18166
grandfather	18167
designs	18168
profit	18169
argentina	18170
truly	18171
lawrence	18172
cole	18173
begun	18174
detroit	18175
willing	18176
branches	18177
smiling	18178
decide	18179
miami	18180
enjoyed	18181
recordings	18182
##dale	18183
poverty	18184
ethnic	18185
arabic	18186
accompanied	18187
fishing	18188
determine	18189
residential	18190
acid	18191
returns	18192
starred	18193
strategy	18194
forty	18195
businesses	18196
equivalent	18197
commonwealth	18198
distinct	18199
ill	18200
seriously	18201
##ped	18202
harris	18203
replace	18204
rio	18205
imagine	18206
formula	18207
ensure	18208
additionally	18209
scheme	18210
conservation	18211
occasionally	18212
purposes	18213
feels	18214
favor	18215
1930s	18216
contrast	18217
hanging	18218
hunt	18219
movies	18220
instruments	18221
victims	18222
danish	18223
christopher	18224
busy	18225
demon	18226
sugar	18227
earliest	18228
colony	18229
studying	18230
duties	18231
belgium	18232
slipped	18233
carter	18234
visible	18235
stages	18236
iraq	18237
commune	18238
forming	18239
continuing	18240
talked	18241
counties	18242
legend	18243
bathroom	18244
option	18245
tail	18246
clay	18247
daughters	18248
afterwards	18249
severe	18250
jaw	18251
visitors	18252
devices	18253
aviation	18254
entering	18255
subjects	18256
temporary	18257
swimming	18258
forth	18259
smooth	18260
bush	18261
operates	18262
rocks	18263
movements	18264
signs	18265
eddie	18266
voices	18267
honorary	18268
memories	18269
dallas	18270
measures	18271
racial	18272
promised	18273
harvard	18274
16th	18275
parliamentary	18276
indicate	18277
benefit	18278
flesh	18279
dublin	18280
louisiana	18281
patient	18282
sleeping	18283
membership	18284
coastal	18285
medieval	18286
wanting	18287
element	18288
scholars	18289
rice	18290
limit	18291
survive	18292
makeup	18293
rating	18294
definitely	18295
collaboration	18296
obvious	18297
baron	18298
birthday	18299
linked	18300
soil	18301
diocese	18302
ncaa	18303
offensive	18304
shouldn	18305
waist	18306
plain	18307
ross	18308
organ	18309
resolution	18310
manufacturing	18311
adding	18312
relative	18313
kennedy	18314
whilst	18315
moth	18316
gardens	18317
crash	18318
heading	18319
partners	18320
credited	18321
carlos	18322
moves	18323
cable	18324
marshall	18325
depending	18326
bottle	18327
represents	18328
rejected	18329
responded	18330
existed	18331
denmark	18332
##ating	18333
treated	18334
graham	18335
routes	18336
talent	18337
commissioner	18338
drugs	18339
secure	18340
tests	18341
reign	18342
restored	18343
photography	18344
contributions	18345
oklahoma	18346
designer	18347
disc	18348
grin	18349
seattle	18350
robin	18351
paused	18352
atlanta	18353
unusual	18354
praised	18355
las	18356
laughing	18357
satellite	18358
hungary	18359
visiting	18360
interesting	18361
factors	18362
deck	18363
poems	18364
norman	18365
##water	18366
stuck	18367
speaker	18368
rifle	18369
premiered	18370
comics	18371
actors	18372
reputation	18373
eliminated	18374
8th	18375
ceiling	18376
prisoners	18377
leather	18378
austin	18379
mississippi	18380
rapidly	18381
admiral	18382
parallel	18383
charlotte	18384
guilty	18385
tools	18386
gender	18387
divisions	18388
fruit	18389
laboratory	18390
nelson	18391
marry	18392
rapid	18393
aunt	18394
tribe	18395
requirements	18396
aspects	18397
suicide	18398
amongst	18399
adams	18400
bone	18401
ukraine	18402
kick	18403
sees	18404
edinburgh	18405
clothing	18406
column	18407
rough	18408
gods	18409
hunting	18410
broadway	18411
gathered	18412
concerns	18413
spending	18414
ty	18415
12th	18416
snapped	18417
requires	18418
solar	18419
bones	18420
cavalry	18421
iowa	18422
drinking	18423
waste	18424
franklin	18425
charity	18426
thompson	18427
stewart	18428
tip	18429
landscape	18430
enjoy	18431
singh	18432
poem	18433
listening	18434
eighth	18435
fred	18436
differences	18437
adapted	18438
bomb	18439
ukrainian	18440
surgery	18441
corporate	18442
masters	18443
anywhere	18444
waves	18445
odd	18446
portugal	18447
orleans	18448
dick	18449
debate	18450
kent	18451
eating	18452
puerto	18453
cleared	18454
expect	18455
cinema	18456
guitarist	18457
blocks	18458
electrical	18459
agree	18460
involving	18461
depth	18462
dying	18463
panel	18464
struggle	18465
peninsula	18466
adults	18467
novels	18468
emerged	18469
vienna	18470
debuted	18471
shoes	18472
tamil	18473
songwriter	18474
meets	18475
prove	18476
beating	18477
instance	18478
heaven	18479
scared	18480
sending	18481
marks	18482
artistic	18483
passage	18484
superior	18485
significantly	18486
retained	18487
##izing	18488
technique	18489
cheeks	18490
warren	18491
maintenance	18492
destroy	18493
extreme	18494
allied	18495
appearing	18496
fill	18497
advice	18498
alabama	18499
qualifying	18500
policies	18501
cleveland	18502
hat	18503
battery	18504
authors	18505
10th	18506
soundtrack	18507
acted	18508
dated	18509
lb	18510
glance	18511
equipped	18512
coalition	18513
funny	18514
outer	18515
ambassador	18516
roy	18517
possibility	18518
couples	18519
campbell	18520
loose	18521
ethan	18522
supplies	18523
gonna	18524
monster	18525
shake	18526
agents	18527
frequency	18528
springs	18529
dogs	18530
practices	18531
gang	18532
plastic	18533
easier	18534
suggests	18535
gulf	18536
blade	18537
exposed	18538
colors	18539
industries	18540
markets	18541
nervous	18542
electoral	18543
charts	18544
legislation	18545
ownership	18546
##idae	18547
appointment	18548
shield	18549
assault	18550
socialist	18551
abbey	18552
monument	18553
license	18554
throne	18555
employment	18556
replacement	18557
charter	18558
suffering	18559
accounts	18560
oak	18561
connecticut	18562
strongly	18563
wright	18564
colour	18565
13th	18566
context	18567
welsh	18568
networks	18569
voiced	18570
gabriel	18571
forehead	18572
manage	18573
schedule	18574
totally	18575
remix	18576
forests	18577
occupation	18578
print	18579
nicholas	18580
brazilian	18581
strategic	18582
vampires	18583
engineers	18584
roots	18585
seek	18586
correct	18587
instrumental	18588
und	18589
alfred	18590
backed	18591
stanley	18592
robinson	18593
traveled	18594
wayne	18595
austrian	18596
achieve	18597
exit	18598
rates	18599
strip	18600
whereas	18601
sing	18602
deeply	18603
adventure	18604
bobby	18605
jamie	18606
careful	18607
components	18608
cap	18609
useful	18610
personality	18611
knee	18612
pushing	18613
hosts	18614
protest	18615
ottoman	18616
symphony	18617
boundary	18618
processes	18619
considering	18620
considerable	18621
tons	18622
cooper	18623
trading	18624
conduct	18625
illegal	18626
revolutionary	18627
definition	18628
harder	18629
jacob	18630
circumstances	18631
destruction	18632
popularity	18633
grip	18634
classified	18635
liverpool	18636
baltimore	18637
flows	18638
seeking	18639
honour	18640
approval	18641
mechanical	18642
till	18643
happening	18644
statue	18645
critic	18646
increasingly	18647
immediate	18648
describe	18649
commerce	18650
stare	18651
indonesia	18652
meat	18653
rounds	18654
boats	18655
baker	18656
orthodox	18657
depression	18658
formally	18659
worn	18660
naked	18661
muttered	18662
sentence	18663
11th	18664
document	18665
criticism	18666
wished	18667
vessel	18668
spiritual	18669
bent	18670
virgin	18671
minimum	18672
murray	18673
lunch	18674
danny	18675
printed	18676
compilation	18677
keyboards	18678
blow	18679
belonged	18680
raising	18681
cutting	18682
pittsburgh	18683
9th	18684
shadows	18685
hated	18686
indigenous	18687
jon	18688
15th	18689
barry	18690
scholar	18691
oliver	18692
stick	18693
susan	18694
meetings	18695
attracted	18696
spell	18697
romantic	18698
ye	18699
demanded	18700
customers	18701
logan	18702
revival	18703
keys	18704
modified	18705
commanded	18706
jeans	18707
upset	18708
phil	18709
detective	18710
hiding	18711
resident	18712
##bly	18713
experiences	18714
diamond	18715
defeating	18716
coverage	18717
lucas	18718
external	18719
parks	18720
franchise	18721
helen	18722
bible	18723
successor	18724
percussion	18725
celebrated	18726
lift	18727
clan	18728
romania	18729
##ied	18730
mills	18731
nobody	18732
achievement	18733
shrugged	18734
fault	18735
rhythm	18736
initiative	18737
breakfast	18738
carbon	18739
lasted	18740
violent	18741
wound	18742
killer	18743
gradually	18744
filmed	18745
processing	18746
remove	18747
criticized	18748
guests	18749
sang	18750
chemistry	18751
legislature	18752
##bridge	18753
uniform	18754
escaped	18755
integrated	18756
proposal	18757
purple	18758
denied	18759
liquid	18760
influential	18761
morris	18762
nights	18763
stones	18764
intense	18765
experimental	18766
twisted	18767
pace	18768
nazi	18769
mitchell	18770
ny	18771
blind	18772
reporter	18773
newspapers	18774
14th	18775
centers	18776
burn	18777
basin	18778
forgotten	18779
surviving	18780
filed	18781
collections	18782
monastery	18783
losses	18784
manual	18785
couch	18786
description	18787
appropriate	18788
merely	18789
missions	18790
sebastian	18791
restoration	18792
replacing	18793
triple	18794
elder	18795
julia	18796
warriors	18797
benjamin	18798
julian	18799
convinced	18800
stronger	18801
amazing	18802
declined	18803
versus	18804
merchant	18805
happens	18806
output	18807
finland	18808
bare	18809
barbara	18810
absence	18811
ignored	18812
dawn	18813
injuries	18814
producers	18815
luis	18816
##ities	18817
kw	18818
admit	18819
expensive	18820
electricity	18821
exception	18822
symbol	18823
ladies	18824
shower	18825
sheriff	18826
characteristics	18827
##je	18828
aimed	18829
button	18830
ratio	18831
effectively	18832
summit	18833
angle	18834
jury	18835
bears	18836
foster	18837
vessels	18838
pants	18839
executed	18840
evans	18841
dozen	18842
advertising	18843
kicked	18844
patrol	18845
competitions	18846
lifetime	18847
principles	18848
athletics	18849
birmingham	18850
sponsored	18851
rob	18852
nomination	18853
acoustic	18854
creature	18855
longest	18856
credits	18857
harbor	18858
dust	18859
josh	18860
territories	18861
milk	18862
infrastructure	18863
completion	18864
thailand	18865
indians	18866
leon	18867
archbishop	18868
assist	18869
pitch	18870
blake	18871
arrangement	18872
girlfriend	18873
serbian	18874
operational	18875
hence	18876
sad	18877
scent	18878
fur	18879
sessions	18880
refer	18881
rarely	18882
exists	18883
1892	18884
scientists	18885
dirty	18886
penalty	18887
burst	18888
portrait	18889
seed	18890
pole	18891
limits	18892
rival	18893
stable	18894
grave	18895
constitutional	18896
alcohol	18897
arrest	18898
flower	18899
mystery	18900
devil	18901
architectural	18902
relationships	18903
greatly	18904
habitat	18905
##istic	18906
larry	18907
progressive	18908
remote	18909
cotton	18910
preserved	18911
reaches	18912
cited	18913
vast	18914
scholarship	18915
decisions	18916
teach	18917
editions	18918
knocked	18919
eve	18920
searching	18921
partly	18922
participation	18923
animated	18924
fate	18925
excellent	18926
alternate	18927
saints	18928
youngest	18929
climbed	18930
suggest	18931
discussion	18932
staying	18933
choir	18934
lakes	18935
jacket	18936
revenue	18937
nevertheless	18938
peaked	18939
instrument	18940
wondering	18941
annually	18942
managing	18943
neil	18944
1891	18945
signing	18946
terry	18947
apply	18948
clinical	18949
brooklyn	18950
aim	18951
catherine	18952
fuck	18953
farmers	18954
figured	18955
ninth	18956
pride	18957
hugh	18958
ordinary	18959
involvement	18960
comfortable	18961
shouted	18962
encouraged	18963
representation	18964
sharing	18965
panic	18966
exact	18967
cargo	18968
competing	18969
fat	18970
cried	18971
1920s	18972
occasions	18973
cabin	18974
borders	18975
utah	18976
marcus	18977
##isation	18978
badly	18979
muscles	18980
victorian	18981
transition	18982
warner	18983
bet	18984
permission	18985
slave	18986
terrible	18987
similarly	18988
shares	18989
seth	18990
uefa	18991
possession	18992
medals	18993
benefits	18994
colleges	18995
lowered	18996
perfectly	18997
transit	18998
##kar	18999
publisher	19000
##ened	19001
harrison	19002
deaths	19003
elevation	19004
asleep	19005
machines	19006
sigh	19007
ash	19008
hardly	19009
argument	19010
occasion	19011
parent	19012
decline	19013
contribution	19014
concentration	19015
opportunities	19016
hispanic	19017
guardian	19018
extent	19019
emotions	19020
hips	19021
mason	19022
volumes	19023
bloody	19024
controversy	19025
diameter	19026
steady	19027
mistake	19028
phoenix	19029
identify	19030
violin	19031
departure	19032
richmond	19033
spin	19034
funeral	19035
enemies	19036
1864	19037
literally	19038
connor	19039
random	19040
sergeant	19041
grab	19042
confusion	19043
1865	19044
transmission	19045
informed	19046
leaning	19047
sacred	19048
suspended	19049
thinks	19050
gates	19051
portland	19052
luck	19053
agencies	19054
yours	19055
hull	19056
expert	19057
muscle	19058
layer	19059
practical	19060
sculpture	19061
jerusalem	19062
latest	19063
lloyd	19064
statistics	19065
deeper	19066
recommended	19067
warrior	19068
arkansas	19069
mess	19070
supports	19071
greg	19072
eagle	19073
recovered	19074
rated	19075
concerts	19076
rushed	19077
stops	19078
eggs	19079
premiere	19080
keith	19081
delhi	19082
turner	19083
pit	19084
affair	19085
belief	19086
paint	19087
##zing	19088
victim	19089
withdrew	19090
bonus	19091
styles	19092
fled	19093
glasgow	19094
technologies	19095
funded	19096
adaptation	19097
portrayed	19098
cooperation	19099
supporters	19100
judges	19101
bernard	19102
hallway	19103
ralph	19104
graduating	19105
controversial	19106
distant	19107
continental	19108
spider	19109
bite	19110
recognize	19111
intention	19112
mixing	19113
egyptian	19114
bow	19115
tourism	19116
suppose	19117
claiming	19118
dominated	19119
participants	19120
nurse	19121
partially	19122
tape	19123
psychology	19124
essential	19125
touring	19126
duo	19127
voting	19128
civilian	19129
emotional	19130
channels	19131
apparent	19132
hebrew	19133
1887	19134
tommy	19135
carrier	19136
intersection	19137
beast	19138
hudson	19139
bench	19140
discuss	19141
costa	19142
##ered	19143
detailed	19144
behalf	19145
drivers	19146
unfortunately	19147
obtain	19148
rocky	19149
##dae	19150
siege	19151
friendship	19152
1861	19153
hang	19154
governments	19155
collins	19156
respond	19157
wildlife	19158
preferred	19159
operator	19160
laura	19161
pregnant	19162
videos	19163
dennis	19164
suspected	19165
boots	19166
instantly	19167
weird	19168
automatic	19169
businessman	19170
alleged	19171
placing	19172
throwing	19173
mood	19174
1862	19175
perry	19176
venue	19177
jet	19178
remainder	19179
passion	19180
biological	19181
boyfriend	19182
1863	19183
dirt	19184
buffalo	19185
ron	19186
segment	19187
abuse	19188
genre	19189
thrown	19190
stroke	19191
colored	19192
stress	19193
exercise	19194
displayed	19195
struggled	19196
abroad	19197
dramatic	19198
wonderful	19199
thereafter	19200
madrid	19201
component	19202
widespread	19203
##sed	19204
tale	19205
citizen	19206
todd	19207
vancouver	19208
overseas	19209
forcing	19210
crying	19211
descent	19212
discussed	19213
substantial	19214
ranks	19215
regime	19216
provinces	19217
drum	19218
zane	19219
tribes	19220
proof	19221
researchers	19222
volunteer	19223
manor	19224
silk	19225
milan	19226
donated	19227
allies	19228
venture	19229
principle	19230
delivery	19231
enterprise	19232
bars	19233
traditionally	19234
witch	19235
reminded	19236
copper	19237
pete	19238
inter	19239
colin	19240
grinned	19241
elsewhere	19242
competitive	19243
frequent	19244
scream	19245
tension	19246
texts	19247
submarine	19248
finnish	19249
defending	19250
defend	19251
pat	19252
detail	19253
affiliated	19254
stuart	19255
themes	19256
periods	19257
tool	19258
belgian	19259
ruling	19260
crimes	19261
answers	19262
folded	19263
licensed	19264
demolished	19265
hans	19266
lucy	19267
1881	19268
lion	19269
traded	19270
photographs	19271
writes	19272
craig	19273
trials	19274
generated	19275
beth	19276
noble	19277
debt	19278
percentage	19279
yorkshire	19280
erected	19281
viewed	19282
grades	19283
confidence	19284
ceased	19285
islam	19286
telephone	19287
retail	19288
chile	19289
roberts	19290
sixteen	19291
commented	19292
hampshire	19293
innocent	19294
dual	19295
pounds	19296
checked	19297
regulations	19298
afghanistan	19299
sung	19300
rico	19301
liberty	19302
assets	19303
bigger	19304
options	19305
angels	19306
relegated	19307
tribute	19308
wells	19309
attending	19310
leaf	19311
romanian	19312
monthly	19313
patterns	19314
gmina	19315
madison	19316
hurricane	19317
rev	19318
##ians	19319
bristol	19320
elite	19321
valuable	19322
disaster	19323
democracy	19324
awareness	19325
germans	19326
freyja	19327
loop	19328
absolutely	19329
paying	19330
populations	19331
maine	19332
sole	19333
prayer	19334
spencer	19335
releases	19336
doorway	19337
bull	19338
lover	19339
midnight	19340
conclusion	19341
thirteen	19342
mediterranean	19343
nhl	19344
proud	19345
sample	19346
##hill	19347
drummer	19348
guinea	19349
murphy	19350
climb	19351
instant	19352
attributed	19353
horn	19354
ain	19355
railways	19356
autumn	19357
ferry	19358
opponent	19359
traveling	19360
secured	19361
corridor	19362
stretched	19363
tales	19364
sheet	19365
trinity	19366
cattle	19367
helps	19368
indicates	19369
manhattan	19370
murdered	19371
fitted	19372
gentle	19373
grandmother	19374
mines	19375
shocked	19376
vegas	19377
produces	19378
caribbean	19379
belong	19380
continuous	19381
desperate	19382
drunk	19383
historically	19384
trio	19385
waved	19386
raf	19387
dealing	19388
nathan	19389
murmured	19390
interrupted	19391
residing	19392
scientist	19393
pioneer	19394
harold	19395
aaron	19396
delta	19397
attempting	19398
minority	19399
believes	19400
chorus	19401
tend	19402
lots	19403
eyed	19404
indoor	19405
load	19406
shots	19407
updated	19408
jail	19409
concerning	19410
connecting	19411
wealth	19412
slaves	19413
arrive	19414
rangers	19415
sufficient	19416
rebuilt	19417
##wick	19418
cardinal	19419
flood	19420
muhammad	19421
whenever	19422
relation	19423
runners	19424
moral	19425
repair	19426
viewers	19427
arriving	19428
revenge	19429
punk	19430
assisted	19431
bath	19432
fairly	19433
breathe	19434
lists	19435
innings	19436
illustrated	19437
whisper	19438
nearest	19439
voters	19440
clinton	19441
ties	19442
ultimate	19443
screamed	19444
beijing	19445
lions	19446
andre	19447
fictional	19448
gathering	19449
comfort	19450
radar	19451
suitable	19452
dismissed	19453
hms	19454
ban	19455
pine	19456
wrist	19457
atmosphere	19458
voivodeship	19459
bid	19460
timber	19461
##ned	19462
giants	19463
cameron	19464
recovery	19465
uss	19466
identical	19467
categories	19468
switched	19469
serbia	19470
laughter	19471
noah	19472
ensemble	19473
therapy	19474
peoples	19475
touching	19476
##off	19477
locally	19478
pearl	19479
platforms	19480
everywhere	19481
ballet	19482
tables	19483
lanka	19484
herbert	19485
outdoor	19486
toured	19487
derek	19488
1883	19489
spaces	19490
contested	19491
swept	19492
1878	19493
exclusive	19494
slight	19495
connections	19496
winds	19497
prisoner	19498
collective	19499
bangladesh	19500
tube	19501
publicly	19502
wealthy	19503
isolated	19504
insisted	19505
fortune	19506
ticket	19507
spotted	19508
reportedly	19509
animation	19510
enforcement	19511
tanks	19512
decides	19513
wider	19514
lowest	19515
owen	19516
nod	19517
hitting	19518
gregory	19519
furthermore	19520
magazines	19521
fighters	19522
solutions	19523
pointing	19524
requested	19525
peru	19526
reed	19527
chancellor	19528
knights	19529
mask	19530
worker	19531
eldest	19532
flames	19533
reduction	19534
volunteers	19535
reporting	19536
wire	19537
advisory	19538
endemic	19539
origins	19540
settlers	19541
pursue	19542
knock	19543
consumer	19544
1876	19545
eu	19546
compound	19547
creatures	19548
mansion	19549
sentenced	19550
ivan	19551
deployed	19552
guitars	19553
frowned	19554
involves	19555
mechanism	19556
kilometers	19557
perspective	19558
shops	19559
terminus	19560
duncan	19561
alien	19562
fist	19563
bridges	19564
##pers	19565
heroes	19566
derby	19567
swallowed	19568
patent	19569
sara	19570
illness	19571
characterized	19572
adventures	19573
slide	19574
hawaii	19575
jurisdiction	19576
organised	19577
adelaide	19578
walks	19579
biology	19580
rogers	19581
swing	19582
tightly	19583
boundaries	19584
prepare	19585
implementation	19586
stolen	19587
certified	19588
colombia	19589
edwards	19590
garage	19591
recalled	19592
rage	19593
harm	19594
nigeria	19595
breast	19596
furniture	19597
pupils	19598
settle	19599
cuba	19600
balls	19601
alaska	19602
21st	19603
linear	19604
thrust	19605
celebration	19606
latino	19607
genetic	19608
terror	19609
##ening	19610
lightning	19611
fee	19612
witness	19613
lodge	19614
establishing	19615
skull	19616
earning	19617
hood	19618
rebellion	19619
sporting	19620
warned	19621
missile	19622
devoted	19623
activist	19624
porch	19625
worship	19626
fourteen	19627
package	19628
decorated	19629
##shire	19630
housed	19631
chess	19632
sailed	19633
doctors	19634
oscar	19635
joan	19636
treat	19637
garcia	19638
harbour	19639
jeremy	19640
traditions	19641
dominant	19642
jacques	19643
##gon	19644
relocated	19645
1879	19646
amendment	19647
sized	19648
companion	19649
simultaneously	19650
volleyball	19651
spun	19652
acre	19653
increases	19654
stopping	19655
loves	19656
belongs	19657
affect	19658
drafted	19659
tossed	19660
scout	19661
battles	19662
1875	19663
filming	19664
shoved	19665
munich	19666
tenure	19667
vertical	19668
romance	19669
argue	19670
craft	19671
ranging	19672
opens	19673
honest	19674
tyler	19675
yesterday	19676
muslims	19677
reveal	19678
snake	19679
immigrants	19680
radical	19681
screaming	19682
speakers	19683
firing	19684
saving	19685
belonging	19686
ease	19687
lighting	19688
prefecture	19689
blame	19690
farmer	19691
hungry	19692
grows	19693
rubbed	19694
beam	19695
sur	19696
subsidiary	19697
armenian	19698
dropping	19699
conventional	19700
qualify	19701
spots	19702
sweat	19703
festivals	19704
immigration	19705
physician	19706
discover	19707
exposure	19708
sandy	19709
explanation	19710
isaac	19711
implemented	19712
##fish	19713
hart	19714
initiated	19715
stakes	19716
presents	19717
heights	19718
householder	19719
pleased	19720
tourist	19721
regardless	19722
slip	19723
closest	19724
surely	19725
sultan	19726
brings	19727
riley	19728
preparation	19729
aboard	19730
slammed	19731
baptist	19732
experiment	19733
ongoing	19734
interstate	19735
organic	19736
playoffs	19737
1877	19738
hindu	19739
tours	19740
tier	19741
plenty	19742
arrangements	19743
talks	19744
trapped	19745
excited	19746
sank	19747
athens	19748
1872	19749
denver	19750
welfare	19751
suburb	19752
athletes	19753
trick	19754
diverse	19755
belly	19756
exclusively	19757
yelled	19758
conversion	19759
1874	19760
internationally	19761
computers	19762
conductor	19763
abilities	19764
sensitive	19765
dispute	19766
measured	19767
globe	19768
rocket	19769
prices	19770
amsterdam	19771
flights	19772
tigers	19773
municipalities	19774
emotion	19775
references	19776
explains	19777
airlines	19778
manufactured	19779
archaeological	19780
1873	19781
interpretation	19782
devon	19783
##ites	19784
settlements	19785
kissing	19786
absolute	19787
improvement	19788
impressed	19789
barcelona	19790
sullivan	19791
jefferson	19792
towers	19793
jesse	19794
julie	19795
grandson	19796
gauge	19797
regard	19798
rings	19799
interviews	19800
trace	19801
raymond	19802
thumb	19803
departments	19804
burns	19805
serial	19806
bulgarian	19807
scores	19808
demonstrated	19809
1866	19810
kyle	19811
alberta	19812
underneath	19813
romanized	19814
relieved	19815
acquisition	19816
phrase	19817
cliff	19818
reveals	19819
cuts	19820
merger	19821
custom	19822
nee	19823
gilbert	19824
graduation	19825
assessment	19826
difficulty	19827
demands	19828
swung	19829
democrat	19830
commons	19831
1940s	19832
grove	19833
completing	19834
focuses	19835
sum	19836
substitute	19837
bearing	19838
stretch	19839
reception	19840
reflected	19841
essentially	19842
destination	19843
pairs	19844
##ched	19845
survival	19846
resource	19847
##bach	19848
promoting	19849
doubles	19850
messages	19851
tear	19852
##fully	19853
parade	19854
florence	19855
harvey	19856
incumbent	19857
partial	19858
pedro	19859
frozen	19860
procedure	19861
olivia	19862
controls	19863
shelter	19864
personally	19865
temperatures	19866
brisbane	19867
tested	19868
sits	19869
marble	19870
comprehensive	19871
oxygen	19872
leonard	19873
##kov	19874
inaugural	19875
iranian	19876
referring	19877
quarters	19878
attitude	19879
mainstream	19880
lined	19881
mars	19882
dakota	19883
norfolk	19884
unsuccessful	19885
explosion	19886
helicopter	19887
congressional	19888
##sing	19889
inspector	19890
bitch	19891
seal	19892
departed	19893
divine	19894
coaching	19895
examination	19896
punishment	19897
manufacturer	19898
sink	19899
columns	19900
unincorporated	19901
signals	19902
nevada	19903
squeezed	19904
dylan	19905
dining	19906
martial	19907
manuel	19908
eighteen	19909
elevator	19910
brushed	19911
plates	19912
ministers	19913
congregation	19914
slept	19915
specialized	19916
taxes	19917
restricted	19918
negotiations	19919
likes	19920
statistical	19921
arnold	19922
inspiration	19923
execution	19924
bold	19925
intermediate	19926
significance	19927
margin	19928
ruler	19929
wheels	19930
gothic	19931
intellectual	19932
dependent	19933
listened	19934
eligible	19935
buses	19936
widow	19937
syria	19938
earn	19939
cincinnati	19940
collapsed	19941
recipient	19942
secrets	19943
accessible	19944
philippine	19945
maritime	19946
goddess	19947
clerk	19948
surrender	19949
breaks	19950
playoff	19951
ideal	19952
beetle	19953
aspect	19954
soap	19955
regulation	19956
strings	19957
expand	19958
anglo	19959
shorter	19960
crosses	19961
retreat	19962
tough	19963
coins	19964
wallace	19965
directions	19966
pressing	19967
shipping	19968
locomotives	19969
comparison	19970
topics	19971
nephew	19972
distinction	19973
honors	19974
travelled	19975
sierra	19976
ibn	19977
fortress	19978
recognised	19979
carved	19980
1869	19981
clients	19982
intent	19983
coaches	19984
describing	19985
bread	19986
##ington	19987
beaten	19988
northwestern	19989
merit	19990
collapse	19991
challenges	19992
historians	19993
objective	19994
submitted	19995
virus	19996
attacking	19997
drake	19998
assume	19999
diseases	20000
stem	20001
leeds	20002
farming	20003
glasses	20004
visits	20005
nowhere	20006
fellowship	20007
relevant	20008
carries	20009
restaurants	20010
experiments	20011
constantly	20012
bases	20013
targets	20014
shah	20015
tenth	20016
opponents	20017
verse	20018
territorial	20019
writings	20020
corruption	20021
instruction	20022
inherited	20023
reverse	20024
emphasis	20025
employee	20026
arch	20027
keeps	20028
rabbi	20029
watson	20030
payment	20031
uh	20032
nancy	20033
##tre	20034
venice	20035
fastest	20036
sexy	20037
banned	20038
adrian	20039
properly	20040
ruth	20041
touchdown	20042
dollar	20043
boards	20044
metre	20045
circles	20046
edges	20047
favour	20048
travels	20049
liberation	20050
scattered	20051
firmly	20052
holland	20053
permitted	20054
diesel	20055
kenya	20056
den	20057
originated	20058
demons	20059
resumed	20060
dragged	20061
rider	20062
servant	20063
blinked	20064
extend	20065
torn	20066
##sey	20067
input	20068
meal	20069
everybody	20070
cylinder	20071
kinds	20072
camps	20073
bullet	20074
logic	20075
croatian	20076
evolved	20077
healthy	20078
fool	20079
wise	20080
preserve	20081
pradesh	20082
respective	20083
artificial	20084
gross	20085
corresponding	20086
convicted	20087
cage	20088
caroline	20089
dialogue	20090
##dor	20091
narrative	20092
stranger	20093
mario	20094
christianity	20095
failing	20096
trent	20097
commanding	20098
buddhist	20099
1848	20100
maurice	20101
focusing	20102
yale	20103
bike	20104
altitude	20105
mouse	20106
revised	20107
##sley	20108
veteran	20109
pulls	20110
theology	20111
crashed	20112
campaigns	20113
legion	20114
##ability	20115
drag	20116
excellence	20117
customer	20118
cancelled	20119
intensity	20120
excuse	20121
liga	20122
participating	20123
contributing	20124
printing	20125
##burn	20126
variable	20127
curious	20128
legacy	20129
renaissance	20130
symptoms	20131
binding	20132
vocalist	20133
dancer	20134
grammar	20135
gospel	20136
democrats	20137
enters	20138
diplomatic	20139
hitler	20140
clouds	20141
mathematical	20142
quit	20143
defended	20144
oriented	20145
##heim	20146
fundamental	20147
hardware	20148
impressive	20149
equally	20150
convince	20151
confederate	20152
guilt	20153
chuck	20154
sliding	20155
magnetic	20156
narrowed	20157
petersburg	20158
bulgaria	20159
otto	20160
phd	20161
skill	20162
hopes	20163
pitcher	20164
reservoir	20165
hearts	20166
automatically	20167
expecting	20168
mysterious	20169
bennett	20170
extensively	20171
imagined	20172
seeds	20173
monitor	20174
fix	20175
##ative	20176
journalism	20177
struggling	20178
signature	20179
ranch	20180
encounter	20181
photographer	20182
observation	20183
protests	20184
influences	20185
calendar	20186
cruz	20187
croatia	20188
locomotive	20189
hughes	20190
naturally	20191
shakespeare	20192
basement	20193
hook	20194
uncredited	20195
faded	20196
theories	20197
approaches	20198
dare	20199
phillips	20200
filling	20201
fury	20202
obama	20203
efficient	20204
arc	20205
deliver	20206
breeding	20207
inducted	20208
leagues	20209
efficiency	20210
axis	20211
montana	20212
eagles	20213
##ked	20214
supplied	20215
instructions	20216
karen	20217
picking	20218
indicating	20219
trap	20220
anchor	20221
practically	20222
christians	20223
tomb	20224
vary	20225
occasional	20226
electronics	20227
lords	20228
readers	20229
newcastle	20230
faint	20231
innovation	20232
collect	20233
situations	20234
engagement	20235
claude	20236
mixture	20237
##feld	20238
peer	20239
tissue	20240
lean	20241
floors	20242
architects	20243
reducing	20244
rope	20245
1859	20246
ottawa	20247
##har	20248
samples	20249
banking	20250
declaration	20251
proteins	20252
resignation	20253
francois	20254
saudi	20255
advocate	20256
exhibited	20257
armor	20258
twins	20259
divorce	20260
##ras	20261
abraham	20262
reviewed	20263
temporarily	20264
matrix	20265
physically	20266
pulse	20267
curled	20268
difficulties	20269
bengal	20270
usage	20271
##ban	20272
riders	20273
certificate	20274
holes	20275
warsaw	20276
distinctive	20277
mutual	20278
1857	20279
customs	20280
circular	20281
eugene	20282
removal	20283
loaded	20284
mere	20285
vulnerable	20286
depicted	20287
generations	20288
dame	20289
heir	20290
enormous	20291
lightly	20292
climbing	20293
pitched	20294
lessons	20295
pilots	20296
nepal	20297
preparing	20298
brad	20299
louise	20300
renowned	20301
liam	20302
##ably	20303
shaw	20304
brilliant	20305
bills	20306
##nik	20307
fucking	20308
mainland	20309
pleasant	20310
seized	20311
veterans	20312
jerked	20313
fail	20314
brush	20315
radiation	20316
stored	20317
warmth	20318
southeastern	20319
nate	20320
sin	20321
raced	20322
berkeley	20323
joke	20324
athlete	20325
designation	20326
trunk	20327
roland	20328
qualification	20329
heels	20330
artwork	20331
receives	20332
judicial	20333
reserves	20334
##bed	20335
woke	20336
installation	20337
abu	20338
floating	20339
fake	20340
lesser	20341
excitement	20342
interface	20343
concentrated	20344
addressed	20345
characteristic	20346
amanda	20347
saxophone	20348
monk	20349
releasing	20350
egg	20351
dies	20352
interaction	20353
defender	20354
outbreak	20355
glory	20356
loving	20357
sequel	20358
consciousness	20359
awake	20360
ski	20361
enrolled	20362
handling	20363
rookie	20364
brow	20365
somebody	20366
biography	20367
warfare	20368
amounts	20369
contracts	20370
presentation	20371
fabric	20372
dissolved	20373
challenged	20374
meter	20375
psychological	20376
elevated	20377
rally	20378
accurate	20379
##tha	20380
hospitals	20381
undergraduate	20382
specialist	20383
venezuela	20384
exhibit	20385
shed	20386
nursing	20387
protestant	20388
fluid	20389
structural	20390
footage	20391
jared	20392
consistent	20393
prey	20394
##ska	20395
succession	20396
reflect	20397
exile	20398
lebanon	20399
wiped	20400
suspect	20401
shanghai	20402
resting	20403
integration	20404
preservation	20405
marvel	20406
variant	20407
pirates	20408
sheep	20409
rounded	20410
capita	20411
sailing	20412
colonies	20413
manuscript	20414
deemed	20415
variations	20416
clarke	20417
functional	20418
emerging	20419
boxing	20420
relaxed	20421
curse	20422
azerbaijan	20423
heavyweight	20424
nickname	20425
editorial	20426
rang	20427
grid	20428
tightened	20429
earthquake	20430
flashed	20431
miguel	20432
rushing	20433
##ches	20434
improvements	20435
boxes	20436
brooks	20437
consumption	20438
molecular	20439
felix	20440
societies	20441
repeatedly	20442
variation	20443
aids	20444
civic	20445
graphics	20446
professionals	20447
realm	20448
autonomous	20449
receiver	20450
delayed	20451
workshop	20452
militia	20453
chairs	20454
canyon	20455
harsh	20456
extending	20457
lovely	20458
happiness	20459
##jan	20460
stake	20461
eyebrows	20462
embassy	20463
wellington	20464
hannah	20465
corners	20466
bishops	20467
swear	20468
cloth	20469
contents	20470
namely	20471
commenced	20472
1854	20473
stanford	20474
nashville	20475
courage	20476
graphic	20477
commitment	20478
garrison	20479
hamlet	20480
clearing	20481
rebels	20482
attraction	20483
literacy	20484
cooking	20485
ruins	20486
temples	20487
jenny	20488
humanity	20489
celebrate	20490
hasn	20491
freight	20492
sixty	20493
rebel	20494
bastard	20495
newton	20496
deer	20497
##ges	20498
##ching	20499
smiles	20500
delaware	20501
singers	20502
approaching	20503
assists	20504
flame	20505
boulevard	20506
barrel	20507
planted	20508
pursuit	20509
consequences	20510
shallow	20511
invitation	20512
rode	20513
depot	20514
ernest	20515
kane	20516
rod	20517
concepts	20518
preston	20519
topic	20520
chambers	20521
striking	20522
blast	20523
arrives	20524
descendants	20525
montgomery	20526
ranges	20527
worlds	20528
chaos	20529
praise	20530
fewer	20531
1855	20532
sanctuary	20533
mud	20534
programmes	20535
maintaining	20536
harper	20537
bore	20538
handsome	20539
closure	20540
tournaments	20541
nebraska	20542
linda	20543
facade	20544
puts	20545
satisfied	20546
argentine	20547
dale	20548
cork	20549
dome	20550
panama	20551
##yl	20552
1858	20553
tasks	20554
experts	20555
##ates	20556
feeding	20557
equation	20558
engage	20559
bryan	20560
um	20561
quartet	20562
disbanded	20563
sheffield	20564
blocked	20565
gasped	20566
delay	20567
kisses	20568
connects	20569
##non	20570
sts	20571
poured	20572
creator	20573
publishers	20574
guided	20575
ellis	20576
extinct	20577
hug	20578
gaining	20579
##ord	20580
complicated	20581
poll	20582
clenched	20583
investigate	20584
thereby	20585
quantum	20586
spine	20587
cdp	20588
humor	20589
kills	20590
administered	20591
semifinals	20592
encountered	20593
ignore	20594
commentary	20595
##maker	20596
bother	20597
roosevelt	20598
plains	20599
halfway	20600
flowing	20601
cultures	20602
crack	20603
imprisoned	20604
neighboring	20605
airline	20606
gather	20607
wolves	20608
marathon	20609
transformed	20610
cruise	20611
organisations	20612
punch	20613
exhibitions	20614
numbered	20615
alarm	20616
ratings	20617
daddy	20618
silently	20619
##stein	20620
queens	20621
colours	20622
impression	20623
guidance	20624
tactical	20625
##rat	20626
marshal	20627
della	20628
arrow	20629
rested	20630
feared	20631
tender	20632
owns	20633
bitter	20634
advisor	20635
escort	20636
##ides	20637
spare	20638
farms	20639
grants	20640
dragons	20641
encourage	20642
colleagues	20643
cameras	20644
sucked	20645
pile	20646
spirits	20647
prague	20648
statements	20649
suspension	20650
landmark	20651
fence	20652
torture	20653
recreation	20654
bags	20655
permanently	20656
survivors	20657
pond	20658
spy	20659
predecessor	20660
bombing	20661
coup	20662
protecting	20663
transformation	20664
glow	20665
##lands	20666
dug	20667
priests	20668
andrea	20669
feat	20670
barn	20671
jumping	20672
##ologist	20673
casualties	20674
stern	20675
auckland	20676
pipe	20677
serie	20678
revealing	20679
trevor	20680
mercy	20681
spectrum	20682
consist	20683
[...]
