_pad_	0
_bos_	1
_eos_	2
_unk_	3
_sep_	4
_cls_	5
_mask_	6
_mimixsp_	7
_unused_	8
_unused_	9
_unused_	10
_unused_	11
_unused_	12
_unused_	13
_unused_	14
_unused_	15
_unused_	16
_unused_	17
_unused_	18
_unused_	19
_unused_	20
_unused_	21
_unused_	22
_unused_	23
_unused_	24
_unused_	25
_title_	26
_kw_	27
_mimixnl_	28
_5lv_	29
_7lv_	30
_5jue_	31
_7jue_	32
_shi_	33
_ci_	34
_lian_	35
_ancient_	36
_other_	37
_content_	38
_xinyun_	39
_paraphrase_	40
_expansion_	41
_5yan_	42
_7yan_	43
_4yan_	44
_qu_	45
_poet_	46
_lyric_	47
_unused_	48
_unused_	49
_unused_	50
_unused_	51
_unused_	52
_unused_	53
_unused_	54
_unused_	55
_unused_	56
_unused_	57
_unused_	58
_unused_	59
_unused_	60
_unused_	61
_unused_	62
_male_	63
_female_	64
_en_	65
_zh_	66
_long_	67
_short_	68
_dec_	69
_int_	70
_imp_	71
_excl_	72
_happy_	73
_sad_	74
_surprise_	75
_fear_	76
_angry_	77
_neural_	78
_like_	79
_disgust_	80
_unused_	81
_unused_	82
_unused_	83
_unused_	84
_unused_	85
_unused_	86
_unused_	87
_unused_	88
_unused_	89
_unused_	90
_unused_	91
、	92
。	93
，	94
！	95
？	96
,	97
?	98
!	99
峥	100
这	101
功	102
力	103
自	104
己	105
很	106
严	107
肃	108
别	109
然	110
发	111
贝	112
尔	113
把	114
片	115
毁	116
觉	117
故	118
意	119
才	120
真	121
尴	122
尬	123
##0	124
潘	125
江	126
吗	127
首	128
推	129
郭	130
冬	131
临	132
部	133
来	134
春	135
晚	136
常	137
客	138
关	139
系	140
硬	141
虽	142
怎	143
么	144
但	145
好	146
像	147
强	148
吧	149
老	150
赵	151
们	152
个	153
候	154
台	155
词	156
内	157
心	158
啊	159
白	160
云	161
话	162
生	163
活	164
样	165
理	166
名	167
乐	168
里	169
杨	170
树	171
林	172
绝	173
分	174
辈	175
演	176
员	177
退	178
出	179
舞	180
几	181
乎	182
都	183
开	184
麻	185
花	186
跟	187
佳	188
算	189
可	190
佩	191
斯	192
朱	193
茂	194
啥	195
兴	196
趣	197
夏	198
洛	199
特	200
错	201
现	202
在	203
综	204
艺	205
节	206
目	207
做	208
##2	209
从	210
东	211
西	212
到	213
用	214
过	215
猛	216
奇	217
志	218
兵	219
贾	220
玲	221
些	222
秀	223
着	224
只	225
因	226
为	227
你	228
本	229
山	230
叔	231
和	232
何	233
合	234
气	235
息	236
浓	237
建	238
议	239
去	240
年	241
城	242
爱	243
表	244
基	245
靠	246
吼	247
两	248
相	249
声	250
:	251
蔡	252
明	253
每	254
次	255
拿	256
头	257
事	258
天	259
烦	260
恼	261
似	262
德	263
纲	264
屎	265
尿	266
屁	267
比	268
伟	269
光	270
正	271
玩	272
欣	273
赏	274
星	275
爷	276
原	277
找	278
需	279
红	280
上	281
升	282
尊	283
度	284
主	285
问	286
题	287
图	288
放	289
低	290
身	291
段	292
供	293
学	294
难	295
成	296
妹	297
子	298
惯	299
朋	300
友	301
交	302
定	303
兄	304
弟	305
俩	306
聊	307
加	308
太	309
留	310
给	311
微	312
信	313
缺	314
呗	315
富	316
冲	317
调	318
侃	319
虐	320
重	321
垃	322
圾	323
罕	324
见	325
估	326
计	327
离	328
步	329
漫	330
般	331
能	332
坚	333
持	334
久	335
挺	336
什	337
呀	338
普	339
通	340
日	341
思	342
杂	343
止	344
各	345
送	346
礼	347
物	348
女	349
宠	350
当	351
洗	352
袜	353
之	354
手	355
她	356
再	357
逼	358
直	359
接	360
滚	361
蛋	362
司	363
机	364
香	365
港	366
农	367
夫	368
恶	369
认	370
识	371
无	372
法	373
回	374
答	375
《	376
潜	377
狙	378
击	379
》	380
黄	381
较	382
容	383
易	384
受	385
美	386
|	387
界	388
排	389
斥	390
够	391
专	392
辑	393
水	394
平	395
烂	396
£	397
代	398
独	399
档	400
存	401
中	402
嘻	403
具	404
听	405
吴	406
彦	407
祖	408
起	409
唱	410
欧	411
阳	412
靖	413
早	414
王	415
宏	416
盖	417
世	418
英	419
雄	420
帮	421
忙	422
达	423
书	424
记	425
婆	426
呢	427
连	428
续	429
七	430
周	431
冠	432
军	433
吊	434
2	435
1	436
纪	437
初	438
文	439
化	440
肤	441
色	442
阶	443
摇	444
晃	445
脑	446
让	447
妙	448
尤	449
其	450
总	451
鼻	452
孔	453
写	454
摄	455
师	456
知	457
萝	458
拉	459
影	460
同	461
款	462
癫	463
堂	464
进	465
精	466
神	467
病	468
房	469
戏	470
晓	471
幂	472
薇	473
快	474
乱	475
叫	476
灵	477
弹	478
幕	479
刷	480
3	481
歌	482
编	483
残	484
历	485
史	486
9	487
6	488
7	489
月	490
广	491
州	492
电	493
视	494
单	495
纯	496
鹿	497
技	498
差	499
颜	500
值	501
角	502
解	503
千	504
陆	505
亦	506
哪	507
古	508
民	509
毛	510
虫	511
今	512
如	513
突	514
智	515
障	516
爆	517
孩	518
应	519
该	520
男	521
¤	522
群	523
哥	524
网	525
掏	526
钱	527
狗	528
媳	529
妇	530
懂	531
驰	532
映	533
室	534
威	535
列	536
卧	537
槽	538
岂	539
果	540
显	541
省	542
堆	543
姑	544
娘	545
骚	546
扰	547
清	548
闲	549
办	550
海	551
贼	552
金	553
沟	554
货	555
骗	556
十	557
八	558
九	559
万	560
讽	561
刺	562
态	563
盯	564
线	565
市	566
口	567
炸	568
价	569
谱	570
窝	571
蜂	572
地	573
业	574
少	575
收	576
入	577
优	578
资	579
源	580
深	581
浅	582
短	583
抱	584
丝	585
幻	586
碰	587
恋	588
动	589
追	590
期	591
处	592
互	593
即	594
使	595
触	596
颇	597
瞬	598
孤	599
终	600
遇	601
岁	602
刚	603
始	604
委	605
曲	606
求	607
全	608
啦	609
约	610
b	611
数	612
4	613
睡	614
尺	615
丈	616
量	617
先	618
足	619
吸	620
引	621
异	622
性	623
简	624
等	625
待	626
除	627
外	628
迹	629
键	630
于	631
方	632
式	633
双	634
眼	635
瞎	636
概	637
率	638
陷	639
幸	640
运	641
任	642
变	643
而	644
被	645
拒	646
死	647
创	648
造	649
彼	650
此	651
刮	652
谢	653
字	654
却	655
愿	656
惠	657
顾	658
张	659
挑	660
希	661
望	662
厢	663
判	664
断	665
非	666
谈	667
嗯	668
油	669
锋	670
蒂	671
芬	672
炊	673
班	674
宴	675
晏	676
誓	677
旦	678
由	679
轻	680
青	681
羡	682
慕	683
第	684
敢	685
暖	686
狐	687
狸	688
隐	689
姨	690
伴	691
善	692
良	693
gpa	694
考	695
试	696
野	697
铁	698
兰	699
科	700
院	701
毕	702
超	703
级	704
坑	705
域	706
讲	707
景	708
噢	709
读	710
完	711
新	712
闻	713
络	714
媒	715
体	716
研	717
8	718
5	719
竟	720
赞	721
祝	722
半	723
胖	724
吃	725
饺	726
北	727
狱	728
模	729
冷	730
降	731
保	732
三	733
状	734
校	735
转	736
疑	737
风	738
险	739
讨	740
论	741
念	742
肯	743
竞	744
争	745
摆	746
注	747
华	748
五	749
块	750
决	751
毅	752
位	753
打	754
份	755
职	756
请	757
公	758
务	759
猿	760
怕	761
程	762
序	763
选	764
辅	765
助	766
娜	767
迦	768
局	769
赢	770
取	771
路	772
闷	773
满	774
钟	775
边	776
至	777
鱼	778
告	779
诉	780
传	781
凭	782
守	783
波	784
c	785
鸡	786
火	787
枪	788
露	789
黑	790
巨	791
魔	792
仇	793
魂	794
阵	795
¥	796
针	797
游	798
危	799
戴	800
镜	801
汽	802
车	803
且	804
门	805
带	806
虑	807
术	808
熟	809
查	810
权	811
医	812
亲	813
戚	814
0	815
眩	816
或	817
干	818
课	819
护	820
四	821
哦	822
近	823
荒	824
谬	825
貌	826
辩	827
驳	828
伙	829
命	830
坐	831
板	832
球	833
累	834
响	835
散	836
暂	837
遗	838
症	839
夜	840
盲	841
激	842
矫	843
切	844
晶	845
安	846
随	847
失	848
况	849
证	850
睛	851
扯	852
淡	853
亮	854
飞	855
秒	856
据	857
并	858
碧	859
桂	860
园	861
预	862
场	863
管	864
楚	865
利	866
松	867
条	868
件	869
项	870
监	871
察	872
举	873
报	874
产	875
营	876
销	877
结	878
招	879
束	880
买	881
胆	882
集	883
团	884
offer	885
投	886
左	887
邻	888
居	889
购	890
庭	891
土	892
豪	893
亿	894
均	895
右	896
借	897
笔	898
健	899
跳	900
楼	901
便	902
准	903
置	904
福	905
财	906
穷	907
崩	908
努	909
爹	910
渠	911
诱	912
惑	913
姿	914
佛	915
沉	916
远	917
缠	918
郎	919
妻	920
妾	921
浮	922
躁	923
承	924
挫	925
折	926
弱	927
释	928
警	929
洪	930
巅	931
峰	932
惨	933
掉	934
破	935
案	936
卢	937
克	938
凯	939
侠	940
拳	941
季	942
碑	943
嘛	944
消	945
疯	946
狂	947
杀	948
恐	949
惧	950
壳	951
扔	952
巴	953
腊	954
肉	955
烧	956
烤	957
裸	958
奔	959
街	960
饼	961
苹	962
套	963
吓	964
赶	965
握	966
淘	967
宝	968
惊	969
统	970
喝	971
亡	972
假	973
官	974
震	975
x	976
妈	977
致	978
癌	979
究	980
示	981
吨	982
勃	983
走	984
端	985
众	986
i	987
phone	988
婚	989
冰	990
箱	991
控	992
温	993
遭	994
适	995
质	996
儿	997
耳	998
濡	999
染	1000
虎	1001
父	1002
犬	1003
ps	1004
蓝	1005
v	1006
维	1007
倒	1008
码	1009
iphone	1010
立	1011
版	1012
坏	1013
句	1014
脆	1015
届	1016
诺	1017
亚	1018
永	1019
格	1020
空	1021
售	1022
商	1023
修	1024
赖	1025
博	1026
者	1027
标	1028
猜	1029
挣	1030
熊	1031
与	1032
操	1033
厂	1034
组	1035
捧	1036
际	1037
积	1038
六	1039
略	1040
喷	1041
宾	1042
馆	1043
住	1044
恒	1045
沈	1046
归	1047
验	1048
绿	1049
料	1050
忍	1051
抢	1052
臭	1053
昭	1054
哎	1055
背	1056
low	1057
怪	1058
渐	1059
趋	1060
暴	1061
户	1062
肚	1063
墨	1064
围	1065
剿	1066
迪	1067
尼	1068
嫩	1069
熏	1070
陶	1071
聪	1072
伍	1073
吐	1074
dna	1075
棋	1076
势	1077
p	1078
衣	1079
馀	1080
膨	1081
胀	1082
仅	1083
压	1084
缩	1085
杠	1086
换	1087
宜	1088
拜	1089
托	1090
抛	1091
眯	1092
贡	1093
献	1094
咋	1095
鬼	1096
撸	1097
姥	1098
偷	1099
lol	1100
队	1101
输	1102
措	1103
施	1104
害	1105
祸	1106
霉	1107
怀	1108
柱	1109
责	1110
赔	1111
偿	1112
否	1113
南	1114
宁	1115
改	1116
装	1117
速	1118
km	1119
h	1120
芜	1121
湖	1122
穿	1123
党	1124
酷	1125
驾	1126
龄	1127
w	1128
热	1129
骑	1130
禁	1131
减	1132
负	1133
丑	1134
环	1135
辆	1136
扭	1137
跑	1138
逛	1139
横	1140
忌	1141
拍	1142
霸	1143
整	1144
素	1145
设	1146
岭	1147
区	1148
轮	1149
驱	1150
灯	1151
仔	1152
服	1153
根	1154
停	1155
醒	1156
印	1157
象	1158
支	1159
配	1160
撒	1161
混	1162
悉	1163
流	1164
庆	1165
舒	1166
它	1167
摩	1168
附	1169
脏	1170
费	1171
贵	1172
a	1173
l	1174
抽	1175
烟	1176
店	1177
贷	1178
按	1179
薪	1180
奖	1181
备	1182
付	1183
攒	1184
猴	1185
柴	1186
米	1187
盐	1188
勉	1189
傻	1190
厉	1191
梦	1192
彩	1193
票	1194
幼	1195
稚	1196
§	1197
汉	1198
瑞	1199
qq	1200
迅	1201
融	1202
某	1203
境	1204
未	1205
俭	1206
号	1207
巧	1208
落	1209
帝	1210
草	1211
母	1212
贴	1213
京	1214
昂	1215
赛	1216
淫	1217
勿	1218
则	1219
宽	1220
紫	1221
薯	1222
叠	1223
细	1224
规	1225
凉	1226
共	1227
nba	1228
扑	1229
涨	1230
封	1231
闭	1232
砸	1233
择	1234
航	1235
鼓	1236
励	1237
脸	1238
疼	1239
往	1240
磕	1241
牛	1242
础	1243
悲	1244
忘	1245
沙	1246
删	1247
频	1248
颗	1249
艾	1250
效	1251
拆	1252
迁	1253
悔	1254
租	1255
债	1256
符	1257
限	1258
移	1259
底	1260
桑	1261
许	1262
爸	1263
检	1264
益	1265
协	1266
攻	1267
丧	1268
藏	1269
池	1270
另	1271
刁	1272
零	1273
欺	1274
企	1275
跪	1276
舔	1277
芯	1278
净	1279
越	1280
例	1281
柔	1282
碗	1283
皂	1284
秦	1285
食	1286
木	1287
灰	1288
蕉	1289
抹	1290
嗤	1291
绢	1292
擦	1293
纸	1294
巾	1295
溶	1296
泥	1297
湿	1298
撮	1299
乡	1300
采	1301
澡	1302
豆	1303
污	1304
剂	1305
炒	1306
菜	1307
腿	1308
碱	1309
植	1310
榨	1311
汁	1312
尝	1313
洁	1314
社	1315
搓	1316
饭	1317
奢	1318
侈	1319
寿	1320
肥	1321
腐	1322
布	1323
丁	1324
炼	1325
浪	1326
荚	1327
指	1328
稻	1329
河	1330
粉	1331
磨	1332
猪	1333
沾	1334
舍	1335
蹲	1336
股	1337
蹭	1338
胰	1339
蒸	1340
馒	1341
锅	1342
槿	1343
叶	1344
患	1345
孕	1346
形	1347
治	1348
疗	1349
剥	1350
夺	1351
犯	1352
罪	1353
偏	1354
依	1355
旧	1356
弄	1357
疾	1358
赋	1359
予	1360
违	1361
义	1362
蒙	1363
族	1364
宗	1365
射	1366
箭	1367
夸	1368
制	1369
籍	1370
呐	1371
漂	1372
娶	1373
爽	1374
骆	1375
驼	1376
萨	1377
距	1378
雨	1379
防	1380
属	1381
羊	1382
洲	1383
凡	1384
扬	1385
卡	1386
拔	1387
照	1388
酒	1389
迎	1390
李	1391
寻	1392
棠	1393
武	1394
石	1395
观	1396
音	1397
阴	1398
姬	1399
敌	1400
败	1401
血	1402
唯	1403
盗	1404
凤	1405
冒	1406
萧	1407
刀	1408
龙	1409
傅	1410
雪	1411
额	1412
魅	1413
岛	1414
吹	1415
仰	1416
郑	1417
秋	1418
吕	1419
颂	1420
贤	1421
令	1422
典	1423
钦	1424
n	1425
俞	1426
玉	1427
俗	1428
犀	1429
夹	1430
胸	1431
淄	1432
继	1433
琼	1434
尉	1435
迟	1436
恭	1437
咳	1438
宅	1439
q	1440
苦	1441
盘	1442
奥	1443
ti	1444
迈	1445
坎	1446
扎	1447
庸	1448
罢	1449
©	1450
«	1451
仕	1452
奈	1453
lv	1454
逸	1455
kelly	1456
迷	1457
皮	1458
dior	1459
妃	1460
gucci	1461
®	1462
战	1463
辨	1464
倍	1465
prada	1466
牌	1467
chanel	1468
链	1469
搭	1470
mk	1471
°	1472
甩	1473
氓	1474
荐	1475
圣	1476
罗	1477
肩	1478
菲	1479
耐	1480
训	1481
±	1482
渣	1483
范	1484
呛	1485
辞	1486
劳	1487
士	1488
稍	1489
韩	1490
桶	1491
斩	1492
济	1493
驴	1494
琳	1495
仿	1496
澳	1497
卖	1498
袋	1499
酸	1500
cup	1501
枚	1502
亏	1503
稳	1504
弃	1505
gg	1506
曝	1507
登	1508
银	1509
捂	1510
裁	1511
詹	1512
姆	1513
抬	1514
肘	1515
顶	1516
吵	1517
喉	1518
斗	1519
核	1520
扣	1521
穆	1522
篮	1523
腰	1524
派	1525
贱	1526
殷	1527
诶	1528
胎	1529
哇	1530
葩	1531
唉	1532
慌	1533
耶	1534
恕	1535
逗	1536
甚	1537
姓	1538
叼	1539
练	1540
钢	1541
飘	1542
妥	1543
充	1544
棍	1545
划	1546
征	1547
瓜	1548
揉	1549
寝	1550
毒	1551
补	1552
抒	1553
肠	1554
莫	1555
捷	1556
伐	1557
哭	1558
脖	1559
颈	1560
²	1561
翻	1562
译	1563
姐	1564
腹	1565
隆	1566
mac	1567
侵	1568
摸	1569
软	1570
绵	1571
³	1572
材	1573
瓶	1574
椎	1575
剪	1576
喵	1577
圈	1578
误	1579
µ	1580
竖	1581
器	1582
脊	1583
敬	1584
咬	1585
甭	1586
领	1587
曾	1588
播	1589
寒	1590
录	1591
载	1592
饥	1593
渴	1594
侧	1595
缓	1596
副	1597
裙	1598
翘	1599
帕	1600
苏	1601
展	1602
裤	1603
妖	1604
盆	1605
厕	1606
佟	1607
丽	1608
娅	1609
彻	1610
极	1611
咔	1612
哆	1613
嗦	1614
索	1615
脚	1616
阿	1617
k	1618
踹	1619
逮	1620
猥	1621
琐	1622
¹	1623
兼	1624
腻	1625
向	1626
评	1627
骨	1628
倾	1629
趴	1630
腋	1631
阚	1632
锻	1633
赚	1634
º	1635
揪	1636
畜	1637
朕	1638
休	1639
凸	1640
滋	1641
呆	1642
歪	1643
滞	1644
型	1645
腩	1646
缝	1647
私	1648
站	1649
僵	1650
透	1651
爬	1652
挡	1653
诚	1654
构	1655
茫	1656
袖	1657
忽	1658
戒	1659
顿	1660
疙	1661
瘩	1662
丶	1663
呕	1664
撩	1665
拖	1666
棒	1667
虚	1668
o	1669
饿	1670
衰	1671
享	1672
嗨	1673
嘴	1674
凌	1675
晨	1676
牵	1677
暧	1678
昧	1679
拓	1680
昨	1681
床	1682
烈	1683
肾	1684
胃	1685
塞	1686
y	1687
g	1688
j	1689
u	1690
炮	1691
元	1692
递	1693
邮	1694
默	1695
奏	1696
唧	1697
午	1698
屈	1699
偶	1700
乖	1701
屏	1702
蔽	1703
懒	1704
截	1705
叹	1706
漏	1707
川	1708
耍	1709
掰	1710
蹬	1711
哒	1712
乔	1713
淮	1714
泗	1715
邢	1716
氏	1717
滨	1718
楞	1719
螳	1720
螂	1721
浙	1722
扁	1723
棕	1724
煤	1725
坡	1726
簸	1727
荠	1728
谷	1729
噶	1730
嘉	1731
»	1732
胶	1733
潮	1734
汕	1735
尖	1736
担	1737
村	1738
蚂	1739
蚱	1740
怂	1741
称	1742
闽	1743
坊	1744
丘	1745
坨	1746
稀	1747
厦	1748
勾	1749
蝈	1750
辣	1751
秘	1752
瓦	1753
召	1754
唤	1755
峡	1756
踪	1757
兹	1758
玛	1759
阁	1760
xx	1761
联	1762
盟	1763
遥	1764
育	1765
昌	1766
拱	1767
狼	1768
胡	1769
皇	1770
孝	1771
er	1772
蛐	1773
漱	1774
泰	1775
圆	1776
哨	1777
勒	1778
滑	1779
稽	1780
馨	1781
凶	1782
吉	1783
钩	1784
辽	1785
¼	1786
le	1787
ß	1788
葫	1789
芦	1790
诸	1791
暨	1792
磐	1793
戈	1794
绍	1795
杭	1796
旁	1797
箕	1798
躲	1799
æ	1800
爪	1801
衡	1802
冀	1803
牙	1804
签	1805
串	1806
将	1807
匠	1808
莽	1809
杖	1810
仗	1811
庄	1812
县	1813
锤	1814
dan	1815
弓	1816
ga	1817
man	1818
ø	1819
đ	1820
蔓	1821
gi	1822
蜜	1823
阜	1824
竹	1825
兽	1826
昆	1827
瘪	1828
唐	1829
禾	1830
虾	1831
糊	1832
画	1833
挂	1834
叉	1835
剑	1836
蝗	1837
恰	1838
褐	1839
隔	1840
搬	1841
砍	1842
罐	1843
蹦	1844
嘎	1845
泸	1846
爵	1847
ŋ	1848
囧	1849
蓉	1850
甲	1851
订	1852
ɔ	1853
墩	1854
俺	1855
掌	1856
佬	1857
述	1858
啷	1859
ə	1860
娄	1861
杰	1862
m	1863
孙	1864
jing	1865
ɡ	1866
璧	1867
章	1868
奶	1869
捉	1870
煎	1871
薛	1872
蛇	1873
鼠	1874
擀	1875
织	1876
猫	1877
蟒	1878
蛊	1879
丹	1880
t	1881
潍	1882
君	1883
甘	1884
徽	1885
豹	1886
ʰ	1887
ˇ	1888
增	1889
骂	1890
蝙	1891
梢	1892
灭	1893
刘	1894
密	1895
拟	1896
ˈ	1897
冈	1898
勺	1899
岳	1900
蚤	1901
濑	1902
拨	1903
葱	1904
嘚	1905
芒	1906
湘	1907
蜡	1908
膏	1909
咩	1910
ˊ	1911
杆	1912
壮	1913
朝	1914
ˋ	1915
ˍ	1916
ː	1917
˙	1918
陕	1919
d	1920
咧	1921
嘿	1922
骏	1923
架	1924
葛	1925
˚	1926
祥	1927
囊	1928
哏	1929
匿	1930
呵	1931
ling	1932
崂	1933
溜	1934
哐	1935
ˢ	1936
燥	1937
琦	1938
鲁	1939
α	1940
β	1941
苗	1942
啄	1943
憋	1944
糕	1945
桥	1946
跶	1947
洋	1948
旮	1949
泽	1950
曹	1951
萍	1952
仙	1953
啧	1954
γ	1955
曰	1956
chang	1957
灶	1958
府	1959
蛮	1960
δ	1961
ma	1962
镇	1963
枣	1964
席	1965
帽	1966
摘	1967
厘	1968
梗	1969
嗓	1970
舅	1971
ε	1972
zh	1973
ng	1974
η	1975
哩	1976
蜻	1977
蜓	1978
赤	1979
s	1980
咪	1981
绷	1982
愣	1983
兆	1984
柄	1985
呼	1986
懵	1987
塔	1988
梭	1989
蛰	1990
咕	1991
粤	1992
药	1993
罩	1994
忻	1995
酱	1996
隅	1997
蚊	1998
雀	1999
斑	2000
祛	2001
妆	2002
批	2003
免	2004
闯	2005
痒	2006
泊	2007
饰	2008
cc	2009
途	2010
堪	2011
忧	2012
诣	2013
rs	2014
仪	2015
雅	2016
籁	2017
丢	2018
导	2019
渡	2020
θ	2021
ι	2022
悬	2023
suv	2024
腾	2025
翼	2026
轴	2027
喔	2028
雷	2029
es	2030
乞	2031
丐	2032
plus	2033
鉴	2034
拥	2035
劲	2036
κ	2037
锦	2038
λ	2039
侯	2040
座	2041
测	2042
饱	2043
沛	2044
晕	2045
框	2046
噪	2047
锐	2048
耗	2049
窗	2050
玻	2051
璃	2052
萌	2053
pass	2054
麦	2055
弗	2056
逊	2057
匹	2058
斜	2059
庵	2060
尚	2061
庙	2062
μ	2063
既	2064
插	2065
阅	2066
泛	2067
栖	2068
霞	2069
溢	2070
ν	2071
ο	2072
and	2073
life	2074
契	2075
救	2076
童	2077
暗	2078
啤	2079
谅	2080
硫	2081
磺	2082
氨	2083
泡	2084
膜	2085
敷	2086
漾	2087
泉	2088
盏	2089
谨	2090
慎	2091
秃	2092
噜	2093
缇	2094
葡	2095
萄	2096
sk	2097
lab	2098
矿	2099
淋	2100
尾	2101
静	2102
撞	2103
滴	2104
匀	2105
伞	2106
汗	2107
践	2108
溅	2109
闪	2110
餐	2111
厅	2112
谓	2113
珠	2114
参	2115
垂	2116
蜗	2117
藻	2118
宋	2119
汤	2120
乘	2121
杯	2122
胳	2123
膊	2124
屋	2125
檐	2126
踏	2127
尽	2128
睁	2129
discovery	2130
卷	2131
f	2132
层	2133
坦	2134
瘦	2135
币	2136
授	2137
固	2138
函	2139
毫	2140
瓢	2141
泼	2142
宿	2143
占	2144
殊	2145
浇	2146
摔	2147
侮	2148
辱	2149
矢	2150
匆	2151
悠	2152
妨	2153
浴	2154
伯	2155
央	2156
介	2157
及	2158
嬴	2159
政	2160
琪	2161
避	2162
析	2163
搜	2164
伎	2165
怜	2166
兮	2167
霆	2168
杜	2169
返	2170
账	2171
tm	2172
茶	2173
税	2174
缘	2175
陌	2176
莞	2177
欠	2178
掩	2179
聋	2180
哑	2181
急	2182
泪	2183
兑	2184
惜	2185
暑	2186
犹	2187
豫	2188
ρ	2189
ς	2190
扮	2191
捐	2192
牲	2193
堑	2194
漠	2195
愧	2196
too	2197
young	2198
σ	2199
τ	2200
润	2201
催	2202
眠	2203
咯	2204
邪	2205
泯	2206
壁	2207
蠢	2208
趁	2209
虹	2210
卸	2211
田	2212
菊	2213
渊	2214
嫌	2215
押	2216
韵	2217
诗	2218
闹	2219
甫	2220
律	2221
殡	2222
肺	2223
绩	2224
md	2225
斤	2226
mini	2227
苍	2228
抗	2229
躺	2230
惭	2231
υ	2232
曼	2233
恢	2234
胚	2235
鹅	2236
晒	2237
艳	2238
芝	2239
雕	2240
vs	2241
帖	2242
鹤	2243
髦	2244
惹	2245
my	2246
拯	2247
痊	2248
愈	2249
驻	2250
坛	2251
痕	2252
脱	2253
痛	2254
您	2255
跨	2256
乳	2257
腺	2258
胜	2259
鞋	2260
胱	2261
腚	2262
审	2263
驹	2264
烨	2265
tvb	2266
梁	2267
姜	2268
焦	2269
访	2270
贫	2271
哀	2272
顺	2273
藕	2274
逻	2275
恬	2276
涉	2277
嫁	2278
嗜	2279
桌	2280
婿	2281
闺	2282
剃	2283
崽	2284
耻	2285
徒	2286
莓	2287
φ	2288
χ	2289
赠	2290
讯	2291
app	2292
vip	2293
敞	2294
浏	2295
览	2296
页	2297
缀	2298
windows	2299
xp	2300
蓄	2301
厚	2302
牟	2303
ψ	2304
阔	2305
ing	2306
弥	2307
珍	2308
刑	2309
卑	2310
嘞	2311
羽	2312
绒	2313
唠	2314
嗑	2315
辛	2316
攘	2317
痞	2318
诀	2319
恩	2320
拦	2321
悦	2322
奋	2323
笙	2324
哟	2325
呦	2326
矮	2327
眷	2328
眉	2329
唬	2330
捏	2331
ω	2332
醉	2333
聚	2334
а	2335
痹	2336
撕	2337
cm	2338
执	2339
龅	2340
冤	2341
孽	2342
lisa	2343
榕	2344
龟	2345
瞧	2346
慰	2347
愁	2348
彭	2349
吖	2350
阻	2351
cba	2352
auto	2353
б	2354
ci	2355
扒	2356
郁	2357
笼	2358
探	2359
茄	2360
盒	2361
碳	2362
燃	2363
氧	2364
氢	2365
e	2366
mc	2367
в	2368
含	2369
嫂	2370
狭	2371
窄	2372
燕	2373
ok	2374
挖	2375
灸	2376
肌	2377
臂	2378
崴	2379
摊	2380
筋	2381
迫	2382
蹈	2383
黛	2384
赫	2385
岩	2386
陪	2387
谋	2388
榜	2389
胭	2390
脂	2391
烽	2392
怖	2393
雇	2394
樊	2395
钗	2396
填	2397
赴	2398
卒	2399
璀	2400
璨	2401
卫	2402
霍	2403
匈	2404
奴	2405
俘	2406
伺	2407
遁	2408
逃	2409
袭	2410
刊	2411
墓	2412
抠	2413
雁	2414
御	2415
祁	2416
歼	2417
纠	2418
篇	2419
崇	2420
滕	2421
牢	2422
痴	2423
贺	2424
盛	2425
扛	2426
牧	2427
括	2428
喻	2429
郡	2430
宪	2431
gps	2432
г	2433
驸	2434
陵	2435
船	2436
挎	2437
拎	2438
怨	2439
烩	2440
荆	2441
憾	2442
末	2443
畔	2444
cbd	2445
墙	2446
贸	2447
汝	2448
郊	2449
棉	2450
蹄	2451
齐	2452
狠	2453
劝	2454
誉	2455
宫	2456
芈	2457
泄	2458
滥	2459
辜	2460
臆	2461
隋	2462
匪	2463
浒	2464
扈	2465
逵	2466
俊	2467
朽	2468
畏	2469
妄	2470
灌	2471
忠	2472
唆	2473
寨	2474
寇	2475
褒	2476
屠	2477
ktv	2478
喊	2479
坟	2480
圳	2481
旅	2482
寓	2483
钥	2484
匙	2485
锁	2486
坤	2487
梅	2488
伪	2489
森	2490
详	2491
诡	2492
鄙	2493
xxx	2494
掐	2495
俄	2496
恨	2497
拇	2498
粹	2499
愉	2500
纷	2501
湾	2502
牺	2503
匮	2504
乏	2505
丰	2506
鲜	2507
廷	2508
绪	2509
惕	2510
柯	2511
怼	2512
歧	2513
av	2514
嚷	2515
乌	2516
若	2517
acg	2518
д	2519
螺	2520
旋	2521
携	2522
启	2523
纤	2524
酵	2525
扶	2526
矩	2527
挥	2528
延	2529
垮	2530
灿	2531
垫	2532
拼	2533
盼	2534
裴	2535
倪	2536
姚	2537
荡	2538
勤	2539
栋	2540
窃	2541
橙	2542
肮	2543
粪	2544
堕	2545
high	2546
涩	2547
cctv	2548
汪	2549
俪	2550
澈	2551
怦	2552
沓	2553
枫	2554
筑	2555
е	2556
荣	2557
纶	2558
镁	2559
寂	2560
寞	2561
ж	2562
say	2563
з	2564
宛	2565
挨	2566
井	2567
桨	2568
铺	2569
妍	2570
奕	2571
莱	2572
坞	2573
柏	2574
霖	2575
伦	2576
莉	2577
挚	2578
go	2579
暹	2580
俱	2581
и	2582
к	2583
樱	2584
董	2585
郝	2586
蕾	2587
忆	2588
焰	2589
妮	2590
颐	2591
竭	2592
涛	2593
瘾	2594
耿	2595
绚	2596
莎	2597
凑	2598
xi	2599
怒	2600
no	2601
隙	2602
л	2603
street	2604
桐	2605
days	2606
of	2607
summer	2608
粥	2609
宇	2610
м	2611
н	2612
dream	2613
撼	2614
擅	2615
惆	2616
怅	2617
厄	2618
琴	2619
咖	2620
啡	2621
描	2622
荷	2623
盾	2624
琢	2625
刻	2626
о	2627
鸣	2628
邃	2629
枯	2630
谎	2631
喽	2632
school	2633
朗	2634
殖	2635
the	2636
girl	2637
next	2638
п	2639
唔	2640
茹	2641
悟	2642
攥	2643
涡	2644
昏	2645
培	2646
р	2647
膈	2648
翡	2649
翠	2650
悄	2651
诅	2652
咒	2653
椅	2654
拘	2655
粮	2656
趟	2657
姻	2658
悚	2659
с	2660
苛	2661
弯	2662
糟	2663
逞	2664
讪	2665
淀	2666
瘠	2667
呃	2668
朵	2669
т	2670
幽	2671
悸	2672
boss	2673
涯	2674
vr	2675
册	2676
旗	2677
嗮	2678
娃	2679
蝇	2680
虱	2681
讼	2682
厨	2683
谣	2684
澄	2685
舆	2686
娼	2687
抵	2688
咦	2689
裂	2690
废	2691
瞅	2692
у	2693
hip	2694
hop	2695
卵	2696
鸭	2697
ф	2698
履	2699
铜	2700
х	2701
ц	2702
蛙	2703
itunes	2704
乍	2705
ч	2706
ш	2707
nc	2708
ы	2709
嘲	2710
岔	2711
媚	2712
ar	2713
菩	2714
桩	2715
甜	2716
宣	2717
fan	2718
劣	2719
剩	2720
ь	2721
贪	2722
慈	2723
禧	2724
繁	2725
胁	2726
沦	2727
鸦	2728
鸿	2729
慨	2730
缔	2731
扫	2732
獒	2733
沫	2734
钻	2735
狮	2736
肢	2737
孟	2738
捕	2739
疣	2740
敲	2741
雌	2742
撵	2743
蓬	2744
鬣	2745
泌	2746
旺	2747
绕	2748
烫	2749
纹	2750
蜥	2751
笨	2752
鳄	2753
鲨	2754
滩	2755
岸	2756
猎	2757
屑	2758
睹	2759
役	2760
驯	2761
鞭	2762
碾	2763
筝	2764
猩	2765
铠	2766
敏	2767
瑟	2768
曦	2769
歹	2770
肛	2771
骡	2772
飚	2773
mm	2774
棱	2775
稼	2776
娇	2777
橘	2778
鲸	2779
悍	2780
毋	2781
sorry	2782
鳌	2783
宙	2784
歉	2785
遛	2786
撑	2787
惩	2788
cd	2789
壶	2790
颚	2791
摁	2792
粗	2793
膘	2794
钝	2795
蜘	2796
蛛	2797
珂	2798
丛	2799
狩	2800
辉	2801
煌	2802
麒	2803
麟	2804
镰	2805
肪	2806
矛	2807
哮	2808
洒	2809
伏	2810
番	2811
浑	2812
哺	2813
搏	2814
擒	2815
勇	2816
糙	2817
齿	2818
桃	2819
卜	2820
嚣	2821
碎	2822
翅	2823
鹏	2824
鸟	2825
邹	2826
鼬	2827
kg	2828
匡	2829
绽	2830
溃	2831
捅	2832
崔	2833
涂	2834
book	2835
痰	2836
涌	2837
窍	2838
盈	2839
灼	2840
膀	2841
炎	2842
窦	2843
哗	2844
茬	2845
碴	2846
搐	2847
壤	2848
哉	2849
鳗	2850
娆	2851
沧	2852
邦	2853
刃	2854
沸	2855
侄	2856
梆	2857
腔	2858
循	2859
绑	2860
style	2861
哔	2862
扩	2863
卓	2864
拽	2865
蒜	2866
菌	2867
亢	2868
я	2869
dota	2870
і	2871
踢	2872
cf	2873
cs	2874
斧	2875
ob	2876
dc	2877
ا	2878
凝	2879
ب	2880
mvp	2881
骄	2882
傲	2883
逆	2884
髓	2885
扳	2886
梯	2887
ة	2888
谦	2889
申	2890
cn	2891
ت	2892
tv	2893
炉	2894
د	2895
邀	2896
ر	2897
س	2898
ع	2899
best	2900
宵	2901
熬	2902
nice	2903
噗	2904
shadow	2905
chinese	2906
nb	2907
usa	2908
china	2909
绅	2910
蝠	2911
ل	2912
م	2913
啰	2914
添	2915
枉	2916
吾	2917
ن	2918
披	2919
揽	2920
癞	2921
眶	2922
冻	2923
ه	2924
拾	2925
缴	2926
振	2927
址	2928
硕	2929
翁	2930
و	2931
r	2932
耀	2933
诞	2934
ي	2935
屹	2936
翔	2937
۩	2938
获	2939
ก	2940
ง	2941
酬	2942
am	2943
น	2944
嫖	2945
赌	2946
惦	2947
揭	2948
谜	2949
惟	2950
肖	2951
real	2952
ae	2953
馁	2954
俏	2955
乃	2956
皆	2957
yy	2958
簿	2959
弊	2960
薰	2961
usb	2962
绳	2963
婉	2964
嫣	2965
霓	2966
陀	2967
膝	2968
ni	2969
shi	2970
ม	2971
ย	2972
li	2973
ร	2974
bi	2975
gay	2976
碍	2977
疤	2978
禅	2979
衬	2980
璐	2981
sp	2982
玫	2983
瑰	2984
edge	2985
库	2986
俨	2987
hr	2988
z	2989
晗	2990
侍	2991
奉	2992
晋	2993
策	2994
鄞	2995
塘	2996
溪	2997
殃	2998
阐	2999
婴	3000
懦	3001
遵	3002
秉	3003
耽	3004
粑	3005
嘶	3006
罚	3007
吞	3008
咽	3009
茅	3010
颤	3011
苟	3012
愚	3013
侣	3014
殆	3015
毡	3016
嫉	3017
妒	3018
搁	3019
忏	3020
瞒	3021
搅	3022
it	3023
is	3024
up	3025
to	3026
you	3027
廉	3028
捣	3029
寄	3030
聘	3031
颖	3032
凰	3033
祈	3034
祷	3035
sb	3036
埃	3037
娱	3038
咨	3039
询	3040
碌	3041
逐	3042
革	3043
晴	3044
挽	3045
臣	3046
袁	3047
懿	3048
尘	3049
潇	3050
อ	3051
溥	3052
芳	3053
困	3054
喧	3055
挪	3056
in	3057
god	3058
we	3059
า	3060
瓷	3061
杉	3062
矶	3063
胞	3064
纬	3065
汐	3066
猝	3067
驶	3068
跃	3069
磁	3070
筐	3071
粒	3072
pm	3073
掘	3074
轨	3075
乒	3076
乓	3077
黝	3078
弧	3079
纳	3080
堡	3081
兜	3082
洞	3083
秤	3084
抄	3085
粘	3086
稿	3087
脾	3088
儒	3089
蚁	3090
仲	3091
捞	3092
เ	3093
寸	3094
mix	3095
筒	3096
or	3097
凋	3098
淑	3099
扇	3100
疲	3101
ip	3102
堵	3103
允	3104
闵	3105
颠	3106
喱	3107
噩	3108
诊	3109
砖	3110
械	3111
槛	3112
促	3113
挤	3114
乙	3115
醇	3116
ab	3117
怠	3118
损	3119
拮	3120
裕	3121
撤	3122
bb	3123
劫	3124
戳	3125
臼	3126
pad	3127
砂	3128
储	3129
仓	3130
锡	3131
js	3132
贬	3133
淹	3134
囤	3135
灾	3136
๑	3137
་	3138
骇	3139
跌	3140
note	3141
阀	3142
坯	3143
旭	3144
铝	3145
瘁	3146
抑	3147
菠	3148
玄	3149
栏	3150
硅	3151
柜	3152
潢	3153
炳	3154
巷	3155
饮	3156
冯	3157
摧	3158
丸	3159
贿	3160
赂	3161
谴	3162
ღ	3163
吻	3164
ᄀ	3165
禽	3166
肋	3167
噱	3168
air	3169
ᄁ	3170
yoga	3171
瑕	3172
疵	3173
薄	3174
new	3175
macbook	3176
pro	3177
吏	3178
雾	3179
霾	3180
呻	3181
吟	3182
墅	3183
庞	3184
兔	3185
宰	3186
get	3187
绰	3188
臀	3189
ᄂ	3190
喂	3191
矬	3192
叨	3193
ᄃ	3194
叙	3195
廊	3196
wu	3197
垄	3198
寡	3199
茨	3200
幅	3201
畅	3202
帧	3203
ppt	3204
纱	3205
浩	3206
陋	3207
津	3208
藤	3209
螃	3210
蟹	3211
涵	3212
颁	3213
梨	3214
龌	3215
龊	3216
咏	3217
署	3218
汰	3219
靳	3220
砌	3221
ᄅ	3222
who	3223
she	3224
颧	3225
奚	3226
瑶	3227
铲	3228
毯	3229
tony	3230
梳	3231
沃	3232
糖	3233
edm	3234
ᄆ	3235
alan	3236
walker	3237
dj	3238
黎	3239
绎	3240
雯	3241
婕	3242
ᄇ	3243
ᄈ	3244
酪	3245
ᄉ	3246
ᄋ	3247
谭	3248
嗣	3249
something	3250
just	3251
like	3252
this	3253
鸽	3254
ᄌ	3255
ᄎ	3256
ᄏ	3257
ᄐ	3258
ᄑ	3259
贞	3260
ᄒ	3261
ᅡ	3262
let	3263
me	3264
love	3265
靓	3266
ᅢ	3267
city	3268
鹰	3269
逝	3270
酌	3271
怡	3272
揍	3273
ᅣ	3274
ᅥ	3275
焉	3276
噎	3277
ᅦ	3278
氛	3279
ᅧ	3280
vivo	3281
ᅨ	3282
fb	3283
ᅩ	3284
咙	3285
沿	3286
刹	3287
喘	3288
拌	3289
ᅪ	3290
割	3291
腕	3292
椒	3293
狄	3294
枸	3295
杞	3296
逢	3297
寥	3298
濒	3299
垒	3300
baby	3301
辟	3302
煞	3303
焊	3304
ᅬ	3305
踩	3306
钉	3307
缅	3308
倡	3309
邓	3310
仁	3311
ᅭ	3312
鼎	3313
冶	3314
嵩	3315
巍	3316
蒲	3317
轩	3318
浚	3319
肇	3320
ph	3321
邱	3322
铭	3323
ᅮ	3324
弈	3325
do	3326
sf	3327
黯	3328
朴	3329
鲲	3330
steam	3331
moba	3332
ᅯ	3333
ad	3334
war	3335
rmb	3336
ᅲ	3337
bp	3338
ac	3339
bug	3340
bat	3341
炫	3342
叛	3343
辖	3344
ᅳ	3345
愤	3346
ᅴ	3347
妞	3348
汇	3349
泳	3350
婷	3351
atm	3352
撇	3353
巡	3354
蝴	3355
蝶	3356
澎	3357
湃	3358
rpg	3359
絮	3360
ᅵ	3361
佣	3362
坠	3363
ak	3364
leave	3365
ᆨ	3366
ᆫ	3367
艰	3368
栅	3369
埋	3370
脉	3371
姗	3372
艇	3373
舰	3374
衍	3375
毙	3376
翰	3377
欲	3378
纵	3379
兀	3380
株	3381
ᆯ	3382
诛	3383
睦	3384
贯	3385
wifi	3386
著	3387
衅	3388
讹	3389
恳	3390
棵	3391
cpu	3392
嚼	3393
杏	3394
漆	3395
沥	3396
液	3397
浆	3398
舌	3399
煮	3400
its	3401
ᆷ	3402
ᆸ	3403
fans	3404
ᆺ	3405
巢	3406
鳖	3407
仍	3408
讶	3409
why	3410
怯	3411
out	3412
ᆻ	3413
scott	3414
ball	3415
潭	3416
hiv	3417
捡	3418
碟	3419
motel	3420
only	3421
when	3422
ᆼ	3423
light	3424
ᗜ	3425
哼	3426
衷	3427
柬	3428
黏	3429
绞	3430
玷	3431
眨	3432
ex	3433
疚	3434
扉	3435
澜	3436
jpg	3437
侥	3438
醺	3439
恍	3440
惚	3441
ᵃ	3442
捋	3443
戾	3444
诽	3445
谤	3446
ᵉ	3447
ji	3448
吭	3449
嘘	3450
涤	3451
yin	3452
word	3453
basic	3454
sao	3455
怔	3456
ᵍ	3457
浦	3458
醛	3459
肿	3460
痔	3461
疮	3462
ins	3463
ᵏ	3464
肝	3465
酗	3466
丫	3467
藿	3468
酶	3469
ᵐ	3470
level	3471
top	3472
屯	3473
ko	3474
晦	3475
姣	3476
糜	3477
潦	3478
禀	3479
沪	3480
恃	3481
裹	3482
柳	3483
芽	3484
ᵒ	3485
衩	3486
碉	3487
dd	3488
伸	3489
钓	3490
渝	3491
芙	3492
钙	3493
吱	3494
戬	3495
adc	3496
ap	3497
轲	3498
惇	3499
铂	3500
瘤	3501
轰	3502
韧	3503
ᵘ	3504
咤	3505
魇	3506
亨	3507
咸	3508
捎	3509
剔	3510
蝉	3511
buff	3512
‖	3513
„	3514
劈	3515
栽	3516
solo	3517
犊	3518
绊	3519
pk	3520
†	3521
削	3522
抉	3523
dnf	3524
莲	3525
•	3526
佑	3527
镯	3528
崭	3529
咆	3530
啪	3531
壕	3532
嘤	3533
wow	3534
fifa	3535
ol	3536
骰	3537
倩	3538
盔	3539
‥	3540
伢	3541
icloud	3542
狡	3543
猾	3544
飙	3545
阱	3546
纽	3547
蘑	3548
菇	3549
鲍	3550
jj	3551
轿	3552
嗷	3553
渭	3554
榆	3555
羞	3556
‧	3557
蟑	3558
馅	3559
煲	3560
铸	3561
硝	3562
沐	3563
涮	3564
筷	3565
粽	3566
aa	3567
卤	3568
笋	3569
糠	3570
蘸	3571
free	3572
##1	3573
bird	3574
‰	3575
塌	3576
tt	3577
骤	3578
pp	3579
韭	3580
gdp	3581
沂	3582
僻	3583
缚	3584
bc	3585
橡	3586
en	3587
′	3588
im	3589
″	3590
渤	3591
‹	3592
›	3593
渍	3594
拐	3595
豁	3596
踝	3597
jack	3598
se	3599
※	3600
max	3601
gb	3602
贩	3603
淆	3604
旷	3605
倦	3606
酿	3607
‿	3608
hp	3609
巫	3610
枕	3611
觅	3612
⁄	3613
傍	3614
碜	3615
赁	3616
ⁱ	3617
擎	3618
逍	3619
sa	3620
甥	3621
帐	3622
⁺	3623
gs	3624
ⁿ	3625
gl	3626
夕	3627
嚒	3628
谍	3629
渺	3630
cp	3631
ios	3632
oppo	3633
mx	3634
ui	3635
miui	3636
root	3637
os	3638
臃	3639
metal	3640
mate	3641
襟	3642
lg	3643
₁	3644
檬	3645
骁	3646
₂	3647
₃	3648
₄	3649
nexus	3650
诟	3651
虏	3652
崎	3653
裆	3654
喇	3655
叭	3656
€	3657
龈	3658
疡	3659
痘	3660
excel	3661
肆	3662
铃	3663
募	3664
匕	3665
挟	3666
聂	3667
铅	3668
剁	3669
匣	3670
陛	3671
殿	3672
烹	3673
泣	3674
叽	3675
miss	3676
℃	3677
崛	3678
咎	3679
№	3680
™	3681
槟	3682
ⅰ	3683
悼	3684
燎	3685
ⅱ	3686
nt	3687
office	3688
撬	3689
侏	3690
蜴	3691
镖	3692
韦	3693
赎	3694
窟	3695
赘	3696
憨	3697
咄	3698
die	3699
mv	3700
俯	3701
瞰	3702
茎	3703
疏	3704
ⅲ	3705
暮	3706
薅	3707
桓	3708
垣	3709
ⅳ	3710
婊	3711
缆	3712
ⅴ	3713
券	3714
揣	3715
←	3716
↑	3717
倔	3718
拢	3719
哽	3720
kb	3721
邵	3722
醋	3723
膳	3724
篓	3725
菱	3726
馋	3727
number	3728
one	3729
讧	3730
锄	3731
渗	3732
→	3733
↓	3734
↔	3735
诵	3736
惮	3737
嗲	3738
boy	3739
嬷	3740
↗	3741
↘	3742
iu	3743
pd	3744
饲	3745
疫	3746
赊	3747
瞄	3748
捍	3749
熔	3750
援	3751
衔	3752
旬	3753
榴	3754
彪	3755
楷	3756
淇	3757
狰	3758
狞	3759
⇒	3760
log	3761
ck	3762
channel	3763
logo	3764
∀	3765
−	3766
癖	3767
cl	3768
蛀	3769
∕	3770
莹	3771
掺	3772
蒋	3773
甄	3774
钰	3775
僚	3776
瞪	3777
amg	3778
fa	3779
∙	3780
诈	3781
窘	3782
伊	3783
lu	3784
刨	3785
bang	3786
cosplay	3787
肏	3788
膛	3789
谊	3790
√	3791
霄	3792
栈	3793
∞	3794
蹋	3795
∟	3796
∠	3797
蔷	3798
朦	3799
胧	3800
芹	3801
笛	3802
遮	3803
炅	3804
栀	3805
∣	3806
喆	3807
尹	3808
咻	3809
瞿	3810
磊	3811
辫	3812
羲	3813
芮	3814
瓣	3815
∥	3816
∩	3817
臧	3818
朔	3819
鸳	3820
鸯	3821
庚	3822
慧	3823
娴	3824
阙	3825
∮	3826
斌	3827
be	3828
are	3829
畸	3830
di	3831
荧	3832
∶	3833
鑫	3834
讷	3835
噫	3836
嗝	3837
炕	3838
皖	3839
蚌	3840
埠	3841
奸	3842
魏	3843
璋	3844
隶	3845
掇	3846
羿	3847
琵	3848
琶	3849
蝎	3850
僧	3851
∼	3852
袍	3853
腥	3854
祭	3855
奠	3856
锥	3857
烊	3858
玺	3859
what	3860
about	3861
擞	3862
鳝	3863
屿	3864
辐	3865
霜	3866
alt	3867
ctrl	3868
∽	3869
pvp	3870
珊	3871
apple	3872
store	3873
exo	3874
fps	3875
≈	3876
晰	3877
栗	3878
枝	3879
≒	3880
xd	3881
gp	3882
an	3883
≡	3884
厥	3885
猖	3886
獗	3887
≤	3888
诠	3889
艘	3890
靶	3891
歇	3892
supreme	3893
棺	3894
≥	3895
拧	3896
牡	3897
≦	3898
亩	3899
辍	3900
淳	3901
≧	3902
颓	3903
good	3904
≪	3905
≫	3906
迭	3907
塑	3908
绣	3909
棚	3910
ms	3911
⊙	3912
uc	3913
pc	3914
tom	3915
帘	3916
橄	3917
榄	3918
⋅	3919
⋈	3920
game	3921
ella	3922
桦	3923
洼	3924
outlet	3925
裔	3926
魄	3927
shift	3928
⋯	3929
⌒	3930
筛	3931
gif	3932
穴	3933
柿	3934
枷	3935
矣	3936
蔬	3937
躯	3938
①	3939
哄	3940
jump	3941
督	3942
耕	3943
舵	3944
②	3945
③	3946
master	3947
google	3948
哲	3949
dlc	3950
fm	3951
④	3952
戮	3953
gre	3954
羚	3955
馈	3956
mp	3957
⑤	3958
鹭	3959
call	3960
vcd	3961
睫	3962
凳	3963
抚	3964
漳	3965
⑥	3966
coach	3967
nike	3968
锯	3969
饵	3970
泵	3971
唢	3972
舟	3973
msi	3974
雏	3975
倜	3976
傥	3977
衲	3978
丞	3979
勋	3980
弛	3981
⑦	3982
⑧	3983
捶	3984
剖	3985
⑨	3986
囚	3987
径	3988
gm	3989
耙	3990
馊	3991
缭	3992
穗	3993
颌	3994
蕙	3995
蹂	3996
躏	3997
梓	3998
痿	3999
恺	4000
玥	4001
恤	4002
丙	4003
芸	4004
乾	4005
case	4006
寺	4007
冥	4008
搂	4009
face	4010
弦	4011
玮	4012
ice	4013
廖	4014
晖	4015
matlab	4016
蹿	4017
窜	4018
杵	4019
赐	4020
les	4021
屉	4022
呜	4023
泻	4024
炭	4025
⑩	4026
饶	4027
⑴	4028
⑵	4029
⑶	4030
蚪	4031
蝌	4032
⑷	4033
涕	4034
铛	4035
湛	4036
谌	4037
呱	4038
虞	4039
⑸	4040
唇	4041
涎	4042
尧	4043
漓	4044
蛳	4045
诧	4046
啃	4047
玖	4048
沁	4049
彤	4050
穹	4051
雍	4052
晟	4053
丕	4054
绮	4055
坂	4056
遐	4057
鸥	4058
琅	4059
琊	4060
瑄	4061
篡	4062
轱	4063
辘	4064
嫦	4065
娥	4066
⒈	4067
⒉	4068
嗽	4069
⒊	4070
so	4071
easy	4072
⒋	4073
攀	4074
寅	4075
遣	4076
柠	4077
槐	4078
ⓒ	4079
铉	4080
蛾	4081
嬅	4082
嵌	4083
轶	4084
瞳	4085
tf	4086
line	4087
whatsapp	4088
tim	4089
ⓔ	4090
ⓘ	4091
online	4092
'	4093
─	4094
巩	4095
━	4096
│	4097
犟	4098
┃	4099
soft	4100
┅	4101
house	4102
cos	4103
楠	4104
but	4105
┆	4106
阮	4107
侦	4108
蚯	4109
蚓	4110
尸	4111
羁	4112
坪	4113
畴	4114
垢	4115
苞	4116
叮	4117
live	4118
┊	4119
ds	4120
mod	4121
ns	4122
┌	4123
阉	4124
└	4125
兢	4126
秽	4127
鞍	4128
皓	4129
疹	4130
藓	4131
跺	4132
矜	4133
qs	4134
呸	4135
昙	4136
恿	4137
埔	4138
嫔	4139
惫	4140
抻	4141
拷	4142
ie	4143
├	4144
舶	4145
┣	4146
═	4147
wei	4148
旱	4149
涝	4150
蠕	4151
play	4152
ai	4153
烙	4154
║	4155
╚	4156
窑	4157
sm	4158
╞	4159
枢	4160
濠	4161
╠	4162
拙	4163
╭	4164
╮	4165
╯	4166
芭	4167
travel	4168
仨	4169
╰	4170
╱	4171
single	4172
tb	4173
╳	4174
on	4175
凿	4176
焚	4177
铮	4178
掂	4179
篷	4180
潼	4181
茵	4182
珞	4183
殴	4184
wi	4185
fi	4186
world	4187
bank	4188
徘	4189
徊	4190
ipo	4191
媛	4192
沮	4193
angelababy	4194
慑	4195
婶	4196
▂	4197
庐	4198
rp	4199
▃	4200
懈	4201
寰	4202
夷	4203
嫡	4204
侬	4205
墟	4206
nokia	4207
touch	4208
昕	4209
锈	4210
拂	4211
亭	4212
衫	4213
瘫	4214
彬	4215
晾	4216
脯	4217
陇	4218
榔	4219
鄂	4220
▅	4221
▇	4222
褥	4223
皿	4224
惰	4225
桔	4226
笠	4227
绫	4228
█	4229
虔	4230
eva	4231
憧	4232
憬	4233
渚	4234
▉	4235
葵	4236
鸢	4237
苇	4238
舜	4239
珑	4240
sony	4241
妓	4242
吁	4243
▋	4244
▌	4245
maria	4246
leo	4247
梵	4248
oh	4249
hard	4250
never	4251
know	4252
▍	4253
for	4254
▎	4255
■	4256
hello	4257
us	4258
as	4259
犄	4260
蟆	4261
辕	4262
佼	4263
rx	4264
switch	4265
啾	4266
□	4267
▪	4268
▫	4269
cheese	4270
蠛	4271
戟	4272
咚	4273
貂	4274
▬	4275
nova	4276
箫	4277
睿	4278
蕊	4279
纫	4280
谐	4281
驭	4282
甸	4283
筹	4284
▲	4285
茜	4286
崖	4287
胤	4288
祐	4289
焕	4290
辰	4291
蜀	4292
陨	4293
祯	4294
葬	4295
唏	4296
檀	4297
瞑	4298
胥	4299
邕	4300
祠	4301
啸	4302
筠	4303
瑜	4304
孺	4305
藩	4306
剐	4307
凄	4308
荀	4309
彧	4310
栓	4311
△	4312
▶	4313
►	4314
窒	4315
▼	4316
▽	4317
饪	4318
靴	4319
帆	4320
ky	4321
妩	4322
◆	4323
old	4324
莆	4325
vans	4326
◇	4327
○	4328
卅	4329
coc	4330
炖	4331
厝	4332
埯	4333
顽	4334
淤	4335
cx	4336
◎	4337
霹	4338
雳	4339
嬛	4340
瞟	4341
蕴	4342
●	4343
now	4344
堰	4345
庶	4346
at	4347
秩	4348
袒	4349
彰	4350
萦	4351
ram	4352
rom	4353
◕	4354
侨	4355
◠	4356
cad	4357
◢	4358
钧	4359
汀	4360
佰	4361
jay	4362
see	4363
amd	4364
◤	4365
拴	4366
拣	4367
圭	4368
稣	4369
☀	4370
★	4371
☆	4372
☕	4373
☞	4374
讳	4375
☺	4376
莺	4377
blue	4378
☼	4379
beyond	4380
friends	4381
mi	4382
♀	4383
卦	4384
缸	4385
甯	4386
♂	4387
胯	4388
♠	4389
♡	4390
苓	4391
hi	4392
躬	4393
cpa	4394
鲫	4395
羯	4396
♣	4397
嘱	4398
熄	4399
update	4400
du	4401
♥	4402
♦	4403
疆	4404
acer	4405
uber	4406
♪	4407
奎	4408
忒	4409
step	4410
♫	4411
care	4412
xr	4413
跆	4414
敛	4415
jun	4416
steven	4417
♬	4418
吝	4419
啬	4420
✈	4421
php	4422
green	4423
✔	4424
渲	4425
熙	4426
酥	4427
箩	4428
佗	4429
苔	4430
柚	4431
✕	4432
唰	4433
琥	4434
珀	4435
浣	4436
炬	4437
赃	4438
蔑	4439
✖	4440
诋	4441
腌	4442
飕	4443
✦	4444
幌	4445
✨	4446
悖	4447
qi	4448
庇	4449
✪	4450
凛	4451
imax	4452
砰	4453
✰	4454
don	4455
✿	4456
苑	4457
掠	4458
倭	4459
mb	4460
❀	4461
荔	4462
share	4463
氰	4464
胺	4465
碘	4466
稠	4467
臻	4468
蔻	4469
❤	4470
樽	4471
滔	4472
song	4473
蛆	4474
卿	4475
➜	4476
猬	4477
➤	4478
靡	4479
簧	4480
yang	4481
td	4482
⦿	4483
糯	4484
〃	4485
呈	4486
々	4487
rain	4488
逾	4489
嗅	4490
纭	4491
噻	4492
〓	4493
掀	4494
running	4495
韶	4496
姊	4497
〖	4498
仆	4499
娲	4500
sim	4501
斋	4502
萤	4503
荏	4504
苒	4505
〗	4506
〜	4507
sd	4508
斐	4509
〝	4510
曙	4511
隘	4512
etc	4513
匝	4514
瞌	4515
隧	4516
膺	4517
〞	4518
痣	4519
ss	4520
翩	4521
ぁ	4522
あ	4523
ee	4524
廓	4525
抨	4526
洙	4527
bt	4528
mo	4529
win	4530
笃	4531
跤	4532
ぃ	4533
颦	4534
腮	4535
搔	4536
闫	4537
い	4538
from	4539
う	4540
撂	4541
嚯	4542
娟	4543
佐	4544
敦	4545
焖	4546
掖	4547
ぇ	4548
熹	4549
酮	4550
篱	4551
镂	4552
kitty	4553
辄	4554
vc	4555
え	4556
watch	4557
お	4558
禺	4559
feel	4560
か	4561
yes	4562
buy	4563
き	4564
萎	4565
く	4566
け	4567
瘟	4568
瘸	4569
こ	4570
さ	4571
し	4572
鞠	4573
婧	4574
祎	4575
岚	4576
す	4577
祺	4578
泱	4579
珈	4580
拈	4581
polo	4582
せ	4583
绘	4584
そ	4585
谔	4586
荫	4587
pay	4588
趾	4589
た	4590
硌	4591
凹	4592
馍	4593
亵	4594
邑	4595
渔	4596
羔	4597
椰	4598
臊	4599
峪	4600
ち	4601
three	4602
coco	4603
made	4604
邋	4605
遢	4606
惶	4607
辙	4608
っ	4609
mba	4610
诫	4611
魁	4612
youtube	4613
hk	4614
super	4615
star	4616
茉	4617
may	4618
つ	4619
て	4620
here	4621
と	4622
腼	4623
腆	4624
な	4625
暇	4626
箍	4627
擂	4628
avi	4629
la	4630
に	4631
ぬ	4632
ね	4633
唷	4634
赦	4635
not	4636
gpu	4637
nfc	4638
ultra	4639
fly	4640
jordan	4641
ceo	4642
deep	4643
dark	4644
mu	4645
の	4646
は	4647
疸	4648
诲	4649
ひ	4650
赣	4651
ふ	4652
ag	4653
dv	4654
kk	4655
へ	4656
ほ	4657
昵	4658
ま	4659
hd	4660
mr	4661
腱	4662
禄	4663
妲	4664
厮	4665
み	4666
诩	4667
灬	4668
む	4669
lp	4670
纺	4671
郸	4672
钞	4673
め	4674
kiss	4675
も	4676
鸠	4677
捆	4678
sas	4679
荞	4680
孬	4681
ゃ	4682
痤	4683
ssd	4684
bigbang	4685
や	4686
钳	4687
ゅ	4688
ゆ	4689
ょ	4690
よ	4691
遂	4692
diy	4693
ら	4694
り	4695
mama	4696
keep	4697
烘	4698
pg	4699
hold	4700
る	4701
氮	4702
痂	4703
譬	4704
れ	4705
唾	4706
洽	4707
慷	4708
ろ	4709
禹	4710
蜚	4711
night	4712
わ	4713
を	4714
襄	4715
峨	4716
脓	4717
magic	4718
abs	4719
esp	4720
烁	4721
ptt	4722
孰	4723
欸	4724
仑	4725
嘈	4726
媲	4727
ん	4728
led	4729
bd	4730
゜	4731
pen	4732
gc	4733
阎	4734
抡	4735
旨	4736
芋	4737
橱	4738
ゝ	4739
奘	4740
萃	4741
烛	4742
腑	4743
ァ	4744
ア	4745
fast	4746
ipad	4747
偕	4748
搽	4749
焙	4750
ィ	4751
イ	4752
ne	4753
cafe	4754
浔	4755
竿	4756
kpi	4757
茧	4758
ゥ	4759
剽	4760
棣	4761
煜	4762
喀	4763
屡	4764
冉	4765
弘	4766
婵	4767
轼	4768
郴	4769
卉	4770
ウ	4771
囖	4772
滓	4773
盎	4774
瀑	4775
薏	4776
睇	4777
咗	4778
dvd	4779
ェ	4780
俑	4781
脐	4782
エ	4783
蚀	4784
嗒	4785
挠	4786
paper	4787
dr	4788
ォ	4789
gold	4790
オ	4791
婪	4792
阡	4793
カ	4794
キ	4795
rock	4796
斓	4797
犁	4798
ク	4799
bo	4800
he	4801
sr	4802
ケ	4803
コ	4804
siri	4805
htc	4806
サ	4807
by	4808
拗	4809
梧	4810
シ	4811
钮	4812
溏	4813
ス	4814
sh	4815
eyes	4816
last	4817
擤	4818
沽	4819
ems	4820
邂	4821
逅	4822
啵	4823
韬	4824
粱	4825
セ	4826
坝	4827
偎	4828
鹦	4829
鹉	4830
溯	4831
妊	4832
娠	4833
伽	4834
ソ	4835
タ	4836
チ	4837
big	4838
sean	4839
粕	4840
愫	4841
翟	4842
double	4843
卞	4844
藐	4845
坷	4846
侉	4847
show	4848
ig	4849
xdd	4850
first	4851
ッ	4852
hall	4853
ツ	4854
テ	4855
ト	4856
edit	4857
荤	4858
hu	4859
隍	4860
ナ	4861
ニ	4862
叱	4863
american	4864
ヌ	4865
袄	4866
糍	4867
莴	4868
蛹	4869
蚝	4870
茴	4871
芥	4872
鱿	4873
吮	4874
mt	4875
倚	4876
昊	4877
ネ	4878
缤	4879
峙	4880
ノ	4881
ハ	4882
榻	4883
噔	4884
鲤	4885
ヒ	4886
si	4887
蹉	4888
フ	4889
rose	4890
嗬	4891
嬉	4892
ヘ	4893
ホ	4894
ba	4895
龚	4896
瞥	4897
マ	4898
benz	4899
惬	4900
tcl	4901
揩	4902
筵	4903
鳞	4904
ミ	4905
陡	4906
渎	4907
ム	4908
メ	4909
pink	4910
hero	4911
モ	4912
ャ	4913
af	4914
bbc	4915
皱	4916
ヤ	4917
abc	4918
屮	4919
ュ	4920
ユ	4921
vincent	4922
昼	4923
demo	4924
楂	4925
頔	4926
ョ	4927
fe	4928
ヨ	4929
镶	4930
water	4931
嚎	4932
咀	4933
nhk	4934
ラ	4935
忐	4936
忑	4937
リ	4938
ル	4939
レ	4940
ロ	4941
壹	4942
bag	4943
颅	4944
people	4945
ワ	4946
home	4947
photo	4948
ed	4949
栩	4950
裳	4951
歆	4952
ヲ	4953
睐	4954
堺	4955
闰	4956
ン	4957
pe	4958
min	4959
rm	4960
磅	4961
ヶ	4962
・	4963
ー	4964
紊	4965
诬	4966
鬓	4967
ヽ	4968
very	4969
ㄅ	4970
ㄆ	4971
氟	4972
窿	4973
谛	4974
ㄇ	4975
钛	4976
釉	4977
唑	4978
孢	4979
ㄉ	4980
搪	4981
ㄋ	4982
ㄌ	4983
浊	4984
nano	4985
ct	4986
滤	4987
emma	4988
ㄍ	4989
ㄎ	4990
project	4991
眺	4992
豚	4993
ge	4994
殇	4995
mcu	4996
绯	4997
cg	4998
java	4999
web	5000
绛	5001
save	5002
ㄏ	5003
ㄒ	5004
ㄚ	5005
fc	5006
阂	5007
恙	5008
冕	5009
圃	5010
ㄛ	5011
ㄞ	5012
扼	5013
憎	5014
菏	5015
镀	5016
佘	5017
gt	5018
ㄟ	5019
ㄢ	5020
ppp	5021
pptv	5022
money	5023
蛔	5024
crystal	5025
ㄤ	5026
吠	5027
黔	5028
沌	5029
ㄥ	5030
ㄧ	5031
ㄨ	5032
ㆍ	5033
date	5034
dog	5035
㈦	5036
寮	5037
where	5038
your	5039
point	5040
俐	5041
key	5042
簇	5043
窥	5044
㊣	5045
瑚	5046
冇	5047
㎡	5048
㗎	5049
飓	5050
嗖	5051
孜	5052
ta	5053
呲	5054
ii	5055
丟	5056
west	5057
芍	5058
並	5059
moon	5060
亂	5061
亙	5062
吩	5063
咐	5064
岱	5065
van	5066
亜	5067
闸	5068
芷	5069
郫	5070
亞	5071
仮	5072
佇	5073
佈	5074
併	5075
來	5076
価	5077
burberry	5078
侶	5079
茗	5080
蚕	5081
侷	5082
internet	5083
adsl	5084
wan	5085
ping	5086
lan	5087
孵	5088
鲱	5089
椿	5090
蓓	5091
po	5092
扪	5093
嘣	5094
踮	5095
酝	5096
眸	5097
骸	5098
local	5099
king	5100
係	5101
bit	5102
na	5103
ve	5104
喏	5105
溺	5106
isis	5107
彷	5108
徨	5109
俠	5110
tai	5111
菁	5112
寐	5113
懊	5114
over	5115
倆	5116
hit	5117
倉	5118
惘	5119
汹	5120
啕	5121
個	5122
xxxx	5123
們	5124
倖	5125
値	5126
hong	5127
滇	5128
痫	5129
倫	5130
mpv	5131
柒	5132
倶	5133
james	5134
迄	5135
zen	5136
亘	5137
褪	5138
偉	5139
側	5140
偵	5141
偽	5142
咂	5143
彝	5144
傑	5145
備	5146
傚	5147
瘴	5148
傢	5149
傭	5150
da	5151
傳	5152
債	5153
years	5154
淌	5155
宕	5156
傷	5157
泾	5158
釜	5159
荟	5160
氯	5161
癣	5162
傾	5163
僅	5164
赡	5165
cnn	5166
働	5167
ea	5168
僑	5169
pokemon	5170
羹	5171
僕	5172
氪	5173
價	5174
蹊	5175
玳	5176
瑁	5177
can	5178
儀	5179
儂	5180
more	5181
轧	5182
億	5183
棘	5184
揾	5185
儉	5186
儕	5187
儘	5188
聒	5189
捺	5190
帜	5191
tan	5192
償	5193
㖊	5194
竣	5195
優	5196
儲	5197
dell	5198
thinkpad	5199
儷	5200
儼	5201
兇	5202
罂	5203
粟	5204
兌	5205
su	5206
瘆	5207
south	5208
korea	5209
麓	5210
喳	5211
吆	5212
zoom	5213
児	5214
sc	5215
gear	5216
啼	5217
adobe	5218
ah	5219
ef	5220
內	5221
兩	5222
冊	5223
ce	5224
冨	5225
冪	5226
bh	5227
冾	5228
凈	5229
浸	5230
coupe	5231
桀	5232
骜	5233
凍	5234
ofo	5235
娩	5236
凜	5237
凱	5238
garden	5239
bmw	5240
npc	5241
別	5242
刪	5243
則	5244
剉	5245
剋	5246
喋	5247
嚏	5248
隽	5249
sars	5250
罄	5251
mall	5252
剛	5253
剝	5254
耸	5255
剣	5256
dm	5257
惋	5258
貔	5259
貅	5260
dns	5261
剤	5262
創	5263
de	5264
剷	5265
twice	5266
劃	5267
劇	5268
卯	5269
iso	5270
劉	5271
劊	5272
friend	5273
andy	5274
劍	5275
island	5276
劑	5277
tc	5278
労	5279
勁	5280
動	5281
務	5282
勛	5283
fgo	5284
勝	5285
琉	5286
枇	5287
杷	5288
蒿	5289
et	5290
缉	5291
萱	5292
祟	5293
勞	5294
勢	5295
follow	5296
pu	5297
嘀	5298
勧	5299
勵	5300
勸	5301
xyz	5302
勻	5303
皋	5304
鹊	5305
匯	5306
al	5307
枭	5308
intel	5309
匱	5310
surface	5311
區	5312
岐	5313
憔	5314
悴	5315
協	5316
cj	5317
単	5318
奄	5319
樟	5320
蜈	5321
蚣	5322
鹌	5323
鹑	5324
鹃	5325
蛭	5326
em	5327
镊	5328
鳅	5329
籽	5330
卻	5331
厭	5332
pa	5333
team	5334
夭	5335
gd	5336
厲	5337
窖	5338
study	5339
汶	5340
厳	5341
鞘	5342
pr	5343
妳	5344
參	5345
ca	5346
co	5347
叢	5348
country	5349
吳	5350
吽	5351
呂	5352
咘	5353
ic	5354
員	5355
唄	5356
唸	5357
啓	5358
秧	5359
啞	5360
啟	5361
蔚	5362
cross	5363
啱	5364
漩	5365
啲	5366
酋	5367
喎	5368
collection	5369
喚	5370
烬	5371
肓	5372
喪	5373
bar	5374
琛	5375
喫	5376
喬	5377
fire	5378
yi	5379
kong	5380
喲	5381
営	5382
great	5383
psp	5384
嗆	5385
ha	5386
嗇	5387
亥	5388
舱	5389
勘	5390
嗎	5391
嗚	5392
赅	5393
嗰	5394
涅	5395
come	5396
嗶	5397
冢	5398
fbi	5399
嘆	5400
嘍	5401
body	5402
cover	5403
her	5404
嘔	5405
cr	5406
喺	5407
咁	5408
乜	5409
嘢	5410
嘅	5411
嘖	5412
嘗	5413
town	5414
sir	5415
嘜	5416
嚟	5417
exe	5418
瀚	5419
rich	5420
睾	5421
嘩	5422
嘮	5423
嘯	5424
曜	5425
湄	5426
how	5427
嘰	5428
iv	5429
苕	5430
off	5431
white	5432
嘸	5433
皈	5434
叻	5435
gtx	5436
msn	5437
噁	5438
噓	5439
噠	5440
噴	5441
噸	5442
糗	5443
wps	5444
噹	5445
liu	5446
嚀	5447
yu	5448
嚇	5449
掷	5450
beta	5451
嚐	5452
嚕	5453
昱	5454
嚥	5455
缕	5456
嚨	5457
嚮	5458
嚴	5459
拭	5460
邯	5461
鸵	5462
囂	5463
燮	5464
嘟	5465
戎	5466
囉	5467
掴	5468
kindle	5469
txt	5470
囑	5471
sun	5472
団	5473
囪	5474
醍	5475
洱	5476
family	5477
coffee	5478
bean	5479
that	5480
all	5481
囲	5482
work	5483
図	5484
圍	5485
sex	5486
bad	5487
瑛	5488
玟	5489
圓	5490
團	5491
摹	5492
坵	5493
堤	5494
垵	5495
執	5496
馄	5497
饨	5498
汾	5499
堅	5500
盅	5501
蛎	5502
報	5503
挞	5504
馕	5505
趵	5506
場	5507
re	5508
堿	5509
pt	5510
塊	5511
宸	5512
bob	5513
塗	5514
jp	5515
塚	5516
曳	5517
锵	5518
砚	5519
塢	5520
橇	5521
dsp	5522
噬	5523
锏	5524
塩	5525
翎	5526
炽	5527
鲵	5528
挝	5529
弑	5530
簪	5531
弩	5532
te	5533
鲈	5534
塭	5535
塵	5536
墊	5537
墘	5538
xl	5539
墜	5540
裱	5541
磋	5542
墮	5543
push	5544
墳	5545
xz	5546
墻	5547
荨	5548
祢	5549
驿	5550
central	5551
墾	5552
缪	5553
nbc	5554
骷	5555
髅	5556
孚	5557
骼	5558
au	5559
壆	5560
岑	5561
颊	5562
霏	5563
壇	5564
迂	5565
name	5566
乛	5567
壊	5568
facebook	5569
linkedin	5570
壓	5571
壘	5572
壞	5573
kd	5574
犷	5575
壟	5576
alphago	5577
alpha	5578
壢	5579
壩	5580
癜	5581
俾	5582
壯	5583
売	5584
惺	5585
chan	5586
壺	5587
壽	5588
夠	5589
夢	5590
奐	5591
long	5592
奧	5593
tree	5594
five	5595
奪	5596
stop	5597
奬	5598
奮	5599
妝	5600
right	5601
姉	5602
姍	5603
lost	5604
river	5605
娛	5606
婁	5607
斟	5608
婦	5609
酣	5610
ford	5611
婭	5612
侩	5613
媧	5614
wish	5615
媽	5616
倘	5617
pony	5618
痉	5619
挛	5620
turbo	5621
嫑	5622
嫚	5623
嫵	5624
嫻	5625
嬌	5626
嬤	5627
zero	5628
嬪	5629
嬰	5630
傣	5631
嬸	5632
孫	5633
san	5634
钠	5635
學	5636
孿	5637
実	5638
宮	5639
group	5640
痱	5641
谩	5642
oo	5643
寢	5644
谙	5645
寧	5646
審	5647
sky	5648
寫	5649
寬	5650
want	5651
敖	5652
埂	5653
ho	5654
make	5655
螨	5656
寵	5657
寶	5658
対	5659
専	5660
將	5661
專	5662
尋	5663
痧	5664
simple	5665
豌	5666
對	5667
導	5668
尷	5669
屆	5670
bl	5671
屍	5672
ff	5673
michael	5674
jackson	5675
屜	5676
峻	5677
屢	5678
馥	5679
黒	5680
black	5681
wave	5682
堀	5683
fu	5684
層	5685
屬	5686
岡	5687
峴	5688
齁	5689
battle	5690
島	5691
峽	5692
崗	5693
咣	5694
嵐	5695
昔	5696
嶄	5697
姝	5698
栾	5699
痪	5700
dha	5701
椭	5702
嶇	5703
嶋	5704
day	5705
嶼	5706
size	5707
奂	5708
炜	5709
瞩	5710
嶽	5711
巒	5712
巔	5713
wang	5714
巖	5715
lc	5716
帥	5717
師	5718
帰	5719
帳	5720
帶	5721
true	5722
幀	5723
幟	5724
捱	5725
map	5726
幣	5727
炙	5728
幫	5729
st	5730
幹	5731
炯	5732
queen	5733
幾	5734
little	5735
庁	5736
広	5737
筱	5738
庫	5739
廁	5740
泷	5741
廂	5742
wp	5743
run	5744
涟	5745
漪	5746
red	5747
cat	5748
廃	5749
缥	5750
缈	5751
bus	5752
廈	5753
will	5754
廚	5755
廝	5756
茁	5757
嗡	5758
廟	5759
廠	5760
伶	5761
悯	5762
廢	5763
喃	5764
廣	5765
廬	5766
廳	5767
lumia	5768
弒	5769
db	5770
弔	5771
沼	5772
強	5773
彅	5774
绥	5775
陂	5776
苯	5777
way	5778
彆	5779
彈	5780
nature	5781
彌	5782
彎	5783
劵	5784
锣	5785
淅	5786
猕	5787
彙	5788
sunday	5789
彿	5790
莜	5791
抿	5792
gary	5793
叩	5794
阖	5795
噘	5796
衢	5797
徑	5798
従	5799
mtv	5800
從	5801
徠	5802
暄	5803
復	5804
徴	5805
睬	5806
orz	5807
徹	5808
殉	5809
恆	5810
time	5811
呷	5812
簋	5813
恥	5814
搀	5815
悅	5816
悩	5817
ted	5818
悵	5819
裘	5820
砒	5821
悶	5822
悽	5823
raw	5824
惡	5825
惱	5826
愜	5827
愷	5828
態	5829
偌	5830
绡	5831
飒	5832
慘	5833
慚	5834
sound	5835
慟	5836
simon	5837
慣	5838
慫	5839
慮	5840
慳	5841
second	5842
code	5843
慶	5844
憂	5845
辗	5846
憊	5847
憐	5848
憚	5849
嬢	5850
跷	5851
rgb	5852
lady	5853
gaga	5854
昀	5855
憤	5856
憫	5857
槌	5858
welcome	5859
qt	5860
憲	5861
iherb	5862
迢	5863
憶	5864
婢	5865
汴	5866
戛	5867
慵	5868
懇	5869
應	5870
懲	5871
懷	5872
懸	5873
宥	5874
珅	5875
懺	5876
懼	5877
郜	5878
懾	5879
戀	5880
戲	5881
戶	5882
戻	5883
払	5884
bill	5885
flash	5886
fantasy	5887
der	5888
vista	5889
扱	5890
hot	5891
択	5892
拋	5893
佢	5894
拡	5895
挙	5896
挾	5897
del	5898
捨	5899
if	5900
掃	5901
melody	5902
掙	5903
掛	5904
夯	5905
绸	5906
bbs	5907
採	5908
掲	5909
揀	5910
bin	5911
皙	5912
airbnb	5913
揚	5914
換	5915
揮	5916
漉	5917
peter	5918
揶	5919
揹	5920
lin	5921
損	5922
搖	5923
搗	5924
kate	5925
搶	5926
摀	5927
尕	5928
摟	5929
story	5930
sohu	5931
摯	5932
阑	5933
恪	5934
摳	5935
摻	5936
撃	5937
well	5938
撈	5939
撐	5940
times	5941
帚	5942
撓	5943
撚	5944
咿	5945
褂	5946
撥	5947
memory	5948
撫	5949
璞	5950
撲	5951
晞	5952
嚓	5953
跋	5954
茸	5955
撻	5956
撿	5957
擁	5958
擄	5959
擇	5960
砺	5961
擊	5962
濮	5963
钵	5964
擋	5965
hey	5966
lake	5967
擔	5968
據	5969
琍	5970
擠	5971
bios	5972
蹩	5973
擡	5974
璇	5975
擬	5976
饽	5977
镑	5978
擰	5979
擱	5980
擲	5981
雎	5982
嘬	5983
瘀	5984
擴	5985
擷	5986
擺	5987
talk	5988
擼	5989
maps	5990
擾	5991
攏	5992
攔	5993
攙	5994
cry	5995
fun	5996
action	5997
gopro	5998
攜	5999
攝	6000
dhl	6001
ups	6002
curry	6003
攞	6004
攢	6005
攣	6006
攤	6007
again	6008
攪	6009
攬	6010
敍	6011
敗	6012
chrome	6013
敘	6014
珺	6015
敵	6016
數	6017
鼾	6018
斃	6019
ra	6020
斎	6021
斬	6022
斷	6023
晉	6024
晝	6025
噼	6026
暈	6027
暉	6028
猹	6029
暢	6030
暫	6031
暸	6032
曄	6033
曆	6034
jayz	6035
block	6036
曇	6037
曉	6038
曖	6039
曠	6040
dt	6041
曬	6042
書	6043
會	6044
蛟	6045
朧	6046
庾	6047
url	6048
朮	6049
枱	6050
柵	6051
栃	6052
栄	6053
桿	6054
ll	6055
park	6056
car	6057
forest	6058
條	6059
蔫	6060
梟	6061
嗳	6062
疱	6063
钾	6064
ddd	6065
晤	6066
棄	6067
some	6068
盹	6069
iq	6070
bing	6071
boost	6072
瞻	6073
棟	6074
棧	6075
club	6076
棲	6077
餮	6078
饕	6079
検	6080
楊	6081
radio	6082
楓	6083
鸨	6084
楨	6085
there	6086
屙	6087
業	6088
極	6089
榮	6090
槍	6091
ufo	6092
bbq	6093
町	6094
soul	6095
槓	6096
pop	6097
掳	6098
sci	6099
槤	6100
槳	6101
樁	6102
back	6103
eq	6104
樓	6105
標	6106
pose	6107
asics	6108
樞	6109
fresh	6110
樣	6111
権	6112
cool	6113
樫	6114
樸	6115
樹	6116
樺	6117
橋	6118
dos	6119
rar	6120
機	6121
miller	6122
荥	6123
橢	6124
檔	6125
檜	6126
ww	6127
hola	6128
color	6129
檢	6130
檯	6131
spa	6132
檳	6133
maggie	6134
檸	6135
檻	6136
櫃	6137
嗔	6138
櫚	6139
ya	6140
check	6141
櫛	6142
櫥	6143
puma	6144
櫸	6145
cindy	6146
櫻	6147
欄	6148
lo	6149
權	6150
喰	6151
欒	6152
欖	6153
欽	6154
歎	6155
歐	6156
歓	6157
歛	6158
歯	6159
歲	6160
歷	6161
lt	6162
殘	6163
gigi	6164
outlook	6165
殞	6166
荼	6167
殤	6168
殭	6169
neo	6170
殯	6171
殲	6172
殺	6173
have	6174
today	6175
睑	6176
殼	6177
毀	6178
毆	6179
毘	6180
竺	6181
氈	6182
ray	6183
氣	6184
氫	6185
汆	6186
ru	6187
汎	6188
汙	6189
決	6190
沒	6191
huawei	6192
沖	6193
況	6194
arm	6195
洩	6196
taylor	6197
swift	6198
ts	6199
洶	6200
with	6201
浬	6202
涇	6203
cloud	6204
ipod	6205
zara	6206
涼	6207
灏	6208
mit	6209
tw	6210
淒	6211
豉	6212
cfa	6213
frm	6214
eos	6215
music	6216
ua	6217
samsung	6218
睽	6219
淚	6220
dance	6221
sunny	6222
淨	6223
淩	6224
淪	6225
淵	6226
済	6227
渉	6228
渋	6229
渙	6230
衮	6231
beautiful	6232
蜕	6233
狈	6234
減	6235
渦	6236
september	6237
測	6238
渾	6239
湊	6240
準	6241
溝	6242
垦	6243
撰	6244
尻	6245
溫	6246
叟	6247
they	6248
毓	6249
泓	6250
绾	6251
open	6252
ka	6253
溼	6254
滄	6255
滅	6256
滌	6257
con	6258
ep	6259
滙	6260
茼	6261
洵	6262
滝	6263
耷	6264
撅	6265
ft	6266
滬	6267
pos	6268
咫	6269
kimi	6270
滯	6271
kim	6272
studio	6273
滲	6274
鬟	6275
滷	6276
蔗	6277
柑	6278
lucky	6279
滸	6280
滾	6281
灞	6282
黍	6283
滿	6284
漁	6285
his	6286
漣	6287
linux	6288
york	6289
漬	6290
漲	6291
漸	6292
恁	6293
漿	6294
asp	6295
潑	6296
潛	6297
jimmy	6298
潤	6299
跎	6300
潧	6301
潰	6302
澀	6303
澆	6304
澗	6305
澤	6306
澱	6307
濁	6308
kai	6309
濃	6310
濕	6311
濘	6312
濟	6313
濤	6314
濫	6315
濱	6316
job	6317
濺	6318
ro	6319
濾	6320
瀅	6321
瀆	6322
瀉	6323
瀋	6324
wto	6325
瀏	6326
瀕	6327
eb	6328
礁	6329
旻	6330
io	6331
wap	6332
soho	6333
loft	6334
瀘	6335
ibm	6336
蕃	6337
瀝	6338
瀞	6339
瀟	6340
瀧	6341
iptv	6342
瀨	6343
瀬	6344
weibo	6345
paris	6346
cut	6347
瀾	6348
灑	6349
灘	6350
灝	6351
仟	6352
women	6353
灣	6354
災	6355
烏	6356
煒	6357
煖	6358
hpv	6359
煙	6360
煥	6361
english	6362
煩	6363
熒	6364
熱	6365
熾	6366
燁	6367
燄	6368
燈	6369
燉	6370
燒	6371
燙	6372
燜	6373
營	6374
燦	6375
咲	6376
燭	6377
燴	6378
燼	6379
爍	6380
tag	6381
爐	6382
爛	6383
熨	6384
鲅	6385
爭	6386
twitter	6387
菅	6388
爲	6389
爺	6390
坍	6391
爾	6392
蟾	6393
觊	6394
觎	6395
牆	6396
牽	6397
犢	6398
犧	6399
狀	6400
狹	6401
狽	6402
猙	6403
strong	6404
ace	6405
two	6406
啫	6407
猶	6408
獄	6409
獅	6410
痨	6411
獎	6412
match	6413
rmvb	6414
廿	6415
獣	6416
贰	6417
瑾	6418
shopping	6419
canada	6420
獰	6421
噌	6422
vogue	6423
taiwan	6424
蜷	6425
fashion	6426
獲	6427
獵	6428
cv	6429
獷	6430
獸	6431
gmat	6432
sat	6433
獺	6434
獻	6435
cb	6436
雹	6437
獼	6438
現	6439
琺	6440
瑋	6441
芊	6442
ken	6443
狒	6444
tiger	6445
瑠	6446
瑣	6447
彗	6448
瑤	6449
band	6450
瑩	6451
瑪	6452
璉	6453
璽	6454
瓊	6455
access	6456
瓏	6457
淼	6458
甌	6459
甕	6460
bruce	6461
lee	6462
np	6463
natural	6464
產	6465
産	6466
甾	6467
please	6468
畝	6469
畢	6470
莘	6471
safari	6472
sign	6473
畫	6474
異	6475
畳	6476
疇	6477
疊	6478
麸	6479
cpi	6480
痙	6481
plc	6482
旯	6483
嘭	6484
痠	6485
lcd	6486
痺	6487
焗	6488
international	6489
瘋	6490
tee	6491
瘍	6492
覆	6493
捻	6494
菓	6495
瘓	6496
look	6497
瘡	6498
瘧	6499
煦	6500
眈	6501
cia	6502
help	6503
ben	6504
療	6505
沱	6506
馗	6507
窕	6508
癇	6509
癡	6510
褶	6511
癢	6512
www	6513
dl	6514
癥	6515
癬	6516
癮	6517
癱	6518
癲	6519
發	6520
狍	6521
皚	6522
聆	6523
皰	6524
桢	6525
皺	6526
frank	6527
盃	6528
uv	6529
erp	6530
sg	6531
盜	6532
armani	6533
盞	6534
sea	6535
煸	6536
space	6537
盡	6538
監	6539
盤	6540
盧	6541
盪	6542
県	6543
眞	6544
眾	6545
joy	6546
皑	6547
睏	6548
犒	6549
睜	6550
睞	6551
瞇	6552
瞋	6553
瞓	6554
捯	6555
饬	6556
瞞	6557
瞼	6558
矇	6559
net	6560
矚	6561
矯	6562
硯	6563
碩	6564
確	6565
碼	6566
磚	6567
dear	6568
磯	6569
chicken	6570
dx	6571
礎	6572
礙	6573
礦	6574
before	6575
礪	6576
哧	6577
礫	6578
丨	6579
祿	6580
帷	6581
禍	6582
禎	6583
force	6584
han	6585
禦	6586
禪	6587
蔼	6588
禮	6589
mg	6590
禱	6591
禿	6592
稅	6593
pet	6594
bye	6595
稟	6596
熘	6597
icon	6598
稱	6599
稲	6600
穀	6601
charles	6602
穌	6603
積	6604
visa	6605
henry	6606
穎	6607
穢	6608
vision	6609
sql	6610
law	6611
穩	6612
窩	6613
窪	6614
叒	6615
叕	6616
窮	6617
gui	6618
pi	6619
嬲	6620
窯	6621
窺	6622
竄	6623
竅	6624
竇	6625
gap	6626
竊	6627
競	6628
ch	6629
笹	6630
pdf	6631
筆	6632
铐	6633
筊	6634
anti	6635
筍	6636
箇	6637
箏	6638
箝	6639
hdr	6640
version	6641
節	6642
範	6643
july	6644
築	6645
篠	6646
篤	6647
chris	6648
篩	6649
簍	6650
簡	6651
ubuntu	6652
moto	6653
簦	6654
簫	6655
muji	6656
簷	6657
簽	6658
window	6659
簾	6660
籃	6661
swatch	6662
籌	6663
籐	6664
籟	6665
籠	6666
籬	6667
籮	6668
籲	6669
粄	6670
ruby	6671
粧	6672
粵	6673
chi	6674
糞	6675
肴	6676
糧	6677
糬	6678
糰	6679
糾	6680
孑	6681
紀	6682
justin	6683
紂	6684
約	6685
紉	6686
漯	6687
紋	6688
納	6689
紐	6690
紓	6691
純	6692
紗	6693
紘	6694
紙	6695
link	6696
叁	6697
級	6698
褚	6699
enter	6700
紛	6701
紜	6702
紡	6703
細	6704
莪	6705
枰	6706
紳	6707
紹	6708
shop	6709
紺	6710
哋	6711
終	6712
angel	6713
蛤	6714
br	6715
絃	6716
迩	6717
wiki	6718
婺	6719
組	6720
袅	6721
谝	6722
絆	6723
allen	6724
鲶	6725
湉	6726
結	6727
絕	6728
絞	6729
絡	6730
絢	6731
泺	6732
給	6733
aaa	6734
絨	6735
end	6736
統	6737
碓	6738
絲	6739
絳	6740
絵	6741
絶	6742
絹	6743
綁	6744
栎	6745
綏	6746
囍	6747
綑	6748
冽	6749
經	6750
img	6751
継	6752
続	6753
綜	6754
綫	6755
伱	6756
綬	6757
blog	6758
綱	6759
網	6760
綴	6761
綵	6762
綸	6763
綺	6764
綻	6765
op	6766
down	6767
secret	6768
base	6769
綽	6770
綾	6771
綿	6772
edu	6773
galaxy	6774
緊	6775
緋	6776
緑	6777
藁	6778
罒	6779
緒	6780
緘	6781
com	6782
線	6783
緝	6784
緞	6785
締	6786
緣	6787
編	6788
緩	6789
圩	6790
硪	6791
緬	6792
锕	6793
驮	6794
緯	6795
練	6796
lily	6797
卟	6798
芃	6799
緹	6800
mail	6801
chen	6802
rick	6803
緻	6804
縄	6805
history	6806
縈	6807
縛	6808
縝	6809
縣	6810
縫	6811
縮	6812
lulu	6813
縱	6814
縴	6815
縷	6816
photoshop	6817
茱	6818
榛	6819
總	6820
take	6821
績	6822
trump	6823
繃	6824
涐	6825
stage	6826
繆	6827
繋	6828
織	6829
繕	6830
繚	6831
spring	6832
繡	6833
繩	6834
繪	6835
繭	6836
仃	6837
繳	6838
繹	6839
繼	6840
think	6841
繽	6842
續	6843
纍	6844
旳	6845
摞	6846
stay	6847
纏	6848
pizza	6849
纓	6850
纖	6851
纜	6852
丿	6853
嘁	6854
纰	6855
蓦	6856
缽	6857
罰	6858
罵	6859
mountain	6860
镐	6861
罷	6862
羈	6863
羣	6864
羥	6865
羨	6866
蒽	6867
習	6868
翹	6869
聖	6870
聯	6871
聰	6872
痦	6873
爻	6874
鲛	6875
谧	6876
seven	6877
聲	6878
聳	6879
聴	6880
orange	6881
職	6882
橹	6883
囡	6884
聽	6885
聾	6886
肅	6887
http	6888
胴	6889
index	6890
脅	6891
脇	6892
after	6893
脈	6894
脛	6895
jerry	6896
脣	6897
脩	6898
脫	6899
echo	6900
脳	6901
wind	6902
candy	6903
脹	6904
腎	6905
腦	6906
腫	6907
腳	6908
腸	6909
膚	6910
膠	6911
膩	6912
膽	6913
膾	6914
膿	6915
臉	6916
臍	6917
臓	6918
grace	6919
臟	6920
臥	6921
臨	6922
臺	6923
泫	6924
iii	6925
與	6926
興	6927
舉	6928
舊	6929
舎	6930
舗	6931
舾	6932
morning	6933
艙	6934
艦	6935
艱	6936
艷	6937
芻	6938
via	6939
茲	6940
涠	6941
荊	6942
荖	6943
踊	6944
piece	6945
荘	6946
莊	6947
莖	6948
莢	6949
莧	6950
莿	6951
菈	6952
kevin	6953
萊	6954
萩	6955
萵	6956
葉	6957
葦	6958
pan	6959
葯	6960
窈	6961
ian	6962
ly	6963
珉	6964
葷	6965
蒐	6966
蒔	6967
vpn	6968
蒞	6969
pv	6970
蒟	6971
蒼	6972
honey	6973
蓆	6974
蓋	6975
蓮	6976
蔔	6977
蔘	6978
course	6979
蔣	6980
蔥	6981
㑩	6982
蔭	6983
special	6984
蕁	6985
jo	6986
蕎	6987
蕩	6988
叵	6989
蕪	6990
蕭	6991
薈	6992
滁	6993
薊	6994
薑	6995
薔	6996
薦	6997
薩	6998
藍	6999
藝	7000
year	7001
藥	7002
藹	7003
admin	7004
蘆	7005
蘇	7006
蘊	7007
蘋	7008
蘚	7009
䌷	7010
蘿	7011
find	7012
處	7013
虛	7014
yumi	7015
tiffany	7016
侑	7017
虜	7018
號	7019
虧	7020
蚵	7021
蛻	7022
蜆	7023
蝕	7024
蝟	7025
蝦	7026
蝨	7027
蝸	7028
螞	7029
螢	7030
蟄	7031
蟎	7032
蟬	7033
cream	7034
蟲	7035
蟻	7036
蠅	7037
alice	7038
pvc	7039
蠍	7040
蠔	7041
蠟	7042
蠣	7043
蠱	7044
蠶	7045
蠻	7046
衆	7047
術	7048
衛	7049
衝	7050
衞	7051
衹	7052
sam	7053
paul	7054
袞	7055
use	7056
裊	7057
nana	7058
補	7059
裝	7060
歘	7061
裡	7062
製	7063
複	7064
褻	7065
襠	7066
襪	7067
襬	7068
襯	7069
襲	7070
規	7071
覓	7072
視	7073
覦	7074
覧	7075
親	7076
覬	7077
観	7078
娣	7079
read	7080
覷	7081
覺	7082
覽	7083
觸	7084
road	7085
訂	7086
small	7087
跻	7088
訊	7089
討	7090
訓	7091
訕	7092
訖	7093
託	7094
記	7095
訛	7096
seo	7097
訝	7098
訟	7099
訣	7100
訥	7101
訪	7102
設	7103
許	7104
訳	7105
訶	7106
診	7107
註	7108
pin	7109
詆	7110
詐	7111
詔	7112
評	7113
angela	7114
詛	7115
詞	7116
詠	7117
詡	7118
詢	7119
詣	7120
幢	7121
試	7122
skin	7123
詫	7124
詬	7125
詭	7126
span	7127
詮	7128
詰	7129
話	7130
該	7131
詳	7132
詼	7133
誅	7134
誇	7135
誌	7136
認	7137
誕	7138
誘	7139
nikon	7140
canon	7141
des	7142
語	7143
誠	7144
誡	7145
誣	7146
power	7147
誤	7148
sina	7149
men	7150
誥	7151
誦	7152
誨	7153
說	7154
説	7155
哌	7156
誰	7157
課	7158
誹	7159
誼	7160
調	7161
煳	7162
諄	7163
談	7164
諏	7165
諒	7166
論	7167
tpp	7168
ming	7169
諗	7170
諜	7171
諦	7172
諧	7173
諫	7174
諭	7175
諮	7176
room	7177
land	7178
諱	7179
諳	7180
諷	7181
諸	7182
nu	7183
諺	7184
諾	7185
謀	7186
謁	7187
謂	7188
謄	7189
謊	7190
謎	7191
huang	7192
琰	7193
classic	7194
謐	7195
謔	7196
謗	7197
謙	7198
講	7199
謝	7200
human	7201
謠	7202
㓥	7203
謨	7204
謬	7205
謹	7206
謾	7207
譁	7208
證	7209
譎	7210
譏	7211
識	7212
孃	7213
譙	7214
譚	7215
譜	7216
譯	7217
議	7218
譲	7219
譴	7220
護	7221
science	7222
讀	7223
變	7224
image	7225
讓	7226
讞	7227
豈	7228
豊	7229
豎	7230
豐	7231
joe	7232
豔	7233
豬	7234
core	7235
貓	7236
貝	7237
貞	7238
sns	7239
負	7240
財	7241
貢	7242
貧	7243
hotel	7244
貨	7245
sui	7246
販	7247
貪	7248
貫	7249
責	7250
wing	7251
貯	7252
貰	7253
week	7254
貳	7255
貴	7256
momo	7257
貶	7258
買	7259
貸	7260
費	7261
貼	7262
貽	7263
貿	7264
賀	7265
賁	7266
賂	7267
cookie	7268
賃	7269
賄	7270
break	7271
資	7272
賈	7273
賊	7274
賑	7275
賓	7276
賜	7277
賞	7278
eye	7279
mind	7280
賠	7281
賡	7282
賢	7283
賣	7284
賤	7285
賦	7286
質	7287
賬	7288
賭	7289
ago	7290
賴	7291
賺	7292
購	7293
賽	7294
page	7295
贅	7296
nick	7297
fish	7298
gov	7299
娓	7300
balance	7301
贈	7302
ebay	7303
贊	7304
贍	7305
贏	7306
贓	7307
贖	7308
set	7309
贛	7310
趕	7311
food	7312
plan	7313
趙	7314
趨	7315
amy	7316
跡	7317
age	7318
yahoo	7319
踉	7320
踐	7321
踴	7322
蹣	7323
蹤	7324
蹼	7325
躉	7326
change	7327
躊	7328
other	7329
躋	7330
璎	7331
躍	7332
躪	7333
mobile	7334
軀	7335
mkv	7336
車	7337
軋	7338
軌	7339
軍	7340
軒	7341
軟	7342
転	7343
mode	7344
tab	7345
軸	7346
軼	7347
軽	7348
kuso	7349
軾	7350
較	7351
載	7352
輒	7353
輓	7354
輔	7355
輕	7356
輛	7357
輟	7358
brand	7359
camera	7360
輩	7361
輪	7362
輯	7363
輸	7364
輻	7365
輾	7366
輿	7367
轄	7368
轅	7369
轆	7370
轉	7371
轍	7372
bot	7373
轎	7374
轟	7375
辦	7376
qa	7377
辭	7378
full	7379
va	7380
elle	7381
辮	7382
辯	7383
農	7384
辺	7385
辻	7386
逕	7387
jason	7388
這	7389
連	7390
週	7391
進	7392
運	7393
過	7394
達	7395
center	7396
铎	7397
違	7398
遙	7399
遜	7400
遞	7401
遠	7402
適	7403
遲	7404
遶	7405
遷	7406
選	7407
tbs	7408
遺	7409
遼	7410
test	7411
reading	7412
opera	7413
邁	7414
還	7415
邇	7416
邊	7417
邏	7418
郤	7419
郵	7420
into	7421
post	7422
hdmi	7423
郷	7424
than	7425
鄉	7426
jean	7427
鄒	7428
california	7429
鄔	7430
delete	7431
鄧	7432
鄭	7433
spark	7434
bella	7435
鄰	7436
鄲	7437
鄺	7438
醃	7439
醜	7440
醞	7441
醫	7442
醬	7443
釀	7444
釁	7445
lock	7446
釋	7447
釗	7448
grand	7449
tour	7450
釘	7451
針	7452
釣	7453
ngo	7454
釦	7455
under	7456
釧	7457
釵	7458
鈀	7459
鈉	7460
鈍	7461
鈎	7462
鈔	7463
鈕	7464
data	7465
鈞	7466
eric	7467
thomas	7468
鈣	7469
鈦	7470
鈪	7471
鈴	7472
鈺	7473
鈾	7474
alexander	7475
鉀	7476
givenchy	7477
鉅	7478
鉉	7479
鉑	7480
瑙	7481
left	7482
鉗	7483
鉚	7484
鉛	7485
鉤	7486
鉻	7487
銀	7488
銃	7489
銅	7490
銑	7491
銓	7492
chocolate	7493
銖	7494
銘	7495
銜	7496
銬	7497
stone	7498
london	7499
銭	7500
銳	7501
銷	7502
銹	7503
鋁	7504
鋅	7505
鋒	7506
鋤	7507
鋪	7508
鋰	7509
maker	7510
jeff	7511
oled	7512
鋸	7513
鋼	7514
錄	7515
錐	7516
kanye	7517
錚	7518
錠	7519
錢	7520
booking	7521
錦	7522
錨	7523
future	7524
錫	7525
錮	7526
錯	7527
pure	7528
microsoft	7529
録	7530
錳	7531
錶	7532
oa	7533
鍋	7534
鍍	7535
鍛	7536
application	7537
鍥	7538
鍰	7539
鍵	7540
鍺	7541
鍾	7542
鎂	7543
close	7544
鎊	7545
鎔	7546
east	7547
鎖	7548
鎚	7549
鎧	7550
鎬	7551
鎮	7552
鎳	7553
japan	7554
service	7555
鏈	7556
鏗	7557
鏘	7558
鏞	7559
鏟	7560
鏡	7561
鏢	7562
鏤	7563
鏽	7564
鐮	7565
鐲	7566
鐳	7567
sbs	7568
kbs	7569
mbc	7570
鐵	7571
instagram	7572
鐸	7573
bear	7574
has	7575
鐺	7576
鑄	7577
鑊	7578
鑒	7579
spotify	7580
鑣	7581
鑰	7582
鑼	7583
鑽	7584
wear	7585
鑾	7586
america	7587
鑿	7588
铤	7589
閃	7590
閉	7591
閎	7592
閏	7593
閔	7594
閘	7595
news	7596
acca	7597
閡	7598
閥	7599
wii	7600
閨	7601
閩	7602
閱	7603
business	7604
閲	7605
閹	7606
閻	7607
閾	7608
闆	7609
闍	7610
college	7611
program	7612
闔	7613
闕	7614
闖	7615
闘	7616
adi	7617
關	7618
闡	7619
闢	7620
陝	7621
陞	7622
陣	7623
陰	7624
陳	7625
陸	7626
険	7627
陽	7628
mary	7629
anna	7630
隊	7631
隕	7632
our	7633
際	7634
隣	7635
隨	7636
險	7637
隱	7638
隴	7639
隸	7640
雋	7641
雑	7642
fit	7643
雖	7644
雙	7645
雛	7646
雜	7647
雞	7648
rc	7649
離	7650
xa	7651
難	7652
雲	7653
電	7654
霊	7655
sogo	7656
霧	7657
vol	7658
霽	7659
was	7660
靂	7661
靄	7662
ips	7663
靚	7664
靜	7665
靦	7666
鞏	7667
living	7668
鞦	7669
韆	7670
richard	7671
韋	7672
tokyo	7673
韌	7674
韓	7675
jessica	7676
韜	7677
韻	7678
響	7679
頁	7680
頂	7681
頃	7682
項	7683
順	7684
november	7685
須	7686
頌	7687
預	7688
頑	7689
most	7690
頒	7691
頓	7692
university	7693
agoda	7694
qe	7695
頗	7696
領	7697
wall	7698
頜	7699
頡	7700
頤	7701
頭	7702
頰	7703
santa	7704
chicago	7705
gmail	7706
頷	7707
頸	7708
canmake	7709
頹	7710
media	7711
頻	7712
頼	7713
顆	7714
題	7715
額	7716
顎	7717
顏	7718
apec	7719
顔	7720
願	7721
zone	7722
model	7723
顛	7724
amazon	7725
類	7726
smap	7727
顧	7728
顫	7729
顯	7730
emily	7731
顱	7732
howard	7733
顴	7734
颯	7735
颱	7736
颳	7737
颶	7738
bell	7739
颼	7740
飄	7741
飆	7742
飛	7743
飩	7744
pepper	7745
voice	7746
飪	7747
dyson	7748
飯	7749
john	7750
飲	7751
johnson	7752
smith	7753
飼	7754
飽	7755
vivi	7756
nasa	7757
飾	7758
餃	7759
餅	7760
餉	7761
養	7762
餌	7763
餒	7764
sale	7765
餓	7766
餘	7767
fx	7768
餚	7769
餛	7770
餞	7771
餡	7772
館	7773
餵	7774
餾	7775
饅	7776
饈	7777
饋	7778
饌	7779
饍	7780
饑	7781
饒	7782
ib	7783
act	7784
饗	7785
饞	7786
馭	7787
sweet	7788
non	7789
player	7790
stephen	7791
馮	7792
馳	7793
馴	7794
駁	7795
駄	7796
駅	7797
駆	7798
駐	7799
sarah	7800
駒	7801
駕	7802
駛	7803
駝	7804
駭	7805
works	7806
駱	7807
駿	7808
騁	7809
騎	7810
騏	7811
jones	7812
騙	7813
place	7814
騨	7815
speed	7816
騰	7817
focus	7818
騷	7819
驀	7820
驅	7821
驊	7822
audi	7823
驍	7824
驒	7825
驕	7826
驗	7827
驚	7828
驛	7829
驟	7830
驢	7831
驥	7832
骯	7833
髏	7834
髒	7835
體	7836
髖	7837
髮	7838
鬆	7839
鬍	7840
oil	7841
鬚	7842
鬢	7843
鬧	7844
鬱	7845
魘	7846
魚	7847
魯	7848
魷	7849
鮑	7850
鮪	7851
rebecca	7852
鮭	7853
鮮	7854
cook	7855
research	7856
鯉	7857
鯊	7858
鯖	7859
鯛	7860
june	7861
machine	7862
鯨	7863
uniqlo	7864
鯰	7865
uk	7866
鯽	7867
鰍	7868
鰓	7869
monday	7870
鰭	7871
鰲	7872
鰻	7873
鰾	7874
鱈	7875
鱉	7876
鱔	7877
鱗	7878
鱷	7879
鱸	7880
鳩	7881
鳴	7882
鳶	7883
鴉	7884
鴕	7885
tips	7886
鴛	7887
鴦	7888
鴨	7889
von	7890
鴻	7891
鴿	7892
鵑	7893
鵜	7894
鵝	7895
鵡	7896
鵬	7897
鵰	7898
鵲	7899
rmk	7900
鶘	7901
鶩	7902
鶯	7903
鶴	7904
鷗	7905
鷲	7906
鷹	7907
鷺	7908
brown	7909
鸚	7910
鸞	7911
鹵	7912
鹹	7913
鹼	7914
鹽	7915
麗	7916
麥	7917
麩	7918
麴	7919
麵	7920
麺	7921
omega	7922
麼	7923
黃	7924
點	7925
黨	7926
黴	7927
齊	7928
齋	7929
vm	7930
齒	7931
spf	7932
swiss	7933
review	7934
price	7935
齡	7936
齢	7937
齣	7938
齦	7939
龍	7940
龐	7941
龔	7942
email	7943
龕	7944
final	7945
龜	7946
︰	7947
︱	7948
︶	7949
social	7950
︿	7951
﹁	7952
﹂	7953
﹍	7954
﹏	7955
oracle	7956
﹐	7957
﹑	7958
﹒	7959
﹔	7960
﹕	7961
﹖	7962
﹗	7963
﹙	7964
﹚	7965
﹝	7966
﹞	7967
eleven	7968
﹡	7969
rd	7970
﹣	7971
`	7972
|	7973
｡	7974
｢	7975
｣	7976
､	7977
･	7978
ｯ	7979
ｰ	7980
ｲ	7981
ｸ	7982
ｼ	7983
ｽ	7984
beauty	7985
ﾄ	7986
ﾉ	7987
ﾌ	7988
ﾗ	7989
ﾙ	7990
ﾝ	7991
ﾞ	7992
ﾟ	7993
￣	7994
￥	7995
👍	7996
🔥	7997
head	7998
😂	7999
message	8000
😎	8001
yam	8002
10	8003
2017	8004
12	8005
css	8006
11	8007
2016	8008
20	8009
30	8010
15	8011
06	8012
##s	8013
2015	8014
16	8015
14	8016
18	8017
13	8018
24	8019
17	8020
2014	8021
21	8022
22	8023
manager	8024
19	8025
25	8026
23	8027
hair	8028
100	8029
urban	8030
00	8031
list	8032
05	8033
2013	8034
##a	8035
title	8036
03	8037
09	8038
longchamp	8039
08	8040
28	8041
50	8042
01	8043
04	8044
27	8045
harry	8046
02	8047
2012	8048
netflix	8049
alex	8050
26	8051
##e	8052
07	8053
trip	8054
glass	8055
29	8056
2011	8057
40	8058
##t	8059
2010	8060
##o	8061
bim	8062
##d	8063
##i	8064
marc	8065
2009	8066
##n	8067
##m	8068
31	8069
##c	8070
##l	8071
##y	8072
##r	8073
##g	8074
2008	8075
60	8076
200	8077
##p	8078
80	8079
##f	8080
pixnet	8081
90	8082
tripadvisor	8083
500	8084
##er	8085
##k	8086
35	8087
##h	8088
2007	8089
2000	8090
70	8091
##b	8092
##x	8093
##u	8094
matt	8095
45	8096
300	8097
cam	8098
wine	8099
32	8100
1000	8101
2006	8102
48	8103
36	8104
38	8105
3d	8106
##w	8107
##ing	8108
55	8109
ctrip	8110
##on	8111
##v	8112
33	8113
##の	8114
34	8115
400	8116
id	8117
2005	8118
37	8119
llc	8120
99	8121
42	8122
39	8123
000	8124
##an	8125
cake	8126
41	8127
51	8128
52	8129
46	8130
49	8131
43	8132
53	8133
44	8134
##z	8135
58	8136
royal	8137
59	8138
2004	8139
56	8140
##か	8141
bay	8142
5000	8143
2003	8144
47	8145
blogthis	8146
54	8147
##le	8148
150	8149
2018	8150
57	8151
75	8152
##in	8153
##mm	8154
800	8155
3000	8156
65	8157
2001	8158
360	8159
movie	8160
95	8161
120	8162
##ng	8163
##を	8164
##us	8165
##に	8166
てす	8167
600	8168
##te	8169
85	8170
2002	8171
88	8172
##ed	8173
html	8174
order	8175
ncc	8176
64	8177
##て	8178
volvo	8179
##al	8180
##ic	8181
##は	8182
##ia	8183
mango	8184
##と	8185
72	8186
##q	8187
98	8188
nbsp	8189
##ce	8190
##en	8191
##is	8192
##ra	8193
el	8194
##es	8195
##j	8196
1999	8197
4g	8198
beach	8199
##cm	8200
3c	8201
##お	8202
66	8203
86	8204
##ne	8205
hill	8206
62	8207
cdma	8208
daily	8209
##re	8210
101	8211
68	8212
##tion	8213
1998	8214
67	8215
##ch	8216
##or	8217
##na	8218
96	8219
pinterest	8220
97	8221
63	8222
##ta	8223
said	8224
1997	8225
mp3	8226
self	8227
700	8228
##ll	8229
92	8230
1995	8231
61	8232
76	8233
bonnie	8234
250	8235
##ie	8236
##ma	8237
add	8238
110	8239
78	8240
##ion	8241
kl	8242
77	8243
6000	8244
##th	8245
##st	8246
94	8247
ec	8248
##se	8249
##et	8250
69	8251
180	8252
105	8253
81	8254
89	8255
ghost	8256
79	8257
93	8258
1990	8259
1996	8260
##ck	8261
##も	8262
##ly	8263
web885	8264
106	8265
2020	8266
91	8267
##ge	8268
4000	8269
path	8270
1500	8271
daniel	8272
isbn	8273
1994	8274
org	8275
##ry	8276
ikea	8277
0fork	8278
73	8279
3g	8280
##ter	8281
##ar	8282
card	8283
71	8284
vi	8285
82	8286
##la	8287
xperia	8288
130	8289
1970	8290
83	8291
prime	8292
87	8293
140	8294
##os	8295
##el	8296
tea	8297
74	8298
##ml	8299
p2p	8300
tina	8301
84	8302
mike	8303
##る	8304
tue	8305
ann	8306
posted	8307
language	8308
##at	8309
##ン	8310
##man	8311
##ル	8312
1980	8313
##it	8314
104	8315
##てす	8316
##me	8317
sap	8318
##り	8319
1992	8320
##de	8321
state	8322
##nt	8323
class	8324
1993	8325
##mb	8326
##ve	8327
##da	8328
160	8329
file	8330
##い	8331
##ps	8332
から	8333
##to	8334
1989	8335
https	8336
##son	8337
##ke	8338
ebd	8339
apk	8340
##um	8341
oct	8342
brake	8343
##ス	8344
film	8345
1200	8346
する	8347
1991	8348
##こ	8349
##ない	8350
##ss	8351
㖞	8352
900	8353
lofter	8354
1988	8355
4k	8356
##as	8357
leonardo	8358
wed	8359
win7	8360
##co	8361
sense	8362
o2o	8363
##go	8364
235	8365
1949	8366
drive	8367
しい	8368
vfm	8369
##id	8370
jr	8371
##ey	8372
123	8373
rss	8374
##sa	8375
##ro	8376
##am	8377
##no	8378
thu	8379
fri	8380
350	8381
##sh	8382
##ki	8383
103	8384
comments	8385
##のて	8386
霈	8387
##pe	8388
##ine	8389
1987	8390
8000	8391
##mi	8392
##ton	8393
wordpress	8394
banner	8395
church	8396
1986	8397
1985	8398
##ment	8399
107	8400
win10	8401
##ld	8402
##li	8403
victoria	8404
##rs	8405
##ri	8406
main	8407
##rd	8408
##ます	8409
して	8410
をお	8411
##io	8412
1984	8413
paypal	8414
policy	8415
##ty	8416
102	8417
##ba	8418
wong	8419
##ga	8420
privacy	8421
##ny	8422
##by	8423
##ur	8424
##hz	8425
1982	8426
##ang	8427
265	8428
netscape	8429
108	8430
##ka	8431
##ad	8432
survey	8433
1979	8434
1950	8435
wikia	8436
5g	8437
##tor	8438
##kg	8439
1983	8440
##rt	8441
campaign	8442
2500	8443
##ct	8444
##ts	8445
control	8446
carol	8447
170	8448
api	8449
##ns	8450
365	8451
##な	8452
##ao	8453
##ら	8454
##し	8455
##nd	8456
163	8457
には	8458
518	8459
##ya	8460
##il	8461
pierre	8462
0020	8463
belle	8464
897	8465
hotels	8466
##ian	8467
のお	8468
125	8469
6606	8470
##ers	8471
##day	8472
##ay	8473
##line	8474
##く	8475
##す	8476
##be	8477
dragon	8478
yamservice	8479
10000	8480
##dy	8481
##ies	8482
1978	8483
david	8484
##ha	8485
1960	8486
その	8487
##ot	8488
1981	8489
##va	8490
115	8491
##mo	8492
##land	8493
ltxsw	8494
##ation	8495
220	8496
##pa	8497
##ol	8498
1945	8499
7000	8500
table	8501
450	8502
season	8503
##ue	8504
##ト	8505
##ca	8506
##om	8507
oops	8508
##ure	8509
##ん	8510
##き	8511
した	8512
dean	8513
##bo	8514
240	8515
ferragamo	8516
energy	8517
##way	8518
##から	8519
4600	8520
##ko	8521
##do	8522
##un	8523
4s	8524
il	8525
corporation	8526
starbucks	8527
168	8528
pre	8529
louis	8530
modern	8531
##ni	8532
herme	8533
978	8534
##up	8535
##ds	8536
します	8537
kiehl	8538
128	8539
##ee	8540
##た	8541
##ive	8542
××	8543
mon	8544
##cc	8545
##ました	8546
##ble	8547
##ity	8548
charlie	8549
114	8550
##ex	8551
##ler	8552
##ap	8553
##book	8554
20000	8555
##ice	8556
##km	8557
esc	8558
##mg	8559
##ms	8560
menu	8561
##cy	8562
##view	8563
server	8564
station	8565
teddy	8566
##lo	8567
##ね	8568
##oo	8569
1600	8570
step1	8571
135	8572
inc	8573
1976	8574
##net	8575
##ls	8576
##ii	8577
step2	8578
1300	8579
ios9	8580
##box	8581
##ley	8582
111	8583
280	8584
##ent	8585
##les	8586
いいえ	8587
buffet	8588
s8	8589
atom	8590
##said	8591
etf	8592
2025	8593
adidas	8594
1958	8595
##ber	8596
##ner	8597
dec	8598
##der	8599
1800	8600
connectivity	8601
##hi	8602
firefox	8603
int	8604
109	8605
118	8606
mark	8607
skip	8608
1975	8609
##ir	8610
190	8611
global	8612
##う	8613
##ai	8614
##ver	8615
1900	8616
113	8617
129	8618
##ron	8619
##ster	8620
##sk	8621
##ft	8622
##ti	8623
䁖	8624
##my	8625
##ker	8626
ocean	8627
rf	8628
source	8629
136	8630
112	8631
##one	8632
126	8633
##ow	8634
1972	8635
goods	8636
##lin	8637
python	8638
119	8639
##ip	8640
##ics	8641
##ません	8642
520	8643
1955	8644
260	8645
1968	8646
618	8647
ivy	8648
sophie	8649
cache	8650
##ff	8651
くたさい	8652
ganji	8653
“	8654
”	8655
~	8656
(	8657
…	8658
+	8659
)	8660
##3	8661
=	8662
-	8663
<	8664
;	8665
%	8666
【	8667
】	8668
*	8669
余	8670
唿	8671
『	8672
』	8673
—	8674
‘	8675
@	8676
##nce	8677
[	8678
"	8679
&	8680
^	8681
1977	8682
’	8683
「	8684
」	8685
>	8686
1971	8687
1973	8688
]	8689
##per	8690
faq	8691
comment	8692
march	8693
april	8694
{	8695
}	8696
##って	8697
##ock	8698
〔	8699
〕	8700
116	8701
–	8702
幺	8703
$	8704
##bs	8705
jobs	8706
1974	8707
1969	8708
v1	8709
1956	8710
f1	8711
139	8712
##ah	8713
210	8714
adam	8715
taipei	8716
##lv	8717
lte	8718
##mp	8719
ryan	8720
1957	8721
550	8722
17life	8723
〈	8724
〉	8725
jane	8726
\	8727
199	8728
christian	8729
1966	8730
xml	8731
ver	8732
market	8733
##au	8734
999	8735
company	8736
roger	8737
##age	8738
##ting	8739
jan	8740
mysql	8741
jim	8742
steve	8743
vera	8744
george	8745
1959	8746
230	8747
##ung	8748
wonderland	8749
hotmail	8750
##ction	8751
festival	8752
event	8753
9000	8754
view	8755
children	8756
singapore	8757
system	8758
1946	8759
emba	8760
1962	8761
junior	8762
article	8763
##db	8764
design	8765
wedding	8766
part	8767
party	8768
って	8769
1967	8770
1964	8771
1948	8772
##ore	8773
##op	8774
この	8775
gsm	8776
010	8777
225	8778
1965	8779
##ong	8780
art	8781
320	8782
134	8783
020	8784
117	8785
pm2	8786
228	8787
1963	8788
var	8789
##ica	8790
2019	8791
##wa	8792
##や	8793
cookies	8794
1937	8795
homemesh	8796
search	8797
##れは	8798
##tv	8799
return	8800
##di	8801
##くたさい	8802
type	8803
った	8804
750	8805
##ier	8806
##si	8807
##います	8808
##ok	8809
silver	8810
##ット	8811
goris	8812
aug	8813
mandy	8814
##った	8815
3m	8816
##ut	8817
ftp	8818
##vi	8819
10	8820
1961	8821
happy	8822
##ac	8823
xddd	8824
122	8825
1920	8826
vsc	8827
138	8828
##ラ	8829
1940	8830
tags	8831
august	8832
154	8833
##fs	8834
##れ	8835
wd	8836
##sion	8837
##ム	8838
press	8839
##tt	8840
golden	8841
1080p	8842
##lt	8843
1952	8844
##bc	8845
##ック	8846
133	8847
121	8848
##rry	8849
201	8850
175	8851
3500	8852
1947	8853
error	8854
##ted	8855
##rn	8856
しています	8857
1954	8858
usd	8859
cbs	8860
##ンク	8861
001	8862
1953	8863
goo	8864
ても	8865
##ui	8866
127	8867
tel	8868
1930	8869
##ary	8870
item	8871
##pm	8872
270	8873
##za	8874
blogabstract	8875
##ger	8876
650	8877
gr2	8878
##します	8879
##m	8880
electronic	8881
asus	8882
また	8883
html5	8884
##hd	8885
m3	8886
132	8887
##od	8888
fed	8889
##ina	8890
165	8891
##いる	8892
192	8893
distribution	8894
になる	8895
1941	8896
にも	8897
pk10	8898
##ix	8899
##ana	8900
icecat	8901
00z	8902
william	8903
b1	8904
##ji	8905
##み	8906
##ard	8907
##ain	8908
##ze	8909
##bi	8910
cio	8911
smart	8912
h5	8913
##port	8914
curve	8915
##nm	8916
##dia	8917
utc	8918
##あり	8919
12345678910	8920
a4	8921
##and	8922
##im	8923
5s	8924
124	8925
##して	8926
##フ	8927
##ei	8928
national	8929
1951	8930
5cm	8931
888	8932
145	8933
1100	8934
5mm	8935
211	8936
2756	8937
mp4	8938
msci	8939
##po	8940
131	8941
380	8942
##bit	8943
cto	8944
wma	8945
##out	8946
##zz	8947
158	8948
opec	8949
ては	8950
##tes	8951
##ast	8952
2g	8953
##ling	8954
##よ	8955
jpeg	8956
傀	8957
##ory	8958
1938	8959
quick	8960
brian	8961
##ical	8962
content	8963
step3	8964
##cn	8965
win8	8966
155	8967
1400	8968
iphone7	8969
robert	8970
##した	8971
137	8972
dollars	8973
##ys	8974
##oc	8975
a1	8976
##lly	8977
##ks	8978
1939	8979
188	8980
download	8981
1944	8982
december	8983
います	8984
##board	8985
##lan	8986
winrar	8987
##que	8988
##ua	8989
##com	8990
1942	8991
saint	8992
1936	8993
480	8994
ettoday	8995
##ren	8996
##via	8997
149	8998
united	8999
b2b	9000
144	9001
㶶	9002
##tch	9003
##ial	9004
##nn	9005
nvidia	9006
step4	9007
156	9008
##イ	9009
mar	9010
591	9011
2765	9012
##xx	9013
##ser	9014
copyright	9015
1935	9016
##け	9017
ecu	9018
##ist	9019
##art	9020
##lm	9021
##ek	9022
##ning	9023
##if	9024
##ite	9025
video	9026
1943	9027
iot	9028
##ku	9029
october	9030
##ux	9031
##hs	9032
##ide	9033
box	9034
141	9035
##ins	9036
##ight	9037
185	9038
protected	9039
151	9040
162	9041
x1	9042
m2	9043
##fe	9044
##×	9045
##ho	9046
143	9047
gomaji	9048
##のか	9049
##lla	9050
##pp	9051
##ec	9052
6s	9053
720p	9054
##rm	9055
##ham	9056
fandom	9057
299	9058
##ell	9059
info	9060
4066	9061
161	9062
##able	9063
##ctor	9064
330	9065
399	9066
315	9067
dll	9068
rights	9069
ltd	9070
idc	9071
3kg	9072
1927	9073
142	9074
##ク	9075
304	9076
eps	9077
cbc	9078
146	9079
donald	9080
v2	9081
sodu	9082
##light	9083
javascript	9084
1931	9085
148	9086
1700	9087
まて	9088
310	9089
reserved	9090
htm	9091
##han	9092
2d	9093
178	9094
##ise	9095
##tions	9096
152	9097
##shi	9098
doc	9099
1933	9100
icp	9101
055	9102
##ram	9103
##pi	9104
##well	9105
wam	9106
b2	9107
からお	9108
##hu	9109
236	9110
1928	9111
##gb	9112
266	9113
f2	9114
153	9115
##ef	9116
##uan	9117
bwl	9118
##plus	9119
##res	9120
##ess	9121
hktvmall	9122
##ate	9123
##ese	9124
301	9125
feb	9126
4m	9127
inn	9128
ての	9129
159	9130
12345	9131
##ci	9132
##bet	9133
##nk	9134
202	9135
ssl	9136
##ute	9137
woshipm	9138
skype	9139
##fc	9140
##www	9141
007	9142
fpga	9143
##ght	9144
##gs	9145
claire	9146
iso9001	9147
さい	9148
䝙	9149
##ile	9150
##wood	9151
reply	9152
##uo	9153
network	9154
##em	9155
1932	9156
says	9157
##king	9158
##tive	9159
blogger	9160
なと	9161
256	9162
147	9163
##ox	9164
##zy	9165
##red	9166
##ium	9167
##lf	9168
##リ	9169
##ding	9170
lohas	9171
##tic	9172
##マ	9173
asia	9174
##cs	9175
##ある	9176
##che	9177
##ire	9178
##gy	9179
##ult	9180
january	9181
##カ	9182
disney	9183
166	9184
##ま	9185
##つ	9186
198	9187
##fa	9188
##mer	9189
pchome	9190
nov	9191
はい	9192
udn	9193
420	9194
##time	9195
##tte	9196
2030	9197
##ア	9198
foundation	9199
sep	9200
g20	9201
かかります	9202
1929	9203
308	9204
##おります	9205
309b	9206
777	9207
jennifer	9208
172	9209
ちてない	9210
4500	9211
magazine	9212
##tra	9213
##ては	9214
##ern	9215
ces	9216
s7	9217
##ous	9218
1934	9219
##int	9220
rosie	9221
183	9222
cho	9223
qr	9224
##car	9225
##our	9226
186	9227
##ant	9228
planet	9229
##d	9230
1914	9231
rends	9232
##jo	9233
##する	9234
mastercard	9235
##min	9236
tvbs	9237
290	9238
##ino	9239
##ris	9240
##ud	9241
2400	9242
##set	9243
169	9244
1912	9245
##her	9246
##ou	9247
しく	9248
䙓	9249
䜣	9250
205	9251
##ませんか	9252
232	9253
##fi	9254
勐	9255
express	9256
255	9257
䌽	9258
##ill	9259
aphojoy	9260
user	9261
meiki	9262
##ick	9263
apr	9264
tweet	9265
##av	9266
##ᆫ	9267
iphone6	9268
jul	9269
##dd	9270
ちてすか	9271
views	9272
##mark	9273
321	9274
䌼	9275
##ash	9276
10g	9277
5l	9278
##ome	9279
208	9280
㶽	9281
koreanmall	9282
##ak	9283
q2	9284
206	9285
tcp	9286
䴖	9287
㧟	9288
スタッフ	9289
mlb	9290
##lle	9291
𡒄	9292
㧑	9293
䍁	9294
#	9295
##watch	9296
䯄	9297
179	9298
䞐	9299
䍀	9300
911	9301
null	9302
䴘	9303
##und	9304
䴙	9305
##8	9306
##5	9307
##6	9308
·	9309
：	9310
屌	9311
涧	9312
壑	9313
棹	9314
嗟	9315
鸾	9316
旌	9317
杳	9318
霭	9319
迥	9320
霁	9321
祇	9322
樵	9323
宦	9324
顷	9325
暝	9326
觞	9327
濛	9328
隠	9329
峦	9330
泠	9331
藜	9332
溟	9333
嶂	9334
诏	9335
捲	9336
皎	9337
槎	9338
蟠	9339
濯	9340
戍	9341
屐	9342
潺	9343
仞	9344
欹	9345
闾	9346
萋	9347
岫	9348
凫	9349
谪	9350
蓑	9351
藉	9352
偃	9353
筇	9354
峭	9355
翳	9356
衾	9357
瓮	9358
祗	9359
嵬	9360
磴	9361
簟	9362
篁	9363
畦	9364
袂	9365
篆	9366
薜	9367
磬	9368
瀛	9369
辇	9370
扃	9371
蹇	9372
汲	9373
髯	9374
雉	9375
夙	9376
镫	9377
粲	9378
谒	9379
缨	9380
蛩	9381
（	9382
）	9383
/	9384
×	9385
～	9386
÷	9387
锌	9388
磷	9389
烯	9390
瘙	9391
酯	9392
锰	9393
锂	9394
肽	9395
＋	9396
酉	9397
疝	9398
硒	9399
酚	9400
戊	9401
烷	9402
癸	9403
壬	9404
戌	9405
囗	9406
巳	9407
锚	9408
瘘	9409
斛	9410
吒	9411
氙	9412
阪	9413
芪	9414
溴	9415
＂	9416
；	9417
―	9418
－	9419
＝	9420
android	9421
xbox	9422
π	9423
最	9424
反	9425
感	9426
那	9427
种	9428
说	9429
教	9430
类	9431
的	9432
小	9433
品	9434
前	9435
面	9436
搞	9437
笑	9438
##4	9439
后	9440
煽	9441
情	9442
也	9443
不	9444
喜	9445
欢	9446
咱	9447
工	9448
人	9449
要	9450
替	9451
国	9452
家	9453
想	9454
我	9455
下	9456
岗	9457
谁	9458
.	9459
所	9460
以	9461
还	9462
是	9463
陈	9464
二	9465
作	9466
更	9467
有	9468
味	9469
道	9470
##9	9471
百	9472
看	9473
厌	9474
他	9475
长	9476
得	9477
就	9478
哈	9479
养	9480
伤	9481
行	9482
必	9483
须	9484
康	9485
复	9486
又	9487
习	9488
了	9489
一	9490
遍	9491
马	9492
大	9493
帅	9494
抓	9495
紧	9496
时	9497
间	9498
慢	9499
鲷	9500
鳍	9501
佔	9502
毂	9503
鲀	9504
铢	9505
茯	9506
偻	9507
佝	9508
酰	9509
覃	9510
酐	9511
蝽	9512
苋	9513
盂	9514
铬	9515
肱	9516
鹟	9517
蒡	9518
荃	9519
疥	9520
焯	9521
蔺	9522
谚	9523
矽	9524
苷	9525
骐	9526
髋	9527
膑	9528
葚	9529
憩	9530
硼	9531
脲	9532
钊	9533
鸫	9534
鞅	9535
炔	9536
稷	9537
鄱	9538
亳	9539
鳕	9540
霰	9541
贲	9542
颞	9543
葆	9544
馏	9545
痢	9546
蚜	9547
骊	9548
郦	9549
溧	9550
萸	9551
祀	9552
麝	9553
腓	9554
蜍	9555
鹂	9556
铵	9557
钣	9558
蕨	9559
芡	9560
呋	9561
燊	9562
肟	9563
漕	9564
羟	9565
崙	9566
啉	9567
骥	9568
蟋	9569
钴	9570
纂	9571
眦	9572
龋	9573
吡	9574
鳃	9575
髁	9576
贮	9577
札	9578
橼	9579
蚧	9580
骶	9581
鲑	9582
诃	9583
谥	9584
胍	9585
蟀	9586
淞	9587
嘌	9588
邸	9589
隼	9590
淬	9591
呤	9592
髌	9593
蓟	9594
镍	9595
胫	9596
羌	9597
茭	9598
涿	9599
蠊	9600
銮	9601
沅	9602
嗪	9603
岀	9604
钜	9605
钼	9606
氩	9607
蛱	9608
鹄	9609
蜃	9610
钡	9611
苄	9612
秆	9613
纣	9614
疽	9615
醚	9616
耵	9617
笈	9618
仄	9619
弼	9620
瓯	9621
鹳	9622
鹀	9623
铡	9624
聍	9625
猷	9626
冼	9627
绦	9628
秸	9629
螟	9630
璜	9631
锉	9632
疖	9633
沭	9634
虻	9635
韮	9636
樨	9637
谟	9638
骞	9639
汞	9640
岷	9641
遴	9642
啶	9643
腭	9644
甬	9645
衙	9646
炀	9647
琮	9648
鲢	9649
邬	9650
榈	9651
滘	9652
跖	9653
蜇	9654
矾	9655
笺	9656
箔	9657
芩	9658
癔	9659
浜	9660
囟	9661
帼	9662
骋	9663
蠹	9664
烃	9665
儡	9666
鸮	9667
扦	9668
酞	9669
鹜	9670
镭	9671
疟	9672
翊	9673
帛	9674
赓	9675
晁	9676
泮	9677
邨	9678
讴	9679
螈	9680
艽	9681
徙	9682
枞	9683
鲟	9684
颍	9685
蜱	9686
螯	9687
薹	9688
盱	9689
瘢	9690
桡	9691
箴	9692
琨	9693
琏	9694
髂	9695
涪	9696
铣	9697
谏	9698
阆	9699
昶	9700
聿	9701
苣	9702
醪	9703
眙	9704
蚩	9705
纥	9706
嵇	9707
皲	9708
鲉	9709
耦	9710
沣	9711
勰	9712
砥	9713
邳	9714
弋	9715
蛉	9716
谕	9717
蜊	9718
荪	9719
焱	9720
碣	9721
懋	9722
赳	9723
墉	9724
疳	9725
缙	9726
楔	9727
匾	9728
纨	9729
绔	9730
瘊	9731
蠡	9732
涣	9733
颢	9734
睢	9735
铿	9736
钨	9737
黜	9738
喹	9739
痈	9740
渥	9741
潴	9742
豇	9743
濂	9744
溉	9745
剌	9746
遨	9747
菡	9748
鹎	9749
铨	9750
罹	9751
罡	9752
羧	9753
鲳	9754
稹	9755
珪	9756
楹	9757
巽	9758
苻	9759
佞	9760
唳	9761
淖	9762
碚	9763
妤	9764
鹫	9765
獭	9766
碁	9767
侗	9768
韫	9769
谵	9770
涞	9771
徕	9772
氦	9773
莒	9774
诘	9775
珏	9776
榭	9777
汛	9778
兖	9779
囱	9780
锹	9781
壅	9782
焘	9783
岘	9784
鹬	9785
苜	9786
蓿	9787
丅	9788
吋	9789
酊	9790
砼	9791
桧	9792
竽	9793
垩	9794
堃	9795
镕	9796
炆	9797
鳚	9798
醴	9799
蚬	9800
稞	9801
颉	9802
枥	9803
胄	9804
萘	9805
骅	9806
鲆	9807
刈	9808
獾	9809
谡	9810
鳢	9811
鹩	9812
蹟	9813
铀	9814
苁	9815
攸	9816
柘	9817
砷	9818
疔	9819
葭	9820
芾	9821
喙	9822
撷	9823
讬	9824
瑗	9825
翦	9826
鵙	9827
贻	9828
祚	9829
洮	9830
麋	9831
滦	9832
璟	9833
胛	9834
澍	9835
蜒	9836
骝	9837
劾	9838
崧	9839
蝾	9840
缰	9841
嵘	9842
垠	9843
艮	9844
鲾	9845
砲	9846
毗	9847
菖	9848
耒	9849
筏	9850
樾	9851
怆	9852
鹞	9853
倬	9854
魣	9855
瘿	9856
鲮	9857
犸	9858
牦	9859
锭	9860
鳙	9861
啮	9862
鞣	9863
螋	9864
旸	9865
垚	9866
鹈	9867
鹕	9868
堇	9869
嵊	9870
芨	9871
潞	9872
鸲	9873
舷	9874
鸪	9875
甪	9876
喴	9877
笆	9878
饯	9879
槲	9880
玠	9881
鰕	9882
讚	9883
鹧	9884
荸	9885
鲇	9886
蛏	9887
邝	9888
岬	9889
遏	9890
舂	9891
巜	9892
綦	9893
玑	9894
蒹	9895
孪	9896
菽	9897
锺	9898
鮨	9899
椹	9900
昰	9901
浠	9902
鄢	9903
缬	9904
夔	9905
纾	9906
骠	9907
荻	9908
揆	9909
庠	9910
脘	9911
椴	9912
菟	9913
辊	9914
刎	9915
煅	9916
葳	9917
醐	9918
垛	9919
铋	9920
锷	9921
郯	9922
鼹	9923
缜	9924
笕	9925
螽	9926
鲣	9927
僱	9928
鲹	9929
珙	9930
珐	9931
胗	9932
裟	9933
鳟	9934
糸	9935
垅	9936
箐	9937
铆	9938
埭	9939
砭	9940
楫	9941
磡	9942
癀	9943
庖	9944
缢	9945
悭	9946
鹱	9947
煊	9948
膦	9949
淝	9950
気	9951
铰	9952
朐	9953
敕	9954
锗	9955
耘	9956
镛	9957
蜉	9958
涓	9959
鄯	9960
蝰	9961
濉	9962
骈	9963
淦	9964
燧	9965
闳	9966
刿	9967
瑭	9968
鮈	9969
鹨	9970
邈	9971
蝼	9972
氚	9973
佶	9974
翱	9975
脍	9976
袈	9977
浯	9978
埗	9979
坻	9980
缄	9981
柞	9982
骧	9983
铖	9984
锴	9985
貘	9986
跗	9987
烺	9988
坳	9989
檗	9990
逑	9991
亓	9992
缮	9993
粳	9994
颛	9995
岙	9996
绻	9997
芎	9998
袪	9999
豕	10000
晷	10001
赟	10002
鳉	10003
澧	10004
娑	10005
饴	10006
崆	10007
鲽	10008
砜	10009
珩	10010
耜	10011
锆	10012
涸	10013
俣	10014
锲	10015
雒	10016
晔	10017
珲	10018
孛	10019
皴	10020
鼩	10021
蛄	10022
蕲	10023
粼	10024
郏	10025
刍	10026
嘧	10027
镗	10028
驷	10029
嵋	10030
儋	10031
肄	10032
诒	10033
歺	10034
栉	10035
祜	10036
沆	10037
豺	10038
瓒	10039
蠓	10040
勳	10041
羑	10042
郅	10043
鬃	10044
钎	10045
桉	10046
囯	10047
蜿	10048
骺	10049
炝	10050
砀	10051
邺	10052
绀	10053
锟	10054
萁	10055
瓤	10056
邡	10057
琬	10058
逖	10059
甙	10060
繇	10061
滛	10062
稗	10063
菸	10064
璘	10065
鲭	10066
塾	10067
勣	10068
蓖	10069
菀	10070
垭	10071
戡	10072
邛	10073
鳐	10074
峒	10075
槃	10076
肼	10077
徳	10078
樯	10079
幄	10080
亍	10081
湟	10082
蒌	10083
靛	10084
锑	10085
佃	10086
氘	10087
踞	10088
赭	10089
昇	10090
鸬	10091
薮	10092
麂	10093
阕	10094
鹛	10095
恂	10096
蕖	10097
娡	10098
檄	10099
钸	10100
昉	10101
鵖	10102
琯	10103
忱	10104
恽	10105
崃	10106
蝮	10107
铱	10108
夲	10109
釆	10110
犇	10111
芫	10112
冃	10113
邗	10114
砧	10115
腈	10116
霎	10117
歙	10118
榉	10119
镌	10120
幡	10121
牍	10122
嫒	10123
萼	10124
鹚	10125
虢	10126
缱	10127
滟	10128
鼯	10129
瘰	10130
菰	10131
鮻	10132
鲂	10133
鲬	10134
皝	10135
逯	10136
鲃	10137
缵	10138
翀	10139
姪	10140
蓥	10141
钿	10142
砗	10143
磲	10144
杓	10145
罘	10146
锶	10147
腘	10148
绗	10149
僖	10150
畠	10151
艹	10152
郢	10153
殒	10154
篦	10155
俶	10156
郓	10157
貉	10158
俚	10159
鳔	10160
峇	10161
沏	10162
笳	10163
蛲	10164
苡	10165
舖	10166
魟	10167
燚	10168
宓	10169
籤	10170
諡	10171
豸	10172
姒	10173
奭	10174
樘	10175
畑	10176
祉	10177
桁	10178
赉	10179
靥	10180
衿	10181
鎏	10182
裢	10183
鲎	10184
簌	10185
爰	10186
舫	10187
悪	10188
虬	10189
熠	10190
绶	10191
芗	10192
阈	10193
乚	10194
庝	10195
廋	10196
钒	10197
渑	10198
潋	10199
桅	10200
蘅	10201
亶	10202
蚶	10203
紮	10204
搠	10205
镳	10206
魮	10207
鮟	10208
鱇	10209
畿	10210
钏	10211
铍	10212
鹡	10213
鸰	10214
掸	10215
枋	10216
鳜	10217
蓼	10218
蒺	10219
垡	10220
冗	10221
褡	10222
缎	10223
郗	10224
贽	10225
秣	10226
頫	10227
焓	10228
夌	10229
熵	10230
蜢	10231
琚	10232
囫	10233
囵	10234
讥	10235
蠖	10236
茕	10237
巿	10238
乩	10239
铧	10240
娉	10241
杲	10242
萏	10243
洺	10244
杼	10245
苈	10246
秕	10247
胬	10248
甡	10249
飏	10250
镠	10251
蓁	10252
昺	10253
谘	10254
弢	10255
彳	10256
蟌	10257
劭	10258
勖	10259
鵟	10260
箓	10261
艋	10262
悌	10263
篙	10264
蕈	10265
澹	10266
峤	10267
矗	10268
嗌	10269
笫	10270
祘	10271
愎	10272
増	10273
畈	10274
镚	10275
禛	10276
唛	10277
鹍	10278
汩	10279
栢	10280
谯	10281
蝣	10282
刽	10283
垟	10284
庥	10285
郧	10286
捌	10287
吲	10288
楸	10289
耨	10290
鹮	10291
蚰	10292
铷	10293
廯	10294
骛	10295
鲡	10296
犍	10297
鮀	10298
玗	10299
翌	10300
叡	10301
蛞	10302
蝓	10303
喑	10304
墀	10305
猇	10306
痄	10307
镝	10308
嫲	10309
洄	10310
癒	10311
昃	10312
槻	10313
璿	10314
鱵	10315
穟	10316
箜	10317
篌	10318
鞑	10319
靼	10320
髫	10321
澶	10322
夥	10323
璠	10324
咥	10325
汜	10326
誊	10327
炘	10328
玦	10329
蕻	10330
耆	10331
黼	10332
葶	10333
抟	10334
栒	10335
赜	10336
佺	10337
圻	10338
龛	10339
汨	10340
饷	10341
魍	10342
昴	10343
彘	10344
猗	10345
岖	10346
婀	10347
檫	10348
咭	10349
桜	10350
髻	10351
偲	10352
咛	10353
歩	10354
滠	10355
髙	10356
蹴	10357
湍	10358
鎌	10359
卮	10360
哚	10361
镉	10362
榅	10363
桲	10364
槑	10365
乂	10366
谑	10367
荽	10368
埙	10369
邰	10370
溆	10371
庹	10372
鸱	10373
滂	10374
钤	10375
杈	10376
硚	10377
滢	10378
顼	10379
彟	10380
喾	10381
钯	10382
仝	10383
螅	10384
珣	10385
姮	10386
妺	10387
蘼	10388
梶	10389
桤	10390
莙	10391
鳀	10392
麐	10393
澪	10394
瓌	10395
丼	10396
慾	10397
崑	10398
鎗	10399
骢	10400
祓	10401
睨	10402
翃	10403
颎	10404
隰	10405
鳽	10406
柟	10407
杌	10408
砬	10409
薷	10410
菘	10411
锢	10412
佤	10413
査	10414
啇	10415
鄄	10416
篝	10417
亻	10418
秭	10419
鍊	10420
庒	10421
醌	10422
箅	10423
塍	10424
楽	10425
墒	10426
俟	10427
陟	10428
崮	10429
廪	10430
毽	10431
尓	10432
呔	10433
跬	10434
阋	10435
礻	10436
匍	10437
楢	10438
蓍	10439
鹘	10440
浐	10441
镒	10442
臾	10443
铄	10444
楣	10445
鋆	10446
遽	10447
睥	10448
焜	10449
镓	10450
湮	10451
摈	10452
癍	10453
蟥	10454
荙	10455
黇	10456
镈	10457
鳎	10458
捩	10459
黉	10460
僭	10461
醣	10462
毬	10463
樑	10464
迺	10465
爌	10466
荜	10467
偈	10468
哙	10469
鳇	10470
裾	10471
躄	10472
娫	10473
礽	10474
旖	10475
冔	10476
绂	10477
辿	10478
唞	10479
舺	10480
潟	10481
笏	10482
钕	10483
楝	10484
褴	10485
猞	10486
魉	10487
瓠	10488
狨	10489
苎	10490
鼋	10491
嗫	10492
礴	10493
埴	10494
氐	10495
趸	10496
讫	10497
呑	10498
孓	10499
亅	10500
抜	10501
嗄	10502
珥	10503
轭	10504
砾	10505
醅	10506
羰	10507
妯	10508
娌	10509
袤	10510
変	10511
凇	10512
罔	10513
湴	10514
鹗	10515
檩	10516
稔	10517
煨	10518
麾	10519
畹	10520
滏	10521
掣	10522
滳	10523
谗	10524
酢	10525
禤	10526
瘕	10527
恸	10528
仡	10529
呎	10530
氕	10531
擢	10532
迤	10533
苤	10534
悫	10535
羸	10536
栆	10537
鸅	10538
癃	10539
鱲	10540
耧	10541
鮰	10542
鸸	10543
鹋	10544
屄	10545
畲	10546
枏	10547
澉	10548
逌	10549
湳	10550
蠃	10551
濬	10552
嬗	10553
猡	10554
曽	10555
凖	10556
侂	10557
寯	10558
鼒	10559
蚖	10560
忞	10561
廙	10562
顗	10563
柽	10564
棻	10565
柰	10566
犰	10567
狳	10568
铳	10569
亟	10570
褛	10571
芘	10572
佚	10573
戸	10574
仼	10575
诜	10576
氿	10577
浈	10578
钆	10579
鉄	10580
伫	10581
円	10582
魑	10583
陲	10584
佥	10585
様	10586
桷	10587
愽	10588
侓	10589
忡	10590
丌	10591
砣	10592
扌	10593
蟮	10594
媞	10595
铯	10596
颡	10597
牯	10598
趺	10599
舀	10600
颔	10601
胼	10602
诙	10603
晌	10604
娈	10605
拄	10606
乗	10607
愍	10608
竛	10609
邠	10610
籼	10611
晩	10612
佯	10613
渃	10614
伝	10615
蘖	10616
曈	10617
龢	10618
氾	10619
萜	10620
儆	10621
埇	10622
孖	10623
弁	10624
蔵	10625
嚢	10626
艏	10627
枘	10628
婼	10629
箬	10630
圪	10631
橐	10632
酃	10633
绌	10634
鏖	10635
啖	10636
蝥	10637
雫	10638
鲻	10639
鲔	10640
羗	10641
獐	10642
阇	10643
腴	10644
瑷	10645
尪	10646
褫	10647
犛	10648
粝	10649
锔	10650
悝	10651
桫	10652
椤	10653
诔	10654
砦	10655
狎	10656
巎	10657
蜾	10658
笪	10659
鸻	10660
垧	10661
戆	10662
堉	10663
鏸	10664
琇	10665
鯙	10666
裒	10667
钺	10668
玚	10669
儁	10670
訾	10671
腧	10672
玹	10673
棐	10674
踽	10675
愔	10676
碇	10677
暐	10678
黾	10679
猁	10680
觑	10681
舛	10682
収	10683
凊	10684
傩	10685
囝	10686
吿	10687
哓	10688
朊	10689
圧	10690
氖	10691
汊	10692
俅	10693
敝	10694
轸	10695
聩	10696
枧	10697
椋	10698
圹	10699
揸	10700
梾	10701
恵	10702
孳	10703
腙	10704
葑	10705
応	10706
馓	10707
茌	10708
挿	10709
弾	10710
薙	10711
圏	10712
沤	10713
沢	10714
胝	10715
髭	10716
埤	10717
翥	10718
殓	10719
邙	10720
峄	10721
炟	10722
刬	10723
疃	10724
觐	10725
溱	10726
婳	10727
坩	10728
祙	10729
痳	10730
捭	10731
疋	10732
舐	10733
蠼	10734
獴	10735
硐	10736
冮	10737
晙	10738
梿	10739
嘹	10740
吥	10741
愬	10742
栛	10743
啜	10744
饸	10745
幔	10746
枳	10747
鲺	10748
迣	10749
荮	10750
蘘	10751
绉	10752
颏	10753
蹠	10754
谶	10755
杬	10756
呒	10757
霑	10758
笄	10759
瑈	10760
鳊	10761
苾	10762
邾	10763
琤	10764
徭	10765
栐	10766
暱	10767
斡	10768
黻	10769
湧	10770
鑑	10771
馑	10772
祕	10773
勔	10774
岌	10775
圜	10776
榑	10777
媾	10778
缫	10779
蚡	10780
瓿	10781
垌	10782
硧	10783
觜	10784
尛	10785
鹇	10786
傈	10787
僳	10788
鮡	10789
挹	10790
簕	10791
鰶	10792
殛	10793
涙	10794
诤	10795
瓘	10796
暠	10797
瑀	10798
鷉	10799
棨	10800
璈	10801
蛸	10802
鲿	10803
鱚	10804
壦	10805
廌	10806
鸺	10807
鹠	10808
黧	10809
玙	10810
洢	10811
旎	10812
蜑	10813
俳	10814
诂	10815
寔	10816
凪	10817
辂	10818
榘	10819
纡	10820
蟜	10821
垍	10822
腠	10823
溞	10824
埼	10825
茀	10826
沔	10827
妘	10828
嵯	10829
阝	10830
蒎	10831
梱	10832
扺	10833
淸	10834
毎	10835
镙	10836
塬	10837
匚	10838
渌	10839
挢	10840
诿	10841
摒	10842
鸶	10843
仏	10844
曷	10845
诰	10846
砟	10847
厶	10848
髀	10849
缟	10850
菪	10851
淙	10852
殄	10853
玕	10854
倏	10855
埕	10856
酩	10857
泞	10858
掬	10859
垕	10860
镣	10861
薬	10862
迸	10863
卾	10864
巻	10865
挌	10866
塱	10867
挷	10868
逄	10869
踵	10870
戦	10871
怱	10872
徇	10873
睌	10874
囔	10875
揠	10876
帙	10877
恻	10878
氹	10879
圀	10880
苺	10881
莼	10882
蚨	10883
卍	10884
桖	10885
哞	10886
蹑	10887
盥	10888
阗	10889
铥	10890
箧	10891
奌	10892
骖	10893
戢	10894
俸	10895
甑	10896
嫱	10897
枊	10898
妀	10899
袛	10900
刭	10901
赝	10902
証	10903
棂	10904
勄	10905
泅	10906
伉	10907
饹	10908
肫	10909
冣	10910
罴	10911
玘	10912
跛	10913
阊	10914
芶	10915
珹	10916
姫	10917
潸	10918
荑	10919
睪	10920
疬	10921
乣	10922
竜	10923
蚴	10924
绨	10925
茛	10926
崁	10927
讦	10928
牠	10929
効	10930
倢	10931
伃	10932
脒	10933
洹	10934
牒	10935
柃	10936
爨	10937
酆	10938
槭	10939
埚	10940
鳡	10941
濞	10942
臬	10943
醯	10944
竑	10945
苌	10946
閒	10947
甦	10948
砵	10949
谿	10950
窭	10951
胪	10952
闼	10953
槊	10954
彀	10955
剡	10956
絺	10957
缳	10958
笞	10959
黥	10960
洴	10961
陉	10962
偪	10963
糌	10964
俷	10965
艨	10966
艟	10967
譞	10968
耏	10969
塽	10970
琎	10971
蒴	10972
纮	10973
洧	10974
锜	10975
桕	10976
鲼	10977
鸊	10978
嬿	10979
鐭	10980
枬	10981
鋐	10982
鼱	10983
妫	10984
蒨	10985
掮	10986
熞	10987
谠	10988
菝	10989
鯻	10990
玞	10991
仉	10992
锽	10993
垿	10994
屺	10995
燠	10996
贠	10997
垓	10998
荦	10999
媁	11000
昖	11001
榎	11002
藨	11003
瑱	11004
瑮	11005
瑂	11006
璂	11007
瘅	11008
忤	11009
坜	11010
梼	11011
镧	11012
鴗	11013
赈	11014
禩	11015
矸	11016
菔	11017
爿	11018
怃	11019
蓠	11020
膻	11021
涔	11022
缶	11023
関	11024
氵	11025
氤	11026
氲	11027
厍	11028
恣	11029
謇	11030
唁	11031
粿	11032
桎	11033
蕤	11034
両	11035
卐	11036
殚	11037
艿	11038
窨	11039
靣	11040
襁	11041
褓	11042
莅	11043
媓	11044
笤	11045
凼	11046
佂	11047
迳	11048
苐	11049
涑	11050
姌	11051
帢	11052
総	11053
擘	11054
蔴	11055
怏	11056
廻	11057
茏	11058
胨	11059
狃	11060
込	11061
発	11062
鲥	11063
慱	11064
惴	11065
拃	11066
徜	11067
砉	11068
読	11069
逋	11070
逶	11071
耄	11072
亊	11073
聃	11074
匐	11075
觧	11076
犭	11077
鄠	11078
槁	11079
箦	11080
旃	11081
馔	11082
氷	11083
淯	11084
浥	11085
淠	11086
褔	11087
狻	11088
螭	11089
郞	11090
験	11091
歴	11092
辶	11093
榷	11094
焼	11095
蛘	11096
篑	11097
钖	11098
茔	11099
逡	11100
亸	11101
甍	11102
螮	11103
蝀	11104
绠	11105
兕	11106
羃	11107
舲	11108
荇	11109
炷	11110
茆	11111
伋	11112
瘗	11113
舸	11114
瘼	11115
嶙	11116
峋	11117
堞	11118
窅	11119
踬	11120
繞	11121
牖	11122
漈	11123
踈	11124
眇	11125
僥	11126
辀	11127
髪	11128
鹥	11129
麈	11130
欤	11131
箂	11132
痼	11133
岢	11134
觱	11135
磔	11136
畬	11137
鹯	11138
鹁	11139
鶗	11140
鴂	11141
闱	11142
坼	11143
踟	11144
蹰	11145
畤	11146
杪	11147
褲	11148
铫	11149
盍	11150
箨	11151
籴	11152
徵	11153
柅	11154
歔	11155
欷	11156
抆	11157
圞	11158
隈	11159
摅	11160
旄	11161
鏁	11162
瀫	11163
甃	11164
檠	11165
栊	11166
穰	11167
霪	11168
俎	11169
暾	11170
鸴	11171
猺	11172
锸	11173
铗	11174
齑	11175
秫	11176
鼙	11177
阽	11178
裈	11179
萑	11180
柣	11181
呶	11182
棰	11183
辔	11184
屣	11185
槪	11186
薝	11187
僦	11188
厓	11189
膴	11190
繄	11191
歊	11192
磵	11193
箯	11194
髠	11195
鬬	11196
廛	11197
湲	11198
霅	11199
纻	11200
觚	11201
鹢	11202
玎	11203
洫	11204
岿	11205
穑	11206
飖	11207
薤	11208
巑	11209
岏	11210
槔	11211
闉	11212
跫	11213
翚	11214
鞴	11215
鶑	11216
嵝	11217
枻	11218
瞢	11219
舻	11220
侖	11221
箸	11222
褊	11223
韨	11224
枌	11225
阃	11226
刔	11227
孥	11228
僮	11229
栴	11230
珰	11231
輝	11232
姹	11233
硎	11234
圉	11235
雠	11236
潆	11237
爇	11238
夾	11239
鶱	11240
搦	11241
耋	11242
纆	11243
鲋	11244
岧	11245
峣	11246
泬	11247
漻	11248
踌	11249
躇	11250
罏	11251
挈	11252
舠	11253
缲	11254
柁	11255
氅	11256
旐	11257
讣	11258
脔	11259
鬥	11260
涘	11261
碛	11262
讵	11263
陎	11264
觇	11265
饧	11266
晡	11267
搴	11268
鹙	11269
鸧	11270
橦	11271
阛	11272
煉	11273
葺	11274
跣	11275
秾	11276
楮	11277
帔	11278
踯	11279
躅	11280
罳	11281
褰	11282
滃	11283
筳	11284
綀	11285
癯	11286
浼	11287
馿	11288
噤	11289
簃	11290
沄	11291
罽	11292
堄	11293
鹓	11294
翛	11295
硗	11296
鲰	11297
堠	11298
鸂	11299
鶒	11300
痏	11301
掾	11302
斫	11303
蘧	11304
硉	11305
殳	11306
缣	11307
筼	11308
筜	11309
襕	11310
栝	11311
楶	11312
躔	11313
竨	11314
榡	11315
裨	11316
蚍	11317
浍	11318
蚋	11319
觌	11320
磎	11321
湑	11322
睟	11323
騧	11324
椮	11325
虓	11326
抔	11327
鹆	11328
骍	11329
寤	11330
殁	11331
孀	11332
轳	11333
禳	11334
阒	11335
賮	11336
啭	11337
稂	11338
莠	11339
孱	11340
踡	11341
驽	11342
骀	11343
狖	11344
毵	11345
牝	11346
亹	11347
狷	11348
麽	11349
肸	11350
蚃	11351
埌	11352
辚	11353
骕	11354
斂	11355
濆	11356
徂	11357
鲠	11358
蟪	11359
酾	11360
祂	11361
靷	11362
襥	11363
頀	11364
徉	11365
熳	11366
崦	11367
喁	11368
耫	11369
屦	11370
谀	11371
浃	11372
颀	11373
斸	11374
暕	11375
劚	11376
矍	11377
幞	11378
舣	11379
椽	11380
洚	11381
阍	11382
帱	11383
螀	11384
悃	11385
柝	11386
伾	11387
巘	11388
籞	11389
烝	11390
跚	11391
拊	11392
屧	11393
襦	11394
蠲	11395
崤	11396
閟	11397
笭	11398
箵	11399
蔌	11400
瀌	11401
礡	11402
廨	11403
遰	11404
僓	11405
熇	11406
鲙	11407
俦	11408
騘	11409
铓	11410
雩	11411
舳	11412
剜	11413
湫	11414
荅	11415
綢	11416
筰	11417
涴	11418
嚬	11419
黟	11420
钲	11421
濩	11422
隗	11423
髹	11424
矧	11425
餠	11426
溽	11427
鲚	11428
窠	11429
舑	11430
骎	11431
籀	11432
诨	11433
荄	11434
蘩	11435
喣	11436
詟	11437
幰	11438
泖	11439
飧	11440
綠	11441
葹	11442
鄮	11443
曛	11444
魃	11445
樗	11446
薾	11447
芰	11448
蓊	11449
蓂	11450
沴	11451
裀	11452
遘	11453
灺	11454
帏	11455
颣	11456
磈	11457
遑	11458
舄	11459
襜	11460
篵	11461
鸑	11462
鷟	11463
筸	11464
椠	11465
陔	11466
壖	11467
颙	11468
斝	11469
饤	11470
慥	11471
棼	11472
汔	11473
怛	11474
蹺	11475
鹔	11476
鹴	11477
艓	11478
實	11479
鬻	11480
皤	11481
酴	11482
醿	11483
僪	11484
霙	11485
甓	11486
蠧	11487
蹁	11488
跹	11489
祼	11490
诮	11491
崚	11492
嶒	11493
瀹	11494
噡	11495
屷	11496
鵩	11497
骓	11498
筚	11499
篥	11500
苖	11501
酤	11502
痚	11503
薨	11504
隮	11505
瘳	11506
虺	11507
隤	11508
跲	11509
鄜	11510
弭	11511
纛	11512
脽	11513
逦	11514
屼	11515
頩	11516
懶	11517
塶	11518
沩	11519
垆	11520
侔	11521
岝	11522
崿	11523
辋	11524
搘	11525
瀰	11526
晼	11527
赪	11528
昮	11529
愆	11530
珮	11531
榼	11532
匏	11533
豢	11534
錬	11535
櫜	11536
澥	11537
褉	11538
欃	11539
歡	11540
罍	11541
筌	11542
殢	11543
蹙	11544
瓞	11545
劖	11546
浄	11547
鳏	11548
轓	11549
驺	11550
砻	11551
恝	11552
欻	11553
蠺	11554
沍	11555
棁	11556
麏	11557
麚	11558
缊	11559
揖	11560
皪	11561
怙	11562
翮	11563
翾	11564
泚	11565
騊	11566
駼	11567
醾	11568
罅	11569
臘	11570
暌	11571
萡	11572
挲	11573
耞	11574
暵	11575
眃	11576
搢	11577
蔿	11578
篪	11579
觳	11580
㝹	11581
旛	11582
箄	11583
醁	11584
剺	11585
鼍	11586
埽	11587
蹶	11588
摺	11589
趼	11590
幷	11591
迓	11592
轺	11593
頳	11594
撄	11595
鬅	11596
鬿	11597
蛚	11598
隳	11599
旆	11600
谮	11601
瑴	11602
啻	11603
嵚	11604
牂	11605
鎝	11606
螘	11607
羜	11608
縠	11609
裛	11610
榾	11611
柮	11612
纕	11613
醮	11614
聱	11615
鞔	11616
鼕	11617
罭	11618
刲	11619
遒	11620
耰	11621
虿	11622
牸	11623
巉	11624
媪	11625
跕	11626
饫	11627
桴	11628
奁	11629
偓	11630
跸	11631
馡	11632
蕺	11633
酹	11634
妣	11635
赙	11636
夐	11637
輶	11638
豳	11639
搰	11640
恇	11641
晅	11642
朅	11643
呓	11644
籯	11645
酡	11646
畋	11647
艖	11648
縻	11649
缑	11650
攲	11651
纔	11652
昽	11653
臞	11654
繻	11655
祲	11656
妪	11657
蹐	11658
渫	11659
伛	11660
媵	11661
遄	11662
鬯	11663
缁	11664
虨	11665
帻	11666
鬙	11667
罨	11668
笻	11669
鞯	11670
齓	11671
嫪	11672
圮	11673
姱	11674
鄚	11675
歃	11676
侪	11677
劓	11678
罟	11679
谰	11680
篘	11681
殪	11682
灊	11683
嵿	11684
瑅	11685
漭	11686
噂	11687
阘	11688
酲	11689
氍	11690
毹	11691
虮	11692
箑	11693
榱	11694
酎	11695
匼	11696
悰	11697
糁	11698
階	11699
伥	11700
贶	11701
槴	11702
糅	11703
抃	11704
畛	11705
辎	11706
毳	11707
憗	11708
魝	11709
縧	11710
眬	11711
畀	11712
軿	11713
蟏	11714
鳷	11715
萚	11716
塳	11717
磾	11718
氎	11719
巃	11720
糵	11721
幛	11722
飗	11723
臑	11724
衽	11725
飐	11726
笥	11727
鬖	11728
镵	11729
铙	11730
斾	11731
缃	11732
醖	11733
哂	11734
訇	11735
穫	11736
擐	11737
愯	11738
騑	11739
觫	11740
滹	11741
悮	11742
猊	11743
茳	11744
痡	11745
寛	11746
愠	11747
檎	11748
袢	11749
漙	11750
怿	11751
鱍	11752
澌	11753
逭	11754
蒯	11755
貀	11756
菼	11757
觥	11758
嫜	11759
牣	11760
埏	11761
跂	11762
縢	11763
嵫	11764
鸩	11765
喈	11766
羮	11767
矼	11768
贳	11769
醨	11770
厩	11771
韡	11772
缯	11773
僛	11774
痓	11775
璁	11776
羝	11777
痍	11778
詈	11779
郐	11780
堙	11781
躞	11782
蹀	11783
揵	11784
鞿	11785
憀	11786
壈	11787
簄	11788
苴	11789
畚	11790
嵴	11791
愕	11792
燹	11793
薧	11794
筥	11795
嗥	11796
卼	11797
臲	11798
囘	11799
匜	11800
祧	11801
踨	11802
琲	11803
嵽	11804
嵲	11805
疴	11806
泎	11807
豗	11808
晣	11809
磻	11810
雘	11811
憹	11812
谲	11813
阸	11814
舡	11815
罾	11816
湔	11817
燖	11818
鳦	11819
駪	11820
狉	11821
竦	11822
潔	11823
噀	11824
秪	11825
籾	11826
嚭	11827
湓	11828
垤	11829
桊	11830
疠	11831
蒉	11832
榖	11833
嶤	11834
梏	11835
罥	11836
畎	11837
螫	11838
魀	11839
痁	11840
飨	11841
瀣	11842
鬲	11843
筿	11844
迮	11845
裲	11846
觏	11847
箪	11848
噞	11849
絇	11850
岨	11851
赀	11852
昪	11853
笮	11854
賨	11855
罌	11856
酂	11857
鬌	11858
迴	11859
鹣	11860
叆	11861
叇	11862
矰	11863
鞬	11864
裼	11865
栱	11866
囿	11867
芼	11868
藋	11869
恚	11870
甽	11871
貙	11872
鞚	11873
阓	11874
陬	11875
郛	11876
醑	11877
糇	11878
袿	11879
旰	11880
峍	11881
煁	11882
煼	11883
鍪	11884
聑	11885
閣	11886
鴃	11887
艅	11888
艎	11889
庑	11890
瀼	11891
飔	11892
斨	11893
忪	11894
俜	11895
掼	11896
蟂	11897
芟	11898
葅	11899
涏	11900
蟫	11901
榠	11902
赑	11903
屃	11904
饾	11905
邅	11906
繫	11907
缡	11908
髡	11909
媫	11910
渟	11911
掞	11912
瘵	11913
馘	11914
蜩	11915
玭	11916
嫠	11917
簊	11918
澒	11919
锱	11920
忿	11921
跏	11922
弉	11923
畯	11924
钁	11925
徬	11926
鸷	11927
晬	11928
摵	11929
囷	11930
澬	11931
飂	11932
嵾	11933
猱	11934
揺	11935
塿	11936
裯	11937
糢	11938
骙	11939
儱	11940
麹	11941
洑	11942
瀍	11943
惄	11944
咍	11945
歳	11946
鳯	11947
絧	11948
倥	11949
偬	11950
帯	11951
畇	11952
嬖	11953
弇	11954
瀔	11955
纩	11956
搑	11957
赍	11958
訴	11959
筮	11960
構	11961
踆	11962
猧	11963
汍	11964
鄓	11965
麛	11966
苫	11967
儹	11968
洎	11969
嗾	11970
掫	11971
髑	11972
郇	11973
醵	11974
滉	11975
鄐	11976
曩	11977
凘	11978
磉	11979
豨	11980
鸹	11981
敧	11982
竮	11983
蒻	11984
綮	11985
騄	11986
攎	11987
渖	11988
跄	11989
瞽	11990
禊	11991
桄	11992
醲	11993
旟	11994
幨	11995
楛	11996
彴	11997
巀	11998
嶪	11999
蟺	12000
靮	12001
簅	12002
饙	12003
刖	12004
崱	12005
屴	12006
骦	12007
铻	12008
蕞	12009
箋	12010
堋	12011
耔	12012
龁	12013
榰	12014
瀺	12015
灂	12016
刳	12017
釭	12018
枨	12019
邉	12020
槜	12021
翙	12022
沚	12023
窣	12024
榇	12025
迕	12026
曀	12027
谄	12028
恫	12029
嘒	12030
缌	12031
禋	12032
鹖	12033
礨	12034
佾	12035
絅	12036
岣	12037
劬	12038
皦	12039
楦	12040
唼	12041
泇	12042
祃	12043
畓	12044
鮹	12045
襞	12046
轣	12047
獬	12048
埒	12049
堁	12050
幮	12051
鬐	12052
釂	12053
娂	12054
踶	12055
摝	12056
筲	12057
宬	12058
螖	12059
鲦	12060
鯈	12061
槱	12062
荭	12063
坱	12064
坙	12065
褕	12066
檨	12067
徍	12068
龠	12069
潏	12070
睍	12071
睆	12072
鴷	12073
嶅	12074
朣	12075
漘	12076
朓	12077
轹	12078
禆	12079
稌	12080
慝	12081
鞮	12082
鵊	12083
闬	12084
颟	12085
顸	12086
黠	12087
晛	12088
惣	12089
爞	12090
襩	12091
湱	12092
獠	12093
菂	12094
僝	12095
谽	12096
谺	12097
柩	12098
忝	12099
卺	12100
渰	12101
荩	12102
澴	12103
哝	12104
僾	12105
忾	12106
怄	12107
雰	12108
楩	12109
漷	12110
哕	12111
鼔	12112
绺	12113
拚	12114
喟	12115
蓤	12116
褌	12117
渼	12118
鬘	12119
嫘	12120
葰	12121
痩	12122
痌	12123
瘝	12124
襻	12125
禴	12126
踱	12127
楙	12128
旂	12129
睺	12130
椟	12131
膡	12132
箾	12133
悛	12134
壸	12135
惓	12136
騃	12137
茑	12138
絜	12139
哢	12140
瞭	12141
迨	12142
峆	12143
滆	12144
牁	12145
铊	12146
稉	12147
豜	12148
洌	12149
嶀	12150
瞍	12151
燐	12152
侸	12153
轫	12154
鹾	12155
铦	12156
鼐	12157
維	12158
瑳	12159
環	12160
呡	12161
馐	12162
巌	12163
粜	12164
卌	12165
澽	12166
觯	12167
缦	12168
蝛	12169
诳	12170
洇	12171
舴	12172
怵	12173
蓣	12174
嘏	12175
侫	12176
泐	12177
蔦	12178
峯	12179
缂	12180
経	12181
猢	12182
狲	12183
剎	12184
茻	12185
秝	12186
澨	12187
缋	12188
籥	12189
旊	12190
襼	12191
棫	12192
罝	12193
愓	12194
遌	12195
逹	12196
園	12197
國	12198
皕	12199
徢	12200
饔	12201
璆	12202
濶	12203
籣	12204
饘	12205
怍	12206
岵	12207
皜	12208
昳	12209
埸	12210
汧	12211
汈	12212
襮	12213
鼷	12214
辏	12215
東	12216
帨	12217
懔	12218
睲	12219
酽	12220
狅	12221
莳	12222
亀	12223
艄	12224
鍂	12225
芵	12226
璄	12227
窳	12228
炤	12229
呖	12230
攫	12231
於	12232
裏	12233
夤	12234
搛	12235
皞	12236
覈	12237
噍	12238
摛	12239
甆	12240
谖	12241
棗	12242
憑	12243
蔀	12244
啁	12245
诓	12246
檓	12247
畄	12248
華	12249
仚	12250
岺	12251
溘	12252
唎	12253
拏	12254
蜮	12255
帟	12256
眄	12257
桠	12258
洣	12259
恴	12260
逰	12261
倮	12262
颃	12263
鄏	12264
赧	12265
悒	12266
穾	12267
椪	12268
诌	12269
風	12270
蕿	12271
瘽	12272
倨	12273
枒	12274
姦	12275
傘	12276
狴	12277
犴	12278
鹒	12279
莩	12280
苲	12281
沬	12282
忉	12283
黩	12284
帡	12285
幪	12286
嫽	12287
踔	12288
缿	12289
帋	12290
喨	12291
嶰	12292
綍	12293
噙	12294
篯	12295
霨	12296
莸	12297
慠	12298
扢	12299
溇	12300
譽	12301
丠	12302
牗	12303
單	12304
祊	12305
耉	12306
洈	12307
穉	12308
歭	12309
僰	12310
嶷	12311
洨	12312
柢	12313
荛	12314
擿	12315
隻	12316
獨	12317
為	12318
郂	12319
燔	12320
汭	12321
瑸	12322
耇	12323
僴	12324
憁	12325
圯	12326
垲	12327
箖	12328
箊	12329
垞	12330
莛	12331
濙	12332
豋	12333
鲞	12334
骉	12335
駥	12336
戰	12337
鐘	12338
闊	12339
門	12340
詩	12341
枩	12342
怗	12343
駉	12344
舘	12345
栘	12346
儵	12347
曌	12348
閰	12349
钭	12350
泔	12351
忮	12352
玨	12353
兲	12354
偘	12355
闌	12356
祏	12357
豭	12358
閑	12359
間	12360
耑	12361
匄	12362
龃	12363
龉	12364
悱	12365
搵	12366
恹	12367
赗	12368
崒	12369
骘	12370
旒	12371
蔙	12372
坔	12373
羍	12374
遊	12375
誺	12376
俬	12377
槚	12378
谞	12379
锨	12380
亁	12381
鳳	12382
徼	12383
仳	12384
篾	12385
縁	12386
矅	12387
凉	12388
朶	12389
瞀	12390
開	12391
敎	12392
愛	12393
垴	12394
蹒	12395
墈	12396
栁	12397
臶	12398
鲐	12399
皛	12400
镬	12401
塠	12402
皵	12403
橑	12404
檵	12405
姽	12406
炰	12407
塅	12408
枵	12409
傕	12410
寀	12411
囹	12412
圄	12413
卬	12414
椁	12415
弞	12416
镋	12417
歬	12418
苿	12419
圖	12420
歸	12421
扆	12422
瓴	12423
冏	12424
楯	12425
庀	12426
缛	12427
镆	12428
铘	12429
嗉	12430
釄	12431
莨	12432
斁	12433
癎	12434
螣	12435
踘	12436
羅	12437
漢	12438
請	12439
觀	12440
長	12441
張	12442
紅	12443
酼	12444
礩	12445
亷	12446
胙	12447
咢	12448
翕	12449
葞	12450
鄣	12451
鼚	12452
抺	12453
穂	12454
劏	12455
姸	12456
戽	12457
錾	12458
彊	12459
蟢	12460
瘌	12461
鱮	12462
缻	12463
尌	12464
箎	12465
秬	12466
秠	12467
芑	12468
揄	12469
闿	12470
怘	12471
脁	12472
尨	12473
灒	12474
彥	12475
瞾	12476
鴈	12477
坫	12478
隹	12479
衎	12480
倞	12481
陹	12482
弨	12483
蕡	12484
赆	12485
処	12486
礅	12487
搉	12488
偾	12489
駃	12490
〇	12491
扽	12492
矱	12493
搧	12494
搥	12495
頍	12496
鲧	12497
禝	12498
啐	12499
狝	12500
掊	12501
儥	12502
戕	12503
郿	12504
龆	12505
岈	12506
镲	12507
當	12508
賛	12509
覌	12510
泃	12511
咮	12512
瑑	12513
蚼	12514
鞳	12515
褦	12516
襶	12517
瘖	12518
廑	12519
趄	12520
棓	12521
瞠	12522
璚	12523
麀	12524
齾	12525
钹	12526
蕰	12527
玡	12528
龀	12529
鲊	12530
撝	12531
傔	12532
衄	12533
镢	12534
鏊	12535
勷	12536
萆	12537
湜	12538
酕	12539
醄	12540
碅	12541
磳	12542
樆	12543
鱆	12544
砑	12545
崐	12546
礞	12547
嫏	12548
靑	12549
糥	12550
埵	12551
烻	12552
簴	12553
倕	12554
尢	12555
吶	12556
沇	12557
蘭	12558
覩	12559
觍	12560
帲	12561
駬	12562
棪	12563
揎	12564
祾	12565
帞	12566
湎	12567
瘏	12568
埊	12569
疁	12570
缗	12571
蘜	12572
戋	12573
簠	12574
蹚	12575
凐	12576
凕	12577
柲	12578
寃	12579
蒇	12580
彫	12581
媺	12582
瓻	12583
谆	12584
窓	12585
鴒	12586
耩	12587
芄	12588
殂	12589
憺	12590
篚	12591
鳣	12592
刾	12593
潕	12594
雦	12595
蓕	12596
繖	12597
矞	12598
塻	12599
髺	12600
玢	12601
敨	12602
倌	12603
萅	12604
篴	12605
毖	12606
挜	12607
菉	12608
聙	12609
潄	12610
悻	12611
嫮	12612
裉	12613
兒	12614
榫	12615
尅	12616
龡	12617
鳒	12618
後	12619
瑯	12620
跩	12621
眚	12622
雊	12623
摽	12624
餔	12625
鑲	12626
硖	12627
遹	12628
笾	12629
艚	12630
鷃	12631
滪	12632
寘	12633
氡	12634
謦	12635
欬	12636
偸	12637
塥	12638
褾	12639
佻	12640
茝	12641
湯	12642
嫓	12643
媸	12644
臈	12645
圊	12646
醓	12647
醢	12648
掎	12649
菳	12650
計	12651
見	12652
珃	12653
馂	12654
躭	12655
笴	12656
蜺	12657
醹	12658
嶻	12659
嶫	12660
礿	12661
橂	12662
萬	12663
睚	12664
棬	12665
甎	12666
弸	12667
鉏	12668
勍	12669
绋	12670
欵	12671
筪	12672
雝	12673
禭	12674
霣	12675
淏	12676
墚	12677
锛	12678
帑	12679
溷	12680
勅	12681
懐	12682
時	12683
犂	12684
獦	12685
鬵	12686
褀	12687
稜	12688
槏	12689
棊	12690
詄	12691
搡	12692
甿	12693
挐	12694
顠	12695
飮	12696
飢	12697
礓	12698
鴡	12699
鳲	12700
嫄	12701
戺	12702
庋	12703
圬	12704
錘	12705
觔	12706
诎	12707
簮	12708
蹔	12709
湇	12710
輈	12711
铩	12712
砡	12713
絪	12714
瀸	12715
豰	12716
苘	12717
輋	12718
堧	12719
盩	12720
蛴	12721
螬	12722
丄	12723
旹	12724
埜	12725
穼	12726
眅	12727
畊	12728
忖	12729
谹	12730
冭	12731
燋	12732
欱	12733
歕	12734
鹪	12735
烜	12736
罣	12737
葇	12738
杕	12739
砝	12740
旾	12741
岊	12742
薃	12743
靈	12744
傧	12745
佽	12746
懑	12747
嶭	12748
偱	12749
貎	12750
蓐	12751
檷	12752
哿	12753
嘐	12754
塈	12755
盬	12756
虡	12757
稧	12758
峁	12759
硙	12760
覚	12761
慄	12762
慇	12763
懃	12764
搿	12765
皊	12766
瞵	12767
郕	12768
煺	12769
擥	12770
嘨	12771
揿	12772
燻	12773
嵖	12774
锞	12775
椷	12776
賖	12777
墬	12778
槠	12779
黁	12780
讌	12781
炁	12782
伕	12783
乸	12784
慭	12785
橚	12786
橫	12787
鞵	12788
虀	12789
恟	12790
戥	12791
俓	12792
酻	12793
菿	12794
馞	12795
丱	12796
闇	12797
戗	12798
劼	12799
烋	12800
鏦	12801
盦	12802
煕	12803
慊	12804
庳	12805
籝	12806
镮	12807
濳	12808
臛	12809
嶶	12810
潖	12811
嵓	12812
洸	12813
浞	12814
餰	12815
荳	12816
汯	12817
臜	12818
髴	12819
剳	12820
籧	12821
膂	12822
阏	12823
筩	12824
酙	12825
緖	12826
菋	12827
蕍	12828
嫰	12829
铒	12830
矌	12831
盰	12832
舢	12833
覇	12834
葼	12835
咴	12836
廾	12837
挼	12838
逥	12839
孭	12840
晊	12841
疎	12842
梂	12843
鄘	12844
嘥	12845
嶺	12846
碔	12847
砆	12848
唻	12849
坺	12850
镏	12851
樂	12852
堯	12853
柈	12854
晲	12855
綄	12856
慞	12857
獍	12858
尒	12859
幍	12860
埘	12861
锼	12862
镪	12863
鼖	12864
酇	12865
満	12866
䞍	12867
晜	12868
闩	12869
憍	12870
燿	12871
垸	12872
冱	12873
義	12874
麃	12875
羵	12876
兿	12877
诹	12878
翂	12879
翐	12880
搯	12881
種	12882
颕	12883
褵	12884
蕝	12885
鬏	12886
嶓	12887
笶	12888
蘗	12889
玅	12890
徃	12891
埻	12892
趔	12893
鄅	12894
栻	12895
撙	12896
韾	12897
牴	12898
戯	12899
缧	12900
绁	12901
揃	12902
藘	12903
辁	12904
勠	12905
麯	12906
遅	12907
蔸	12908
颿	12909
丗	12910
姞	12911
餂	12912
梐	12913
俍	12914
榦	12915
龇	12916
绖	12917
罇	12918
嶊	12919
崣	12920
靉	12921
靆	12922
鼛	12923
鄼	12924
咈	12925
簏	12926
淺	12927
浡	12928
窔	12929
硃	12930
沝	12931
釐	12932
锃	12933
閤	12934
喦	12935
醽	12936
祡	12937
怊	12938
蓏	12939
揷	12940
霂	12941
砳	12942
奓	12943
沨	12944
璩	12945
牾	12946
靘	12947
蠏	12948
掱	12949
巣	12950
噰	12951
牕	12952
紬	12953
巂	12954
栌	12955
罱	12956
聶	12957
洡	12958
滱	12959
掭	12960
菑	12961
蕸	12962
稃	12963
镘	12964
佴	12965
鳥	12966
馬	12967
幙	12968
饩	12969
胾	12970
櫡	12971
垯	12972
巵	12973
琱	12974
簰	12975
晧	12976
泆	12977
暍	12978
躃	12979
焐	12980
趠	12981
菻	12982
昍	12983
朤	12984
問	12985
聞	12986
無	12987
昐	12988
憝	12989
柺	12990
鬂	12991
岞	12992
胠	12993
杩	12994
鬷	12995
爼	12996
壠	12997
輏	12998
伲	12999
1919	13000
##tal	13001
222	13002
171	13003
##less	13004
4399	13005
##rl	13006
pcb	13007
499	13008
157	13009
なし	13010
##mhz	13011
660	13012
##house	13013
##key	13014
##o	13015
##hy	13016
##web	13017
oem	13018
##gg	13019
##wan	13020
182	13021
203	13022
##val	13023
233	13024
2021	13025
##ons	13026
doi	13027
trivago	13028
overdope	13029
##ance	13030
##ち	13031
573032185	13032
imf	13033
216	13034
##so	13035
##he	13036
##rp	13037
##ake	13038
amp	13039
ps4	13040
880	13041
##link	13042
##hp	13043
crm	13044
##eng	13045
195	13046
photos	13047
2300	13048
##style	13049
##ント	13050
176	13051
##gi	13052
i7	13053
##ray	13054
370	13055
i5	13056
##max	13057
8g	13058
173	13059
##pc	13060
##ッフ	13061
189	13062
##ace	13063
vps	13064
february	13065
167	13066
pantos	13067
1921	13068
jquery	13069
##berg	13070
##news	13071
1911	13072
##いて	13073
fks	13074
せます	13075
164	13076
340	13077
##all	13078
##rus	13079
1924	13080
##works	13081
blogtitle	13082
loftpermalink	13083
187	13084
martin	13085
##め	13086
15000	13087
fda	13088
v3	13089
##ja	13090
##ロ	13091
かある	13092
##ea	13093
をこ	13094
##top	13095
##ness	13096
salvatore	13097
##lu	13098
204	13099
215	13100
している	13101
##ul	13102
1925	13103
b2c	13104
##のは	13105
##a	13106
##けと	13107
##ean	13108
##gle	13109
##back	13110
powered	13111
x2	13112
##tan	13113
1918	13114
##nes	13115
##イン	13116
181	13117
##zi	13118
##las	13119
##oe	13120
184	13121
##sd	13122
221	13123
##bot	13124
##world	13125
##zo	13126
top100	13127
1926	13128
pmi	13129
802	13130
234	13131
##vr	13132
177	13133
174	13134
ofweek	13135
##list	13136
##ort	13137
##なら	13138
##lon	13139
として	13140
##tc	13141
##of	13142
##bus	13143
##gen	13144
##コ	13145
a3	13146
nas	13147
##lie	13148
##ria	13149
##coin	13150
##bt	13151
212	13152
nata	13153
vive	13154
health	13155
##ook	13156
##よう	13157
##sy	13158
msg	13159
しました	13160
3ce	13161
##word	13162
193	13163
ebooks	13164
r8	13165
318	13166
##より	13167
2200	13168
207	13169
months	13170
1905	13171
rewards	13172
##ther	13173
1917	13174
0800	13175
##xi	13176
##チ	13177
##sc	13178
micro	13179
850	13180
blogfp	13181
1922	13182
m1	13183
264	13184
##bb	13185
ml	13186
##tar	13187
##のお	13188
##ky	13189
anthony	13190
196	13191
253	13192
##yo	13193
218	13194
##ara	13195
##aa	13196
##rc	13197
##tz	13198
##ston	13199
より	13200
##eo	13201
##ade	13202
1923	13203
##win	13204
##ura	13205
heart	13206
##den	13207
##ita	13208
##sm	13209
png	13210
2100	13211
610	13212
rakuten	13213
##use	13214
680	13215
311	13216
##ode	13217
##fo	13218
223	13219
214	13220
しの	13221
##hone	13222
##れる	13223
##ことか	13224
be2	13225
##ology	13226
990	13227
##con	13228
##ford	13229
##joy	13230
##kb	13231
##こさいます	13232
##rade	13233
##ach	13234
docker	13235
##ful	13236
rfid	13237
ul	13238
##ase	13239
##star	13240
580	13241
11	13242
a2	13243
sdk	13244
edited	13245
##are	13246
cmos	13247
##mc	13248
238	13249
##ella	13250
##ため	13251
bloomberg	13252
##read	13253
##ison	13254
##vm	13255
node	13256
journal	13257
18k	13258
##play	13259
245	13260
##cer	13261
20	13262
##yu	13263
191	13264
288	13265
##ings	13266
asr	13267
##lia	13268
3200	13269
step5	13270
##cd	13271
いします	13272
1234	13273
pixstyleme	13274
273	13275
2800	13276
1280	13277
12	13278
430	13279
みの	13280
##tus	13281
##rial	13282
##life	13283
##ae	13284
saas	13285
tcs	13286
##rk	13287
##wang	13288
##sp	13289
##ving	13290
390	13291
premium	13292
##その	13293
##ヒ	13294
##lton	13295
209	13296
える	13297
##ple	13298
##cal	13299
021	13300
##んな	13301
##sen	13302
##ville	13303
##ius	13304
てお	13305
##mah	13306
##なく	13307
tila	13308
820	13309
##tin	13310
resort	13311
##ws	13312
p10	13313
5d	13314
report	13315
##ru	13316
##には	13317
##est	13318
##レ	13319
links	13320
##ツ	13321
##dm	13322
azure	13323
きな	13324
limited	13325
4gb	13326
##mon	13327
1910	13328
##eam	13329
213	13330
1913	13331
なとの	13332
226	13333
blogspot	13334
された	13335
699	13336
e3	13337
##ments	13338
##ik	13339
##kw	13340
##bin	13341
##ata	13342
960	13343
##せ	13344
219	13345
##vin	13346
##tu	13347
##ula	13348
194	13349
##ろ	13350
##ature	13351
835	13352
files	13353
top10	13354
950	13355
s6	13356
marriott	13357
##シ	13358
avira	13359
##っと	13360
##ran	13361
##home	13362
oculus	13363
##ral	13364
307	13365
##force	13366
##ini	13367
##bert	13368
のある	13369
##nder	13370
##mber	13371
2600	13372
plurk	13373
##sis	13374
00kg	13375
720	13376
##ence	13377
##ω	13378
##nc	13379
##ても	13380
##name	13381
malaysia	13382
unix	13383
##イト	13384
3600	13385
##ncy	13386
##nie	13387
12000	13388
akb48	13389
##ye	13390
##oid	13391
404	13392
##chi	13393
##いた	13394
xuehai	13395
##orm	13396
##rf	13397
275	13398
さん	13399
##ware	13400
980	13401
##pro	13402
text	13403
##era	13404
560	13405
227	13406
##ub	13407
8891	13408
scp	13409
##zen	13410
2022	13411
museum	13412
qvod	13413
apache	13414
jcb	13415
##hr	13416
302	13417
490	13418
##row	13419
4d	13420
##ish	13421
github	13422
306	13423
312	13424
##スト	13425
##lot	13426
##ane	13427
andrew	13428
のハイト	13429
##tina	13430
t1	13431
ed2k	13432
##vel	13433
りの	13434
5a	13435
705	13436
197	13437
##メ	13438
bytes	13439
##ene	13440
231	13441
##cker	13442
##px	13443
100g	13444
topapp	13445
229	13446
helpapp	13447
14k	13448
g4g	13449
630	13450
ldquo	13451
あり	13452
##fork	13453
edition	13454
##gan	13455
##zon	13456
##qq	13457
##google	13458
##ism	13459
224	13460
explorer	13461
##zer	13462
toyota	13463
category	13464
select	13465
visual	13466
##labels	13467
restaurant	13468
##md	13469
posts	13470
s1	13471
##ico	13472
もっと	13473
123456	13474
217	13475
sports	13476
s3	13477
1915	13478
shell	13479
x86	13480
##new	13481
470	13482
##here	13483
4a	13484
swissinfo	13485
v8	13486
dram	13487
##ual	13488
##vice	13489
3a	13490
##wer	13491
sport	13492
q1	13493
ios10	13494
public	13495
##c	13496
rt	13497
##れた	13498
1080	13499
##mll	13500
30	13501
460	13502
##uk	13503
##ミ	13504
x3	13505
298	13506
0t	13507
##ming	13508
239	13509
e5	13510
h7n9	13511
worldcat	13512
##あります	13513
##vo	13514
##led	13515
##ax	13516
249	13517
410	13518
##ert	13519
925	13520
##lr	13521
599	13522
##ナ	13523
capital	13524
##hing	13525
1g	13526
##chat	13527
##s	13528
##たい	13529
##ule	13530
2m	13531
##e	13532
digital	13533
268	13534
##pad	13535
870	13536
quot	13537
##ring	13538
wali	13539
##まて	13540
2k	13541
2b	13542
という	13543
costco	13544
316	13545
north	13546
333	13547
##city	13548
##p	13549
philips	13550
##mann	13551
management	13552
panasonic	13553
##cl	13554
##vd	13555
##ping	13556
##rge	13557
##lk	13558
##ましょう	13559
css3	13560
##ney	13561
##ular	13562
##tter	13563
lz	13564
にお	13565
##ありません	13566
1916	13567
pci	13568
##tm	13569
237	13570
##yan	13571
##そ	13572
について	13573
##let	13574
##キ	13575
##ᅵ	13576
##pt	13577
a8	13578
##berry	13579
1895	13580
##ew	13581
a5	13582
##ション	13583
##wn	13584
##og	13585
##code	13586
girls	13587
##rid	13588
villa	13589
git	13590
r11	13591
games	13592
##cket	13593
##anonymoussaid	13594
##ag	13595
##ame	13596
##gc	13597
##lis	13598
gmp	13599
##gin	13600
vmalife	13601
##cher	13602
##tis	13603
530	13604
##rant	13605
325	13606
##ats	13607
261	13608
##ven	13609
440	13610
##ように	13611
305	13612
value	13613
macd	13614
yougou	13615
##dn	13616
661	13617
##ano	13618
##urt	13619
##rent	13620
continue	13621
script	13622
##wen	13623
##ect	13624
263	13625
319	13626
##chel	13627
##フト	13628
##cat	13629
258	13630
x5	13631
fox	13632
243	13633
##さん	13634
##blog	13635
loading	13636
##yn	13637
##tp	13638
799	13639
vdc	13640
##rmb	13641
##ような	13642
241	13643
square	13644
688	13645
##しい	13646
##field	13647
##reen	13648
##ors	13649
##ju	13650
c1	13651
start	13652
510	13653
##air	13654
##map	13655
cdn	13656
##wo	13657
m8	13658
100km	13659
##get	13660
##base	13661
##ood	13662
vsa	13663
##aw	13664
##ail	13665
251	13666
なのて	13667
count	13668
t2	13669
##ᅡ	13670
##een	13671
2700	13672
##gp	13673
##eg	13674
##ose	13675
816	13676
285	13677
##ories	13678
##shop	13679
v4	13680
1909	13681
##ᆼ	13682
zip	13683
##sta	13684
bas	13685
##yer	13686
hadoop	13687
##ube	13688
##wi	13689
1906	13690
0755	13691
##low	13692
centre	13693
5v	13694
d3	13695
##fer	13696
252	13697
##media	13698
281	13699
540	13700
0l	13701
exchange	13702
262	13703
series	13704
##san	13705
##bank	13706
##k	13707
q3	13708
##nge	13709
##mail	13710
##lp	13711
259	13712
1888	13713
client	13714
きを	13715
##nse	13716
855	13717
adchoice	13718
##и	13719
##stry	13720
##なたの	13721
246	13722
##zone	13723
apps	13724
##ab	13725
248	13726
cisco	13727
##タ	13728
##rner	13729
kymco	13730
##care	13731
##pu	13732
##yi	13733
minkoff	13734
p1	13735
への	13736
annie	13737
269	13738
playstation	13739
257	13740
になります	13741
866	13742
##bar	13743
505	13744
1904	13745
##xy	13746
##ery	13747
##share	13748
raid	13749
1908	13750
##ob	13751
##ball	13752
v6	13753
##hk	13754
242	13755
##cp	13756
technology	13757
##rie	13758
サイトは	13759
277	13760
##ona	13761
##sl	13762
303	13763
rdquo	13764
##lex	13765
##rum	13766
namespace	13767
##やり	13768
620	13769
##ale	13770
##atic	13771
##erson	13772
##ql	13773
##ves	13774
##type	13775
##この	13776
##てきます	13777
d2	13778
##mix	13779
##bian	13780
との	13781
a9	13782
##lc	13783
##hc	13784
リストに	13785
tower	13786
##ration	13787
##mit	13788
ます	13789
##nch	13790
prefix	13791
1907	13792
##point	13793
1901	13794
ott	13795
##http	13796
##ury	13797
baidu	13798
##ink	13799
member	13800
##logy	13801
nownews	13802
##js	13803
##shot	13804
##tb	13805
##こと	13806
247	13807
eba	13808
##tics	13809
##lus	13810
ける	13811
v5	13812
##ama	13813
##ions	13814
##lls	13815
##down	13816
##ress	13817
day2	13818
##kv	13819
related	13820
joseph	13821
283	13822
##ark	13823
32gb	13824
g9	13825
30000	13826
##ans	13827
##tty	13828
s5	13829
##bee	13830
かあります	13831
thread	13832
005	13833
##ari	13834
276	13835
##verse	13836
##ことて	13837
244	13838
nego	13839
dom	13840
401	13841
666	13842
positioning	13843
##tton	13844
278	13845
alexa	13846
みリストを	13847
##g	13848
##ties	13849
##llow	13850
##du	13851
002	13852
institute	13853
271	13854
##rth	13855
##lar	13856
2345	13857
590	13858
##des	13859
sidebar	13860
15	13861
site	13862
##cky	13863
##kit	13864
##ime	13865
323	13866
##fun	13867
##ひ	13868
gogoro	13869
a7	13870
twd600	13871
いて	13872
##vis	13873
30ml	13874
##cture	13875
##をお	13876
information	13877
##オ	13878
friday	13879
##くれる	13880
てすか	13881
##tta	13882
##tel	13883
6500	13884
##lock	13885
economy	13886
254	13887
かお	13888
267	13889
tinker	13890
375	13891
8gb	13892
##app	13893
985	13894
##right	13895
##cent	13896
7500	13897
814	13898
##its	13899
##asia	13900
dropbox	13901
##てすか	13902
##tti	13903
books	13904
272	13905
100ml	13906
##tle	13907
##ller	13908
##ken	13909
##more	13910
##boy	13911
309	13912
##dom	13913
t3	13914
##ider	13915
##なります	13916
##unch	13917
1903	13918
810	13919
5500	13920
##かった	13921
##put	13922
により	13923
s2	13924
##gh	13925
amoled	13926
div	13927
##tr	13928
port	13929
##tags	13930
##nus	13931
adsense	13932
##а	13933
ide	13934
##へ	13935
thunder	13936
##town	13937
##ique	13938
##body	13939
##erry	13940
てした	13941
295	13942
##the	13943
object	13944
udnbkk	13945
16gb	13946
##mic	13947
##tro	13948
r2	13949
##alk	13950
##nity	13951
1880	13952
##いました	13953
428	13954
s4	13955
##oa	13956
n1	13957
sgs	13958
docomo	13959
##tf	13960
##ack	13961
fc2	13962
##ded	13963
##sco	13964
##rite	13965
286	13966
0mm	13967
##ada	13968
##now	13969
##ndy	13970
ucbug	13971
sputniknews	13972
legalminer	13973
##ika	13974
##xp	13975
2gb	13976
##bu	13977
q10	13978
b6	13979
##rman	13980
##gm	13981
##fig	13982
ppi	13983
##ります	13984
jchere	13985
てきます	13986
003	13987
tech	13988
##tto	13989
soc	13990
##gl	13991
##len	13992
earth	13993
640	13994
521	13995
##pper	13996
##てきる	13997
##ロク	13998
##ition	13999
##ference	14000
suite	14001
##ig	14002
##mond	14003
##cation	14004
398	14005
##pr	14006
279	14007
101vip	14008
358	14009
282	14010
64gb	14011
3800	14012
345	14013
airport	14014
##over	14015
284	14016
##おり	14017
##ith	14018
##su	14019
##いるのて	14020
co2	14021
##llo	14022
no1	14023
vmware	14024
24h	14025
##qi	14026
reader	14027
##admin	14028
##ora	14029
false	14030
##log	14031
1898	14032
838	14033
##ces	14034
f4	14035
##ume	14036
##oper	14037
flickr	14038
netcomponents	14039
##af	14040
williams	14041
##ound	14042
##cg	14043
##site	14044
##iko	14045
いお	14046
274	14047
5m	14048
##ath	14049
1902	14050
##hip	14051
cell	14052
317	14053
##rey	14054
780	14055
##cks	14056
012	14057
##dp	14058
sso	14059
324	14060
shtml	14061
##mw	14062
##キンク	14063
string	14064
522	14065
られた	14066
insee	14067
russell	14068
##ations	14069
289	14070
##vs	14071
##flow	14072
##late	14073
287	14074
##nter	14075
g1	14076
512	14077
##ever	14078
##lab	14079
##nger	14080
sata	14081
d1	14082
50ml	14083
cms	14084
##cing	14085
292	14086
3300	14087
editor	14088
296	14089
##nap	14090
security	14091
association	14092
##ens	14093
##bra	14094
##かり	14095
sofascore	14096
とは	14097
##ign	14098
jonathan	14099
build	14100
labels	14101
##oto	14102
tesla	14103
gohappy	14104
general	14105
ajax	14106
1024	14107
##かる	14108
サイト	14109
society	14110
##test	14111
##urs	14112
fedora	14113
##ich	14114
mozilla	14115
328	14116
##dr	14117
urn	14118
##lina	14119
##r	14120
##die	14121
##try	14122
##ader	14123
1250	14124
##なり	14125
570	14126
##chen	14127
##ᆯ	14128
##ten	14129
uhz	14130
##ough	14131
##hen	14132
states	14133
session	14134
506	14135
##cus	14136
##py	14137
##ward	14138
##ep	14139
34e	14140
library	14141
##サイト	14142
##cle	14143
##ree	14144
313	14145
q4	14146
##ctive	14147
##ool	14148
##ira	14149
388	14150
rq	14151
e6	14152
##ez	14153
368	14154
##card	14155
##cha	14156
2a	14157
##さ	14158
day3	14159
f3	14160
##end	14161
france	14162
rna	14163
##ala	14164
##え	14165
##tail	14166
##ょう	14167
support	14168
##ries	14169
##なる	14170
##ved	14171
copy	14172
iis	14173
##ways	14174
hgih	14175
profile	14176
ssh	14177
entertainment	14178
##wd	14179
click	14180
##ond	14181
##tom	14182
kic	14183
pixel	14184
##ov	14185
##fl	14186
product	14187
6a	14188
##pd	14189
##gate	14190
audio	14191
##sky	14192
##ture	14193
329	14194
##ape	14195
##なと	14196
nand	14197
##load	14198
##ream	14199
a6	14200
525	14201
##post	14202
50cm	14203
##we	14204
555	14205
guide	14206
314	14207
zenfone	14208
##ike	14209
335	14210
forum	14211
##ould	14212
software	14213
##ious	14214
else	14215
lohasthree	14216
##gar	14217
##れます	14218
##ggle	14219
##ric	14220
50000	14221
##own	14222
eclipse	14223
355	14224
3ds	14225
##side	14226
061	14227
361	14228
##other	14229
##ける	14230
##tech	14231
##ator	14232
485	14233
engine	14234
##ged	14235
##t	14236
plaza	14237
##fit	14238
westbrook	14239
50mm	14240
##みませんか	14241
291	14242
reuters	14243
##ily	14244
contextlink	14245
##hn	14246
##cil	14247
bridge	14248
##cel	14249
1890	14250
cambridge	14251
##ize	14252
15g	14253
##aid	14254
##data	14255
790	14256
##head	14257
award	14258
butler	14259
##sun	14260
meta	14261
##mar	14262
ps3	14263
pmid	14264
##すか	14265
670	14266
kitchen	14267
##lic	14268
そして	14269
day1	14270
##text	14271
##page	14272
##rris	14273
pm1	14274
##ket	14275
##っています	14276
1001	14277
kids	14278
trackback	14279
##hai	14280
c3	14281
display	14282
##hl	14283
n2	14284
1896	14285
idea	14286
さんも	14287
##sent	14288
airmail	14289
##ug	14290
##men	14291
pwm	14292
けます	14293
028	14294
##lution	14295
369	14296
852	14297
awards	14298
schemas	14299
354	14300
wikipedia	14301
font	14302
##tional	14303
##vy	14304
c2	14305
293	14306
##れている	14307
##dget	14308
##ein	14309
っている	14310
contact	14311
スキル	14312
339	14313
294	14314
##uel	14315
##ument	14316
730	14317
##hang	14318
みてす	14319
q5	14320
##sue	14321
##ndi	14322
##cept	14323
わせ	14324
331	14325
popular	14326
##ste	14327
##tag	14328
p2	14329
501	14330
trc	14331
1899	14332
##west	14333
##live	14334
honda	14335
messenger	14336
##rap	14337
v9	14338
543	14339
##とは	14340
unity	14341
appqq	14342
はすへて	14343
025	14344
##tone	14345
##テ	14346
##ass	14347
502	14348
moneydj	14349
##tical	14350
12306	14351
していると	14352
miacare	14353
##mn	14354
tmt	14355
##core	14356
vim	14357
##may	14358
target	14359
338	14360
435	14361
2050	14362
867	14363
737	14364
services	14365
##ope	14366
##わ	14367
pinkoi	14368
1a	14369
##なから	14370
##rain	14371
##ement	14372
##シャンルの	14373
374	14374
366	14375
そんな	14376
p9	14377
##ᆨ	14378
1111	14379
##tier	14380
##vic	14381
385	14382
690	14383
isofix	14384
m4	14385
322	14386
めて	14387
davis	14388
##lay	14389
##uck	14390
050	14391
weeks	14392
##hop	14393
920	14394
##n	14395
##ear	14396
eia	14397
405	14398
##fly	14399
##ship	14400
##リア	14401
1860	14402
eur	14403
297	14404
425	14405
valley	14406
##iel	14407
##ude	14408
rn	14409
k2	14410
##ena	14411
されます	14412
patrick	14413
feed	14414
5757	14415
30g	14416
process	14417
qqmei	14418
##thing	14419
aws	14420
##ters	14421
##kin	14422
または	14423
board	14424
##vertisement	14425
##ien	14426
unicode	14427
##dge	14428
r1	14429
359	14430
##tant	14431
いを	14432
##twitter	14433
cool1	14434
される	14435
##れて	14436
##l	14437
isp	14438
standard	14439
402	14440
##fu	14441
326	14442
##iner	14443
googlemsn	14444
pixnetfacebookyahoo	14445
##ラン	14446
x7	14447
886	14448
##uce	14449
##ev	14450
##きました	14451
##file	14452
9678	14453
403	14454
shirt	14455
6l	14456
##rio	14457
##hat	14458
3mm	14459
##lio	14460
ロクイン	14461
##abc	14462
336	14463
890	14464
##vc	14465
##rity	14466
cnc	14467
7866	14468
ipv6	14469
1897	14470
##ost	14471
imsean	14472
##fet	14473
##ンス	14474
352	14475
dji	14476
327	14477
##come	14478
##んて	14479
3100	14480
##beth	14481
##なった	14482
1m	14483
601	14484
active	14485
##aft	14486
##don	14487
3p	14488
349	14489
##khz	14490
415	14491
353	14492
1889	14493
341	14494
709	14495
457	14496
x6	14497
##face	14498
x4	14499
##mate	14500
##jing	14501
337	14502
##mand	14503
inwedding	14504
##gn	14505
##mmy	14506
##pmlast	14507
なとはお	14508
##wu	14509
##かあります	14510
##あ	14511
note7	14512
せからこ	14513
##bel	14514
##dio	14515
##ht	14516
union	14517
382	14518
14	14519
##ivity	14520
##y	14521
コメント	14522
domain	14523
##isa	14524
##lter	14525
5k	14526
f5	14527
##cts	14528
powerpoint	14529
tft	14530
g2	14531
##テル	14532
zol	14533
##act	14534
mwc	14535
381	14536
343	14537
もう	14538
nbapop	14539
408	14540
てある	14541
eds	14542
##room	14543
previous	14544
author	14545
tomtom	14546
##ets	14547
financial	14548
っています	14549
5t	14550
1gb	14551
##hg	14552
fairmont	14553
008	14554
h2	14555
function	14556
##けて	14557
356	14558
also	14559
1b	14560
625	14561
##raph	14562
1894	14563
##ils	14564
i3	14565
334	14566
avenue	14567
##host	14568
による	14569
##bon	14570
##tsu	14571
navigation	14572
50g	14573
fintech	14574
h6	14575
##ことを	14576
8cm	14577
##ject	14578
##vas	14579
##firm	14580
credit	14581
##wf	14582
form	14583
##nor	14584
##space	14585
json	14586
sbl	14587
##dc	14588
921	14589
392	14590
##sol	14591
edward	14592
##ために	14593
development	14594
washington	14595
##nsis	14596
818	14597
##sio	14598
##ym	14599
##bor	14600
##wt	14601
ieee	14602
##めて	14603
camp	14604
##tw	14605
##oka	14606
connect	14607
##rss	14608
##work	14609
##atus	14610
2mm	14611
##times	14612
##ather	14613
##cord	14614
009	14615
##eep	14616
hitachi	14617
##pan	14618
e1	14619
##press	14620
386	14621
frigidaire	14622
##tl	14623
hsu	14624
332	14625
ev	14626
いた	14627
てきる	14628
learning	14629
##ull	14630
expedia	14631
archives	14632
##wei	14633
6gb	14634
cf1	14635
508	14636
004	14637
747	14638
##rip	14639
h1	14640
##nis	14641
##をこ	14642
128gb	14643
##にお	14644
3t	14645
しており	14646
emc	14647
##oon	14648
384	14649
412	14650
15058	14651
wilson	14652
chapter	14653
##bug	14654
##cms	14655
##dar	14656
##oh	14657
e2	14658
##nba	14659
rcep	14660
342	14661
aspx	14662
080	14663
gnu	14664
める	14665
##count	14666
advanced	14667
##url	14668
##ging	14669
367	14670
8591	14671
am09	14672
346	14673
##i	14674
##cia	14675
##という	14676
##のてす	14677
##tation	14678
host	14679
techorz	14680
##mini	14681
##mporary	14682
##ering	14683
4200	14684
798	14685
##next	14686
cma	14687
##mbps	14688
##gas	14689
##ift	14690
##dot	14691
##ィ	14692
455	14693
amana	14694
##りの	14695
426	14696
##ros	14697
ir	14698
##eet	14699
##ible	14700
710	14701
##aka	14702
dcs	14703
##v	14704
l1	14705
##lor	14706
##iu	14707
588	14708
830	14709
##gt	14710
1tb	14711
articles	14712
create	14713
##burg	14714
##iki	14715
database	14716
##rex	14717
##cam	14718
##you	14719
gaming	14720
##lee	14721
##itor	14722
overchicstoretvhome	14723
systems	14724
##xt	14725
416	14726
p3	14727
760	14728
##nan	14729
407	14730
486	14731
x9	14732
install	14733
626	14734
##ann	14735
##ph	14736
##rcle	14737
##nic	14738
860	14739
##nar	14740
##とう	14741
768	14742
metro	14743
##rian	14744
##table	14745
##しています	14746
##sn	14747
395	14748
inparadise	14749
6m	14750
7x24	14751
4800	14752
##jia	14753
eeworld	14754
creative	14755
g5	14756
g3	14757
357	14758
parker	14759
ecfa	14760
village	14761
からの	14762
18000	14763
sylvia	14764
hbl	14765
##ques	14766
##onsored	14767
##きます	14768
##tein	14769
ie6	14770
383	14771
##stack	14772
389	14773
##ads	14774
##baby	14775
bbe	14776
##lone	14777
##uid	14778
ads	14779
022	14780
gundam	14781
351	14782
006	14783
scrum	14784
##ave	14785
mems	14786
##oy	14787
##なりました	14788
##talk	14789
lamigo	14790
##eme	14791
wade	14792
kde	14793
498	14794
##lace	14795
tvg	14796
##covery	14797
##ners	14798
##rea	14799
##aine	14800
##ision	14801
##sia	14802
##bow	14803
413	14804
458	14805
406	14806
##love	14807
711	14808
801	14809
z2	14810
##pl	14811
456	14812
1840	14813
mobil	14814
##uy	14815
427	14816
nginx	14817
##oi	14818
めた	14819
##rr	14820
6221	14821
##mple	14822
##sson	14823
371	14824
##nts	14825
91tv	14826
comhd	14827
crv3000	14828
##uard	14829
1868	14830
397	14831
field	14832
gallery	14833
##bia	14834
rate	14835
redis	14836
traction	14837
930	14838
011	14839
なら	14840
jose	14841
372	14842
##tory	14843
899	14844
379	14845
##hia	14846
すく	14847
##sit	14848
24	14849
##walk	14850
##xure	14851
500g	14852
##pact	14853
pacific	14854
carlo	14855
##walker	14856
1850	14857
##can	14858
516	14859
##hoo	14860
##b	14861
##yy	14862
13913459	14863
##iti	14864
##bbs	14865
c5	14866
oxford	14867
##ニア	14868
##ola	14869
##bre	14870
701	14871
##pus	14872
##rder	14873
075	14874
##ぁ	14875
なお	14876
##nia	14877
sotheby	14878
side	14879
##ugh	14880
##orage	14881
##ush	14882
##bat	14883
##dt	14884
364	14885
r9	14886
##gio	14887
511	14888
##lax	14889
##moon	14890
393	14891
411	14892
348	14893
lonzo	14894
8k	14895
##ェ	14896
evolution	14897
##イフ	14898
##kk	14899
##レス	14900
arduino	14901
344	14902
b12	14903
##lux	14904
arpg	14905
##rdon	14906
##als	14907
##ida	14908
とても	14909
362	14910
##ちの	14911
20mm	14912
##nda	14913
387	14914
##posted	14915
1870	14916
422	14917
##mine	14918
##skip	14919
##form	14920
##ssion	14921
education	14922
394	14923
##tee	14924
##jie	14925
##night	14926
epson	14927
pack	14928
あります	14929
##ppy	14930
テリヘル	14931
##eh	14932
##rence	14933
##lvin	14934
mhz	14935
##trix	14936
##uch	14937
##dra	14938
##sse	14939
1mdb	14940
##urn	14941
##lmer	14942
せよ	14943
611	14944
378	14945
##sha	14946
##あなたに	14947
##きた	14948
840	14949
holiday	14950
373	14951
074	14952
##vg	14953
##nos	14954
##rail	14955
gartner	14956
6p	14957
##dium	14958
kit	14959
488	14960
b3	14961
eco	14962
##ろう	14963
20g	14964
##stone	14965
autocad	14966
##np	14967
f16	14968
write	14969
029	14970
m5	14971
##ias	14972
images	14973
atp	14974
##dk	14975
fsm	14976
504	14977
1350	14978
52kb	14979
##xxx	14980
##のに	14981
##cake	14982
414	14983
unit	14984
lim	14985
1v	14986
##ification	14987
published	14988
16g	14989
analytics	14990
##q	14991
##nel	14992
gmt	14993
##icon	14994
##bby	14995
ios11	14996
445	14997
waze	14998
いてす	14999
##ハ	15000
9985	15001
##ust	15002
framework	15003
52sykb	15004
wwdc	15005
027	15006
30cm	15007
##fw	15008
##ての	15009
1389	15010
##xon	15011
brandt	15012
##ses	15013
##dragon	15014
vetements	15015
anne	15016
monte	15017
official	15018
##へて	15019
##ere	15020
##nne	15021
##oud	15022
もちろん	15023
50	15024
etnews	15025
##graphy	15026
421	15027
863	15028
##ちゃん	15029
444	15030
##rtex	15031
##てお	15032
l2	15033
##gma	15034
mount	15035
ccd	15036
たと	15037
archive	15038
ddos	15039
e7	15040
##ホ	15041
day4	15042
##ウ	15043
gis	15044
453	15045
495	15046
factory	15047
##ito	15048
guest	15049
##lling	15050
536	15051
n3	15052
しかし	15053
mega	15054
13	15055
dac	15056
##jun	15057
##facebook	15058
6991	15059
##tos	15060
##stin	15061
##shine	15062
##mu	15063
1893	15064
##たけて	15065
503	15066
465	15067
request	15068
##gence	15069
##っ	15070
1886	15071
347	15072
363	15073
q7	15074
##zzi	15075
diary	15076
##tore	15077
409	15078
##ead	15079
468	15080
cst	15081
##osa	15082
agent	15083
##jiang	15084
##ちは	15085
##lam	15086
##nix	15087
##sday	15088
##よって	15089
g6	15090
##master	15091
##zl	15092
16	15093
8mm	15094
nb40	15095
thai	15096
##ルフ	15097
ln284ct	15098
##itz	15099
##food	15100
##lent	15101
originals	15102
##stro	15103
##lts	15104
418	15105
##bscribe	15106
ntd	15107
yesstyle	15108
##かも	15109
hmv	15110
##tment	15111
d5	15112
2cm	15113
arts	15114
sms	15115
##pn	15116
##я	15117
##いい	15118
topios9	15119
539	15120
lifestyle	15121
virtual	15122
##ague	15123
##deo	15124
024	15125
unt	15126
##nnis	15127
##ᅩ	15128
faq1	15129
1884	15130
396	15131
##ette	15132
441	15133
##pop	15134
のこ	15135
release	15136
##cast	15137
073	15138
ありな	15139
500ml	15140
##ews	15141
5c	15142
##stle	15143
ios7	15144
##ima	15145
787	15146
lenovo	15147
013	15148
vornado	15149
100m	15150
417	15151
##desk	15152
##クok	15153
##ald	15154
1867	15155
9595	15156
2900	15157
##van	15158
##x	15159
common	15160
##jy	15161
##lines	15162
g7	15163
419	15164
にこ	15165
##mes	15166
##self	15167
##note	15168
jb	15169
##ことかてきます	15170
##との	15171
##ova	15172
451	15173
##wing	15174
##ますのて	15175
りは	15176
##hua	15177
##rect	15178
rainer	15179
##unge	15180
448	15181
##かな	15182
guestname	15183
##uma	15184
##kins	15185
##zu	15186
tokichoi	15187
##price	15188
county	15189
##med	15190
##mus	15191
391	15192
address	15193
えて	15194
openload	15195
##group	15196
##hin	15197
##iginal	15198
##oz	15199
emi	15200
##public	15201
##sch	15202
album	15203
##dden	15204
##bell	15205
hostel	15206
##drive	15207
##rmin	15208
376	15209
boot	15210
828	15211
##fx	15212
1885	15213
##nome	15214
##ctionary	15215
##oman	15216
##lish	15217
##cr	15218
##hm	15219
433	15220
##how	15221
432	15222
francis	15223
c919	15224
b5	15225
evernote	15226
##uc	15227
vga	15228
##urg	15229
##cca	15230
##uality	15231
019	15232
6g	15233
れる	15234
multi	15235
##また	15236
##ett	15237
##ani	15238
##tax	15239
##rma	15240
inside	15241
740	15242
leonnhurt	15243
##jin	15244
ict	15245
れた	15246
notes	15247
200mm	15248
くの	15249
##dical	15250
##lli	15251
result	15252
442	15253
438	15254
##last	15255
998	15256
32g	15257
けた	15258
5kg	15259
##dan	15260
##rame	15261
##oot	15262
marketing	15263
##hur	15264
2l	15265
sync	15266
xuite	15267
##ground	15268
515	15269
discuz	15270
##getrelax	15271
##ince	15272
##bay	15273
##イス	15274
apt	15275
##pass	15276
##rix	15277
c4	15278
##とても	15279
niusnews	15280
##ello	15281
770	15282
##eting	15283
##mobile	15284
18	15285
culture	15286
015	15287
##のてすか	15288
377	15289
1020	15290
area	15291
##ience	15292
616	15293
details	15294
universal	15295
dit	15296
はお	15297
private	15298
u11	15299
kanshu	15300
##ified	15301
fung	15302
##nny	15303
475	15304
023	15305
##fr	15306
##lean	15307
3s	15308
##pin	15309
429	15310
##rin	15311
25000	15312
##bility	15313
usb3	15314
##baru	15315
##gion	15316
vdf	15317
1871	15318
karl	15319
qualcomm	15320
1010	15321
oldid	15322
##tors	15323
population	15324
##ernel	15325
1882	15326
mmorpg	15327
##mv	15328
##bike	15329
603	15330
##ager	15331
exhibition	15332
##del	15333
##pods	15334
fpx	15335
structure	15336
##free	15337
##tings	15338
##rley	15339
##copyright	15340
##mma	15341
3400	15342
4l	15343
##anda	15344
##コメント	15345
595	15346
nikkie	15347
##ルハイト	15348
publishing	15349
##mall	15350
##gnet	15351
20cm	15352
513	15353
##クセス	15354
e88	15355
970	15356
##dog	15357
fishbase	15358
##ß	15359
##æ	15360
##÷	15361
##ø	15362
##α	15363
##β	15364
##γ	15365
##δ	15366
##ε	15367
##η	15368
##θ	15369
##ι	15370
##κ	15371
##λ	15372
##μ	15373
##ν	15374
##ο	15375
##π	15376
##ρ	15377
##ς	15378
##σ	15379
##τ	15380
##υ	15381
##φ	15382
##χ	15383
##ψ	15384
##б	15385
##в	15386
##г	15387
##д	15388
##е	15389
##ж	15390
##з	15391
##к	15392
##л	15393
##м	15394
##н	15395
##о	15396
##п	15397
##р	15398
##с	15399
##т	15400
##у	15401
##ф	15402
##х	15403
##ц	15404
##ч	15405
##ш	15406
##ы	15407
##ь	15408
##ᄀ	15409
##ᄁ	15410
##ᄂ	15411
##ᄃ	15412
##ᄅ	15413
##ᄆ	15414
##ᄇ	15415
##ᄈ	15416
##ᄉ	15417
##ᄋ	15418
##ᄌ	15419
##ᄎ	15420
##ᄏ	15421
##ᄐ	15422
##ᄑ	15423
##ᄒ	15424
##ᅢ	15425
##ᅣ	15426
##ᅥ	15427
##ᅦ	15428
##ᅧ	15429
##ᅨ	15430
##ᅪ	15431
##ᅬ	15432
##ᅭ	15433
##ᅮ	15434
##ᅯ	15435
##ᅲ	15436
##ᅳ	15437
##ᅴ	15438
##ᆷ	15439
##ᆸ	15440
##ᆺ	15441
##ᆻ	15442
##	15443
##ぃ	15444
##ぇ	15445
##ぬ	15446
##ふ	15447
##ほ	15448
##む	15449
##ゃ	15450
##ゅ	15451
##ゆ	15452
##ょ	15453
##ァ	15454
##ゥ	15455
##エ	15456
##ォ	15457
##ケ	15458
##サ	15459
##セ	15460
##ソ	15461
##ッ	15462
##ニ	15463
##ヌ	15464
##ネ	15465
##ノ	15466
##ヘ	15467
##モ	15468
##ャ	15469
##ヤ	15470
##ュ	15471
##ユ	15472
##ョ	15473
##ヨ	15474
##ワ	15475
##ヲ	15476
##ㆍ	15477
##f	15478
##h	15479
##j	15480
##u	15481
##w	15482
##z	15483
剧	15484
多	15485
点	15486
会	15487
提	15488
高	15489
##7	15490
语	15491
言	15492
抖	15493
包	15494
袱	15495
没	15496
确	15497
实	15498
对	15499
已	15500
经	15501
徐	15502
##00	15503
##10	15504
##2017	15505
##2016	15506
##20	15507
##17	15508
##11	15509
##12	15510
##30	15511
##50	15512
##15	15513
##16	15514
##80	15515
##88	15516
##60	15517
##90	15518
##2015	15519
##21	15520
##99	15521
##40	15522
##18	15523
##01	15524
##13	15525
##24	15526
##22	15527
##016	15528
##32	15529
##017	15530
##14	15531
##70	15532
##25	15533
##23	15534
##26	15535
##31	15536
##19	15537
##100	15538
##28	15539
##06	15540
##48	15541
##015	15542
##35	15543
##29	15544
##02	15545
##05	15546
##33	15547
##55	15548
##2014	15549
##66	15550
##77	15551
##27	15552
##61	15553
##2013	15554
##45	15555
##03	15556
##47	15557
##000	15558
##71	15559
##04	15560
##95	15561
##68	15562
##07	15563
##78	15564
##38	15565
##73	15566
##08	15567
##36	15568
##64	15569
##85	15570
##75	15571
##98	15572
##51	15573
##86	15574
##42	15575
##58	15576
##09	15577
##34	15578
##41	15579
##2012	15580
##62	15581
##44	15582
##53	15583
##81	15584
##65	15585
##91	15586
##46	15587
##56	15588
##39	15589
##52	15590
##63	15591
##69	15592
##89	15593
##97	15594
##67	15595
##96	15596
##43	15597
##87	15598
##2011	15599
##37	15600
##54	15601
##72	15602
##79	15603
##49	15604
##84	15605
##2010	15606
##83	15607
##92	15608
##82	15609
##76	15610
##59	15611
##57	15612
##93	15613
##94	15614
##74	15615
##500	15616
##123	15617
##2000	15618
##200	15619
##001	15620
##2009	15621
##800	15622
##888	15623
##300	15624
##600	15625
##360	15626
##365	15627
##1000	15628
##2008	15629
##900	15630
##2007	15631
##580	15632
##400	15633
##750	15634
##168	15635
##009	15636
##013	15637
##014	15638
##999	15639
##700	15640
##480	15641
##163	15642
##101	15643
##010	15644
##012	15645
##150	15646
##340	15647
##120	15648
##011	15649
##110	15650
##470	15651
##250	15652
##160	15653
##007	15654
##370	15655
##3000	15656
##520	15657
嚗	15658
憭	15659
摰	15660
氽	15661
鈭	15662
銝	15663
铌	15664
隞	15665
隡	15666
windows7	15667
##0m	15668
##2c	15669
##2d	15670
##2f	15671
##3c	15672
##3d	15673
##5s	15674
##a1	15675
##a2	15676
##a5	15677
##m2	15678
##n1	15679
##n2	15680
##o2	15681
##r3	15682
##r4	15683
##v4	15684
##x2	15685
##x5	15686
##0mm	15687
一一	15688
一万	15689
一丈	15690
一下	15691
一世	15692
一丝	15693
一两	15694
一个	15695
一中	15696
一串	15697
一举	15698
一事	15699
一二	15700
一些	15701
一亩	15702
一亿	15703
一代	15704
一件	15705
一任	15706
一份	15707
一伙	15708
一会	15709
一位	15710
一体	15711
一例	15712
一侧	15713
一倍	15714
一元	15715
一八	15716
一共	15717
一具	15718
一册	15719
一再	15720
一出	15721
一刀	15722
一分	15723
一切	15724
一列	15725
一则	15726
一刻	15727
一剑	15728
一副	15729
一动	15730
一勺	15731
一包	15732
一匹	15733
一千	15734
一半	15735
一卷	15736
一双	15737
一发	15738
一口	15739
一句	15740
一只	15741
一台	15742
一叶	15743
一号	15744
一同	15745
一名	15746
一向	15747
一员	15748
一周	15749
一味	15750
一品	15751
一回	15752
一团	15753
一圈	15754
一场	15755
一块	15756
一堂	15757
一堆	15758
一声	15759
一处	15760
一夜	15761
一大	15762
一天	15763
一头	15764
一套	15765
一如	15766
一季	15767
一宗	15768
一定	15769
一审	15770
一家	15771
一寸	15772
一对	15773
一封	15774
一尊	15775
一小	15776
一尺	15777
一局	15778
一层	15779
一届	15780
一岁	15781
一师	15782
一带	15783
一席	15784
一帮	15785
一幅	15786
一幕	15787
一幢	15788
一年	15789
一并	15790
一度	15791
一座	15792
一开	15793
一张	15794
一律	15795
一心	15796
一战	15797
一户	15798
一所	15799
一扇	15800
一手	15801
一打	15802
一批	15803
一把	15804
一抹	15805
一招	15806
一拳	15807
一排	15808
一支	15809
一文	15810
一斤	15811
一新	15812
一方	15813
一旁	15814
一日	15815
一旦	15816
一早	15817
一时	15818
一晃	15819
一曲	15820
一月	15821
一朝	15822
一期	15823
一本	15824
一朵	15825
一杆	15826
一村	15827
一束	15828
一条	15829
一来	15830
一杯	15831
一枚	15832
一枝	15833
一枪	15834
一架	15835
一栋	15836
一株	15837
一样	15838
一根	15839
一案	15840
一桌	15841
一档	15842
一桩	15843
一桶	15844
一梦	15845
一棵	15846
一楼	15847
一概	15848
一次	15849
一款	15850
一步	15851
一段	15852
一气	15853
一汽	15854
一派	15855
一流	15856
一滴	15857
一点	15858
一片	15859
一班	15860
一瓶	15861
一生	15862
一番	15863
一百	15864
一盆	15865
一盏	15866
一盒	15867
一盘	15868
一直	15869
一眼	15870
一睹	15871
一瞬	15872
一碗	15873
一票	15874
一种	15875
一秒	15876
一程	15877
一站	15878
一章	15879
一端	15880
一笔	15881
一等	15882
一箱	15883
一篇	15884
一米	15885
一类	15886
一粒	15887
一级	15888
一纸	15889
一线	15890
一组	15891
一经	15892
一统	15893
一维	15894
一缕	15895
一群	15896
一股	15897
一脚	15898
一脸	15899
一腔	15900
一致	15901
一般	15902
一艘	15903
一色	15904
一节	15905
一行	15906
一袋	15907
一览	15908
一角	15909
一记	15910
一贯	15911
一起	15912
一趟	15913
一路	15914
一身	15915
一车	15916
一轮	15917
一辆	15918
一辈	15919
一边	15920
一连	15921
一通	15922
一遍	15923
一道	15924
一部	15925
一重	15926
一针	15927
一门	15928
一间	15929
一队	15930
一阵	15931
一隅	15932
一集	15933
一面	15934
一页	15935
一顶	15936
一项	15937
一顿	15938
一颗	15939
一餐	15940
一首	15941
一齐	15942
丁丁	15943
丁卯	15944
丁基	15945
丁未	15946
丁酉	15947
丁香	15948
七一	15949
七七	15950
七世	15951
七个	15952
七五	15953
七位	15954
七八	15955
七分	15956
七十	15957
七千	15958
七号	15959
七品	15960
七夕	15961
七天	15962
七宝	15963
七层	15964
七届	15965
七岁	15966
七年	15967
七座	15968
七彩	15969
七律	15970
七成	15971
七日	15972
七星	15973
七月	15974
七条	15975
七次	15976
七点	15977
七百	15978
七种	15979
七章	15980
七级	15981
七色	15982
七言	15983
七里	15984
七项	15985
万一	15986
万万	15987
万丈	15988
万世	15989
万两	15990
万个	15991
万事	15992
万亩	15993
万亿	15994
万代	15995
万件	15996
万份	15997
万众	15998
万余	15999
万元	16000
万册	16001
万分	16002
万千	16003
万卷	16004
万历	16005
万古	16006
万台	16007
万名	16008
万向	16009
万吨	16010
万国	16011
万圣	16012
万块	16013
万多	16014
万头	16015
万套	16016
万宁	16017
万安	16018
万宝	16019
万家	16020
万山	16021
万岁	16022
万州	16023
万年	16024
万张	16025
万户	16026
万斤	16027
万方	16028
万条	16029
万株	16030
万桶	16031
万次	16032
万民	16033
万物	16034
万福	16035
万种	16036
万科	16037
万米	16038
万股	16039
万能	16040
万般	16041
万象	16042
万豪	16043
万辆	16044
万达	16045
万通	16046
万部	16047
万里	16048
丈夫	16049
丈量	16050
三七	16051
三万	16052
三下	16053
三世	16054
三两	16055
三个	16056
三中	16057
三九	16058
三五	16059
三井	16060
三亚	16061
三产	16062
三代	16063
三件	16064
三份	16065
三位	16066
三倍	16067
三元	16068
三八	16069
三公	16070
三军	16071
三农	16072
三分	16073
三包	16074
三区	16075
三十	16076
三千	16077
三卷	16078
三口	16079
三句	16080
三只	16081
三台	16082
三叶	16083
三号	16084
三合	16085
三名	16086
三周	16087
三品	16088
三四	16089
三国	16090
三场	16091
三块	16092
三处	16093
三天	16094
三头	16095
三套	16096
三子	16097
三季	16098
三宝	16099
三家	16100
三尺	16101
三局	16102
三层	16103
三届	16104
三山	16105
三岁	16106
三岛	16107
三峡	16108
三年	16109
三度	16110
三座	16111
三张	16112
三弦	16113
三成	16114
三房	16115
三才	16116
三支	16117
三教	16118
三方	16119
三无	16120
三日	16121
三明	16122
三星	16123
三昧	16124
三晋	16125
三月	16126
三期	16127
三本	16128
三条	16129
三板	16130
三根	16131
三桥	16132
三次	16133
三款	16134
三步	16135
三段	16136
三毛	16137
三水	16138
三江	16139
三河	16140
三洋	16141
三流	16142
三清	16143
三滤	16144
三点	16145
三环	16146
三生	16147
三甲	16148
三界	16149
三百	16150
三皇	16151
三相	16152
三种	16153
三科	16154
三秦	16155
三章	16156
三等	16157
三篇	16158
三类	16159
三级	16160
三线	16161
三组	16162
三维	16163
三者	16164
三联	16165
三节	16166
三菱	16167
三藏	16168
三观	16169
三角	16170
三路	16171
三轮	16172
三进	16173
三通	16174
三遍	16175
三道	16176
三部	16177
三里	16178
三重	16179
三门	16180
三间	16181
三阳	16182
三院	16183
三面	16184
三项	16185
三颗	16186
三餐	16187
三首	16188
上万	16189
上下	16190
上乘	16191
上书	16192
上交	16193
上京	16194
上任	16195
上传	16196
上位	16197
上体	16198
上佳	16199
上党	16200
上册	16201
上前	16202
上千	16203
上升	16204
上午	16205
上半	16206
上卷	16207
上去	16208
上古	16209
上台	16210
上司	16211
上周	16212
上品	16213
上唇	16214
上场	16215
上坡	16216
上天	16217
上头	16218
上学	16219
上官	16220
上将	16221
上尉	16222
上层	16223
上届	16224
上山	16225
上岗	16226
上岸	16227
上市	16228
上帝	16229
上年	16230
上床	16231
上当	16232
上扬	16233
上报	16234
上攻	16235
上方	16236
上旬	16237
上映	16238
上期	16239
上机	16240
上来	16241
上架	16242
上校	16243
上桌	16244
上楼	16245
上榜	16246
上次	16247
上流	16248
上浮	16249
上海	16250
上涨	16251
上游	16252
上溯	16253
上演	16254
上火	16255
上班	16256
上瘾	16257
上百	16258
上皮	16259
上移	16260
上空	16261
上端	16262
上篮	16263
上级	16264
上线	16265
上缴	16266
上网	16267
上联	16268
上肢	16269
上船	16270
上药	16271
上菜	16272
上虞	16273
上行	16274
上街	16275
上衣	16276
上表	16277
上装	16278
上访	16279
上证	16280
上诉	16281
上课	16282
上调	16283
上路	16284
上身	16285
上车	16286
上边	16287
上述	16288
上部	16289
上野	16290
上钩	16291
上铺	16292
上门	16293
上阵	16294
上限	16295
上面	16296
上颌	16297
上风	16298
上饶	16299
上马	16300
下乡	16301
下令	16302
下位	16303
下体	16304
下关	16305
下册	16306
下凡	16307
下列	16308
下午	16309
下单	16310
下压	16311
下去	16312
下发	16313
下台	16314
下同	16315
下周	16316
下唇	16317
下图	16318
下场	16319
下坡	16320
下垂	16321
下嫁	16322
下层	16323
下属	16324
下山	16325
下岗	16326
下巴	16327
下手	16328
下挫	16329
下探	16330
下摆	16331
下放	16332
下文	16333
下方	16334
下旬	16335
下期	16336
下来	16337
下棋	16338
下楼	16339
下榻	16340
下次	16341
下水	16342
下沉	16343
下沙	16344
下注	16345
下流	16346
下海	16347
下游	16348
下滑	16349
下狱	16350
下班	16351
下界	16352
下移	16353
下端	16354
下笔	16355
下篇	16356
下级	16357
下线	16358
下联	16359
下肢	16360
下腹	16361
下落	16362
下行	16363
下设	16364
下课	16365
下调	16366
下跌	16367
下跪	16368
下身	16369
下车	16370
下载	16371
下辖	16372
下边	16373
下达	16374
下过	16375
下述	16376
下部	16377
下锅	16378
下降	16379
下限	16380
下陷	16381
下雨	16382
下雪	16383
下面	16384
下颌	16385
下颚	16386
下马	16387
不下	16388
不严	16389
不丹	16390
不久	16391
不乏	16392
不了	16393
不予	16394
不争	16395
不二	16396
不仅	16397
不休	16398
不会	16399
不但	16400
不住	16401
不便	16402
不俗	16403
不值	16404
不停	16405
不光	16406
不免	16407
不公	16408
不具	16409
不再	16410
不准	16411
不减	16412
不凡	16413
不利	16414
不到	16415
不力	16416
不单	16417
不厌	16418
不及	16419
不变	16420
不可	16421
不吃	16422
不合	16423
不同	16424
不善	16425
不均	16426
不堪	16427
不够	16428
不失	16429
不好	16430
不如	16431
不妙	16432
不妥	16433
不妨	16434
不孕	16435
不孝	16436
不安	16437
不定	16438
不宜	16439
不容	16440
不小	16441
不少	16442
不尽	16443
不屈	16444
不屑	16445
不巧	16446
不已	16447
不平	16448
不幸	16449
不当	16450
不得	16451
不必	16452
不忍	16453
不快	16454
不怕	16455
不息	16456
不悦	16457
不惜	16458
不想	16459
不愧	16460
不慎	16461
不懈	16462
不成	16463
不拘	16464
不敢	16465
不料	16466
不断	16467
不无	16468
不时	16469
不明	16470
不易	16471
不是	16472
不曾	16473
不服	16474
不朽	16475
不止	16476
不正	16477
不法	16478
不济	16479
不满	16480
不然	16481
不爽	16482
不理	16483
不甘	16484
不用	16485
不由	16486
不畏	16487
不留	16488
不知	16489
不破	16490
不祥	16491
不禁	16492
不竭	16493
不符	16494
不算	16495
不管	16496
不羁	16497
不肯	16498
不育	16499
不胜	16500
不能	16501
不致	16502
不良	16503
不菲	16504
不行	16505
不衰	16506
不要	16507
不见	16508
不觉	16509
不解	16510
不计	16511
不让	16512
不许	16513
不论	16514
不该	16515
不详	16516
不语	16517
不负	16518
不败	16519
不足	16520
不过	16521
不远	16522
不适	16523
不通	16524
不配	16525
不错	16526
不问	16527
不难	16528
不靠	16529
不顺	16530
不须	16531
不顾	16532
不齐	16533
与会	16534
与其	16535
与否	16536
与非	16537
丐帮	16538
丑女	16539
丑恶	16540
丑闻	16541
丑陋	16542
专一	16543
专业	16544
专人	16545
专供	16546
专修	16547
专刊	16548
专列	16549
专利	16550
专制	16551
专区	16552
专卖	16553
专员	16554
专场	16555
专家	16556
专属	16557
专心	16558
专户	16559
专指	16560
专攻	16561
专政	16562
专有	16563
专权	16564
专柜	16565
专栏	16566
专案	16567
专注	16568
专版	16569
专用	16570
专电	16571
专科	16572
专程	16573
专精	16574
专线	16575
专署	16576
专职	16577
专营	16578
专著	16579
专访	16580
专车	16581
专辑	16582
专长	16583
专门	16584
专集	16585
专项	16586
专题	16587
世上	16588
世事	16589
世人	16590
世代	16591
世俗	16592
世博	16593
世外	16594
世子	16595
世孙	16596
世宗	16597
世家	16598
世尊	16599
世居	16600
世情	16601
世故	16602
世界	16603
世祖	16604
世系	16605
世纪	16606
世袭	16607
世贸	16608
世道	16609
世间	16610
丘疹	16611
丘陵	16612
丙午	16613
丙烯	16614
丙申	16615
丙肝	16616
丙辰	16617
丙酮	16618
业主	16619
业余	16620
业内	16621
业务	16622
业已	16623
业态	16624
业界	16625
业绩	16626
业者	16627
丛中	16628
丛书	16629
丛刊	16630
丛林	16631
丛生	16632
东东	16633
东临	16634
东乡	16635
东亚	16636
东京	16637
东侧	16638
东关	16639
东兴	16640
东北	16641
东区	16642
东升	16643
东华	16644
东南	16645
东台	16646
东吴	16647
东周	16648
东坡	16649
东城	16650
东大	16651
东夷	16652
东安	16653
东宫	16654
东家	16655
东山	16656
东岳	16657
东岸	16658
东川	16659
东平	16660
东征	16661
东德	16662
东方	16663
东明	16664
东晋	16665
东村	16666
东来	16667
东林	16668
东欧	16669
东段	16670
东汉	16671
东江	16672
东洋	16673
东海	16674
东渡	16675
东港	16676
东湖	16677
东盟	16678
东站	16679
东端	16680
东线	16681
东经	16682
东至	16683
东航	16684
东芝	16685
东莞	16686
东营	16687
东街	16688
东西	16689
东起	16690
东路	16691
东边	16692
东郊	16693
东部	16694
东野	16695
东门	16696
东阳	16697
东阿	16698
东非	16699
东面	16700
东风	16701
东魏	16702
东麓	16703
丝巾	16704
丝带	16705
丝毫	16706
丝状	16707
丝瓜	16708
丝线	16709
丝绒	16710
丝绸	16711
丝网	16712
丝袜	16713
丝路	16714
丞相	16715
丢下	16716
丢人	16717
丢失	16718
丢弃	16719
丢掉	16720
丢脸	16721
两万	16722
两下	16723
两个	16724
两代	16725
两件	16726
两份	16727
两会	16728
两位	16729
两侧	16730
两倍	16731
两册	16732
两分	16733
两千	16734
两半	16735
两卷	16736
两厢	16737
两口	16738
两句	16739
两只	16740
两台	16741
两名	16742
两周	16743
两地	16744
两场	16745
两块	16746
两基	16747
两处	16748
两天	16749
两头	16750
两套	16751
两委	16752
两季	16753
两家	16754
两对	16755
两层	16756
两届	16757
两岁	16758
两岸	16759
两幅	16760
两年	16761
两广	16762
两度	16763
两座	16764
两张	16765
两性	16766
两成	16767
两所	16768
两手	16769
两把	16770
两排	16771
两支	16772
两方	16773
两旁	16774
两日	16775
两期	16776
两本	16777
两条	16778
两极	16779
两枚	16780
两架	16781
两栋	16782
两栖	16783
两样	16784
两根	16785
两次	16786
两款	16787
两步	16788
两段	16789
两汉	16790
两江	16791
两河	16792
两派	16793
两点	16794
两片	16795
两用	16796
两百	16797
两眼	16798
两种	16799
两端	16800
两篇	16801
两米	16802
两类	16803
两级	16804
两线	16805
两组	16806
两翼	16807
两者	16808
两股	16809
两艘	16810
两节	16811
两行	16812
两起	16813
两路	16814
两车	16815
两轮	16816
两辆	16817
两边	16818
两遍	16819
两道	16820
两部	16821
两门	16822
两间	16823
两队	16824
两院	16825
两难	16826
两面	16827
两项	16828
两颗	16829
两首	16830
严厉	16831
严守	16832
严密	16833
严寒	16834
严峻	16835
严惩	16836
严打	16837
严控	16838
严明	16839
严查	16840
严格	16841
严禁	16842
严肃	16843
严苛	16844
严谨	16845
严酷	16846
严重	16847
严防	16848
丧事	16849
丧命	16850
丧失	16851
丧尸	16852
丧父	16853
丧生	16854
丧葬	16855
个个	16856
个人	16857
个体	16858
个例	16859
个别	16860
个头	16861
个子	16862
个展	16863
个性	16864
个数	16865
个案	16866
个股	16867
丫头	16868
丫鬟	16869
中专	16870
中东	16871
中举	16872
中亚	16873
中产	16874
中介	16875
中信	16876
中共	16877
中兴	16878
中军	16879
中加	16880
中化	16881
中医	16882
中午	16883
中华	16884
中南	16885
中卫	16886
中原	16887
中古	16888
中叶	16889
中国	16890
中土	16891
中场	16892
中坚	16893
中型	16894
中堂	16895
中外	16896
中央	16897
中奖	16898
中子	16899
中学	16900
中将	16901
中尉	16902
中小	16903
中层	16904
中山	16905
中州	16906
中巴	16907
中常	16908
中平	16909
中年	16910
中度	16911
中庸	16912
中建	16913
中式	16914
中弹	16915
中心	16916
中性	16917
中意	16918
中投	16919
中招	16920
中指	16921
中排	16922
中文	16923
中断	16924
中方	16925
中日	16926
中旬	16927
中暑	16928
中曾	16929
中期	16930
中枢	16931
中标	16932
中校	16933
中档	16934
中欧	16935
中止	16936
中正	16937
中段	16938
中毒	16939
中油	16940
中海	16941
中游	16942
中环	16943
中秋	16944
中科	16945
中空	16946
中立	16947
中等	16948
中篇	16949
中粮	16950
中级	16951
中线	16952
中继	16953
中考	16954
中耕	16955
中职	16956
中联	16957
中肯	16958
中航	16959
中药	16960
中行	16961
中街	16962
中西	16963
中观	16964
中视	16965
中试	16966
中资	16967
中路	16968
中转	16969
中轴	16970
中远	16971
中选	16972
中途	16973
中速	16974
中道	16975
中部	16976
中铁	16977
中银	16978
中锋	16979
中间	16980
中队	16981
中院	16982
中非	16983
中频	16984
中风	16985
中餐	16986
丰产	16987
丰厚	16988
丰县	16989
丰台	16990
丰富	16991
丰收	16992
丰满	16993
丰田	16994
丰盈	16995
丰盛	16996
丰硕	16997
丰碑	16998
串口	16999
串珠	17000
串联	17001
串行	17002
串通	17003
临场	17004
临安	17005
临川	17006
临床	17007
临摹	17008
临时	17009
临江	17010
临汾	17011
临沂	17012
临沧	17013
临河	17014
临海	17015
临淄	17016
临清	17017
临港	17018
临界	17019
临终	17020
临行	17021
临街	17022
临近	17023
丸子	17024
丹东	17025
丹佛	17026
丹参	17027
丹尼	17028
丹田	17029
丹药	17030
丹阳	17031
丹霞	17032
丹青	17033
丹麦	17034
为主	17035
为了	17036
为伍	17037
为伴	17038
为何	17039
为先	17040
为准	17041
为名	17042
为啥	17043
为官	17044
为害	17045
为政	17046
为数	17047
为期	17048
为止	17049
为此	17050
为民	17051
为生	17052
为辅	17053
为重	17054
为难	17055
为题	17056
为首	17057
主业	17058
主义	17059
主产	17060
主人	17061
主任	17062
主体	17063
主修	17064
主公	17065
主创	17066
主力	17067
主办	17068
主动	17069
主厨	17070
主唱	17071
主因	17072
主场	17073
主城	17074
主妇	17075
主委	17076
主子	17077
主审	17078
主宰	17079
主导	17080
主将	17081
主峰	17082
主帅	17083
主席	17084
主干	17085
主张	17086
主意	17087
主战	17088
主打	17089
主持	17090
主控	17091
主推	17092
主攻	17093
主教	17094
主料	17095
主旨	17096
主机	17097
主权	17098
主板	17099
主枝	17100
主楼	17101
主次	17102
主治	17103
主流	17104
主演	17105
主神	17106
主笔	17107
主管	17108
主线	17109
主编	17110
主营	17111
主要	17112
主见	17113
主观	17114
主角	17115
主讲	17116
主语	17117
主轴	17118
主队	17119
主页	17120
主频	17121
主题	17122
主食	17123
丽丽	17124
丽人	17125
丽水	17126
丽江	17127
丽莎	17128
举人	17129
举例	17130
举兵	17131
举出	17132
举办	17133
举动	17134
举家	17135
举手	17136
举报	17137
举措	17138
举杯	17139
举止	17140
举荐	17141
举行	17142
举证	17143
举起	17144
举重	17145
乃是	17146
乃至	17147
久久	17148
久之	17149
久保	17150
久病	17151
久远	17152
久违	17153
义乌	17154
义军	17155
义务	17156
义卖	17157
义工	17158
义气	17159
义理	17160
义诊	17161
之一	17162
之三	17163
之上	17164
之下	17165
之中	17166
之二	17167
之内	17168
之前	17169
之后	17170
之外	17171
之江	17172
之流	17173
之用	17174
之类	17175
之间	17176
之际	17177
乌云	17178
乌兰	17179
乌头	17180
乌尔	17181
乌拉	17182
乌斯	17183
乌梅	17184
乌江	17185
乌贼	17186
乌镇	17187
乌鸡	17188
乌鸦	17189
乌黑	17190
乌龙	17191
乌龟	17192
乏力	17193
乏味	17194
乐乐	17195
乐于	17196
乐器	17197
乐团	17198
乐园	17199
乐土	17200
乐坛	17201
乐天	17202
乐山	17203
乐平	17204
乐府	17205
乐意	17206
乐手	17207
乐曲	17208
乐果	17209
乐清	17210
乐理	17211
乐章	17212
乐舞	17213
乐观	17214
乐谱	17215
乐趣	17216
乐迷	17217
乐队	17218
乒乓	17219
乔丹	17220
乔木	17221
乔治	17222
乖乖	17223
乖巧	17224
乘以	17225
乘员	17226
乘坐	17227
乘客	17228
乘机	17229
乘法	17230
乘着	17231
乘积	17232
乘船	17233
乘车	17234
乘风	17235
乙丑	17236
乙基	17237
乙方	17238
乙未	17239
乙炔	17240
乙烯	17241
乙级	17242
乙肝	17243
乙酯	17244
乙酰	17245
乙酸	17246
乙醇	17247
乙醚	17248
九个	17249
九九	17250
九二	17251
九五	17252
九分	17253
九十	17254
九华	17255
九号	17256
九品	17257
九大	17258
九天	17259
九宫	17260
九尾	17261
九层	17262
九届	17263
九岁	17264
九州	17265
九年	17266
九成	17267
九日	17268
九曲	17269
九月	17270
九条	17271
九段	17272
九江	17273
九洲	17274
九点	17275
九种	17276
九章	17277
九重	17278
九门	17279
九阳	17280
九霄	17281
九鼎	17282
九龙	17283
乞丐	17284
乞讨	17285
也好	17286
也罢	17287
也许	17288
也门	17289
习作	17290
习俗	17291
习性	17292
习惯	17293
习题	17294
乡下	17295
乡亲	17296
乡土	17297
乡情	17298
乡愁	17299
乡村	17300
乡民	17301
乡级	17302
乡试	17303
乡贤	17304
乡里	17305
乡镇	17306
乡长	17307
乡间	17308
书上	17309
书体	17310
书信	17311
书写	17312
书刊	17313
书包	17314
书协	17315
书单	17316
书卷	17317
书友	17318
书名	17319
书后	17320
书城	17321
书局	17322
书屋	17323
书展	17324
书库	17325
书店	17326
书房	17327
书斋	17328
书本	17329
书架	17330
书柜	17331
书桌	17332
书法	17333
书生	17334
书画	17335
书目	17336
书社	17337
书稿	17338
书签	17339
书籍	17340
书系	17341
书记	17342
书评	17343
书院	17344
书面	17345
书香	17346
买下	17347
买入	17348
买单	17349
买卖	17350
买好	17351
买家	17352
买房	17353
买断	17354
买方	17355
买来	17356
买点	17357
买票	17358
买进	17359
乱世	17360
乳业	17361
乳剂	17362
乳化	17363
乳品	17364
乳头	17365
乳房	17366
乳汁	17367
乳液	17368
乳突	17369
乳粉	17370
乳糖	17371
乳胶	17372
乳腺	17373
乳酪	17374
乳酸	17375
乳香	17376
乳鸽	17377
乾坤	17378
乾隆	17379
了结	17380
了解	17381
予以	17382
争做	17383
争先	17384
争创	17385
争取	17386
争吵	17387
争夺	17388
争当	17389
争得	17390
争执	17391
争抢	17392
争斗	17393
争相	17394
争端	17395
争议	17396
争论	17397
争辩	17398
争锋	17399
争霸	17400
争鸣	17401
事业	17402
事事	17403
事件	17404
事例	17405
事儿	17406
事先	17407
事关	17408
事前	17409
事务	17410
事发	17411
事变	17412
事后	17413
事宜	17414
事实	17415
事态	17416
事情	17417
事故	17418
事权	17419
事物	17420
事理	17421
事由	17422
事迹	17423
事项	17424
二七	17425
二三	17426
二世	17427
二两	17428
二个	17429
二中	17430
二人	17431
二代	17432
二位	17433
二元	17434
二八	17435
二分	17436
二十	17437
二千	17438
二卷	17439
二句	17440
二号	17441
二名	17442
二品	17443
二哥	17444
二回	17445
二处	17446
二套	17447
二审	17448
二小	17449
二层	17450
二届	17451
二年	17452
二度	17453
二战	17454
二手	17455
二日	17456
二月	17457
二期	17458
二本	17459
二条	17460
二来	17461
二楼	17462
二次	17463
二段	17464
二流	17465
二环	17466
二甲	17467
二百	17468
二种	17469
二章	17470
二等	17471
二类	17472
二级	17473
二线	17474
二组	17475
二维	17476
二者	17477
二胎	17478
二胡	17479
二路	17480
二连	17481
二道	17482
二郎	17483
二部	17484
二重	17485
二队	17486
二阶	17487
二项	17488
二首	17489
于今	17490
于是	17491
亏了	17492
亏损	17493
亏本	17494
云中	17495
云云	17496
云南	17497
云台	17498
云天	17499
云层	17500
云山	17501
云彩	17502
云朵	17503
云杉	17504
云梦	17505
云母	17506
云海	17507
云游	17508
云烟	17509
云盘	17510
云端	17511
云阳	17512
云集	17513
云雾	17514
云霄	17515
云霞	17516
云顶	17517
云龙	17518
互不	17519
互为	17520
互信	17521
互利	17522
互动	17523
互助	17524
互惠	17525
互换	17526
互生	17527
互相	17528
互联	17529
互补	17530
互连	17531
互通	17532
五一	17533
五七	17534
五万	17535
五世	17536
五个	17537
五中	17538
五代	17539
五位	17540
五保	17541
五倍	17542
五六	17543
五分	17544
五十	17545
五千	17546
五卷	17547
五台	17548
五号	17549
五名	17550
五味	17551
五品	17552
五四	17553
五块	17554
五大	17555
五天	17556
五官	17557
五家	17558
五层	17559
五届	17560
五岁	17561
五岳	17562
五峰	17563
五帝	17564
五常	17565
五年	17566
五座	17567
五彩	17568
五成	17569
五指	17570
五方	17571
五日	17572
五星	17573
五更	17574
五月	17575
五条	17576
五次	17577
五洲	17578
五点	17579
五环	17580
五百	17581
五矿	17582
五福	17583
五种	17584
五笔	17585
五类	17586
五级	17587
五经	17588
五脏	17589
五色	17590
五行	17591
五言	17592
五谷	17593
五路	17594
五通	17595
五道	17596
五郎	17597
五部	17598
五里	17599
五金	17600
五间	17601
五项	17602
五香	17603
五龙	17604
井上	17605
井下	17606
井口	17607
井喷	17608
井水	17609
井盖	17610
亘古	17611
亚丁	17612
亚东	17613
亚克	17614
亚军	17615
亚太	17616
亚尔	17617
亚当	17618
亚斯	17619
亚欧	17620
亚泰	17621
亚洲	17622
亚瑟	17623
亚目	17624
亚种	17625
亚科	17626
亚纲	17627
亚裔	17628
亚运	17629
亚非	17630
亚麻	17631
些许	17632
亟待	17633
亟需	17634
亡国	17635
亡灵	17636
亢奋	17637
亢进	17638
交互	17639
交付	17640
交代	17641
交会	17642
交出	17643
交到	17644
交割	17645
交办	17646
交叉	17647
交友	17648
交口	17649
交响	17650
交大	17651
交往	17652
交待	17653
交情	17654
交战	17655
交手	17656
交投	17657
交换	17658
交接	17659
交收	17660
交易	17661
交替	17662
交汇	17663
交流	17664
交涉	17665
交游	17666
交火	17667
交点	17668
交由	17669
交界	17670
交税	17671
交纳	17672
交织	17673
交给	17674
交联	17675
交融	17676
交行	17677
交警	17678
交谈	17679
交货	17680
交费	17681
交运	17682
交通	17683
交配	17684
交钱	17685
交锋	17686
交错	17687
交际	17688
交集	17689
亦可	17690
亦庄	17691
亦然	17692
亦非	17693
产下	17694
产业	17695
产于	17696
产值	17697
产假	17698
产出	17699
产区	17700
产卵	17701
产后	17702
产品	17703
产地	17704
产妇	17705
产权	17706
产物	17707
产生	17708
产科	17709
产能	17710
产量	17711
产销	17712
亨利	17713
亨特	17714
亩产	17715
享乐	17716
享受	17717
享年	17718
享有	17719
享用	17720
享誉	17721
京东	17722
京兆	17723
京剧	17724
京华	17725
京城	17726
京师	17727
京报	17728
京沪	17729
京津	17730
京珠	17731
京都	17732
亭子	17733
亮丽	17734
亮光	17735
亮出	17736
亮化	17737
亮度	17738
亮点	17739
亮相	17740
亮眼	17741
亮色	17742
亲临	17743
亲亲	17744
亲人	17745
亲信	17746
亲切	17747
亲历	17748
亲友	17749
亲吻	17750
亲妈	17751
亲子	17752
亲密	17753
亲属	17754
亲情	17755
亲戚	17756
亲手	17757
亲朋	17758
亲本	17759
亲水	17760
亲热	17761
亲爱	17762
亲率	17763
亲王	17764
亲生	17765
亲眼	17766
亲笔	17767
亲缘	17768
亲自	17769
亲身	17770
亲近	17771
亳州	17772
亵渎	17773
人世	17774
人为	17775
人事	17776
人人	17777
人们	17778
人体	17779
人偶	17780
人儿	17781
人力	17782
人参	17783
人口	17784
人员	17785
人命	17786
人品	17787
人均	17788
人士	17789
人声	17790
人大	17791
人头	17792
人妖	17793
人学	17794
人家	17795
人寿	17796
人居	17797
人工	17798
人形	17799
人影	17800
人心	17801
人性	17802
人情	17803
人手	17804
人才	17805
人数	17806
人文	17807
人机	17808
人权	17809
人格	17810
人次	17811
人民	17812
人气	17813
人流	17814
人渣	17815
人潮	17816
人物	17817
人生	17818
人眼	17819
人种	17820
人称	17821
人类	17822
人缘	17823
人群	17824
人脑	17825
人脸	17826
人行	17827
人质	17828
人身	17829
人选	17830
人造	17831
人间	17832
人防	17833
人际	17834
人面	17835
人马	17836
亿万	17837
亿元	17838
亿吨	17839
亿多	17840
亿年	17841
亿次	17842
亿股	17843
什么	17844
仁义	17845
仁和	17846
仁寿	17847
仁川	17848
仁德	17849
仁慈	17850
仁爱	17851
仁者	17852
仄仄	17853
仅仅	17854
仆人	17855
仇人	17856
仇恨	17857
仇敌	17858
仇视	17859
今世	17860
今人	17861
今后	17862
今夏	17863
今夜	17864
今天	17865
今年	17866
今日	17867
今晚	17868
今朝	17869
今生	17870
介于	17871
介入	17872
介子	17873
介导	17874
介意	17875
介绍	17876
介词	17877
介质	17878
仍旧	17879
仍然	17880
从不	17881
从业	17882
从严	17883
从中	17884
从事	17885
从众	17886
从军	17887
从前	17888
从句	17889
从头	17890
从容	17891
从小	17892
从师	17893
从政	17894
从教	17895
从未	17896
从来	17897
从此	17898
从没	17899
从而	17900
从轻	17901
从重	17902
仓位	17903
仓促	17904
仓储	17905
仓库	17906
仓鼠	17907
仔猪	17908
仔细	17909
仕途	17910
他人	17911
他们	17912
他俩	17913
他家	17914
仗义	17915
付出	17916
付息	17917
付款	17918
付清	17919
付给	17920
付费	17921
付钱	17922
仙人	17923
仙剑	17924
仙台	17925
仙境	17926
仙女	17927
仙子	17928
仙居	17929
仙山	17930
仙桃	17931
仙游	17932
仙界	17933
仙鹤	17934
代为	17935
代价	17936
代偿	17937
代入	17938
代办	17939
代号	17940
代孕	17941
代尔	17942
代工	17943
代收	17944
代数	17945
代替	17946
代步	17947
代理	17948
代码	17949
代称	17950
代管	17951
代行	17952
代表	17953
代言	17954
代词	17955
代谢	17956
代购	17957
代销	17958
令人	17959
令牌	17960
令狐	17961
以上	17962
以下	17963
以东	17964
以为	17965
以便	17966
以免	17967
以内	17968
以利	17969
以前	17970
以北	17971
以南	17972
以及	17973
以后	17974
以图	17975
以备	17976
以外	17977
以太	17978
以往	17979
以待	17980
以德	17981
以期	17982
以来	17983
以此	17984
以求	17985
以示	17986
以至	17987
以致	17988
以西	17989
以防	17990
仪器	17991
仪式	17992
仪表	17993
仰卧	17994
仰天	17995
仰慕	17996
仰望	17997
仰视	17998
仲裁	17999
价位	18000
价值	18001
价差	18002
价格	18003
价款	18004
价钱	18005
任一	18006
任何	18007
任免	18008
任内	18009
任凭	18010
任务	18011
任县	18012
任命	18013
任性	18014
任意	18015
任教	18016
任期	18017
任用	18018
任由	18019
任职	18020
任选	18021
份子	18022
份量	18023
份额	18024
仿佛	18025
仿制	18026
仿古	18027
仿效	18028
仿照	18029
仿生	18030
仿真	18031
企业	18032
企划	18033
企及	18034
企图	18035
企鹅	18036
伊万	18037
伊人	18038
伊凡	18039
伊利	18040
伊始	18041
伊尔	18042
伊斯	18043
伊朗	18044
伊犁	18045
伊索	18046
伊达	18047
伎俩	18048
伏击	18049
伏笔	18050
伏羲	18051
伐木	18052
休假	18053
休克	18054
休养	18055
休学	18056
休息	18057
休憩	18058
休整	18059
休斯	18060
休眠	18061
休闲	18062
众人	18063
众多	18064
众生	18065
优于	18066
优先	18067
优劣	18068
优势	18069
优化	18070
优厚	18071
优异	18072
优待	18073
优惠	18074
优抚	18075
优点	18076
优生	18077
优秀	18078
优美	18079
优胜	18080
优良	18081
优质	18082
优越	18083
优选	18084
优雅	18085
伙伴	18086
伙计	18087
伙食	18088
会上	18089
会儿	18090
会刊	18091
会务	18092
会友	18093
会合	18094
会同	18095
会后	18096
会员	18097
会商	18098
会场	18099
会址	18100
会堂	18101
会展	18102
会师	18103
会徽	18104
会心	18105
会战	18106
会昌	18107
会晤	18108
会考	18109
会见	18110
会计	18111
会议	18112
会诊	18113
会试	18114
会谈	18115
会费	18116
会长	18117
会阴	18118
会面	18119
会馆	18120
伞形	18121
伟业	18122
伟人	18123
伟大	18124
传世	18125
传中	18126
传人	18127
传入	18128
传出	18129
传到	18130
传动	18131
传单	18132
传唱	18133
传奇	18134
传媒	18135
传导	18136
传开	18137
传感	18138
传承	18139
传授	18140
传播	18141
传教	18142
传来	18143
传染	18144
传热	18145
传球	18146
传略	18147
传真	18148
传神	18149
传给	18150
传统	18151
传言	18152
传记	18153
传译	18154
传说	18155
传诵	18156
传输	18157
传达	18158
传送	18159
传递	18160
传遍	18161
传道	18162
传销	18163
传闻	18164
伤亡	18165
伤人	18166
伤势	18167
伤及	18168
伤口	18169
伤员	18170
伤害	18171
伤寒	18172
伤心	18173
伤悲	18174
伤情	18175
伤感	18176
伤残	18177
伤疤	18178
伤病	18179
伤痕	18180
伤痛	18181
伤者	18182
伦敦	18183
伦理	18184
伪军	18185
伪装	18186
伪造	18187
伫立	18188
伯乐	18189
伯伯	18190
伯恩	18191
伯格	18192
伯爵	18193
伯父	18194
估价	18195
估值	18196
估算	18197
估计	18198
伴侣	18199
伴奏	18200
伴娘	18201
伴有	18202
伴生	18203
伴随	18204
伸入	18205
伸出	18206
伸向	18207
伸展	18208
伸手	18209
伸直	18210
伸缩	18211
伸长	18212
伺候	18213
伺服	18214
伺机	18215
似乎	18216
似火	18217
似的	18218
伽蓝	18219
但丁	18220
但凡	18221
但愿	18222
但是	18223
位于	18224
位列	18225
位处	18226
位子	18227
位居	18228
位数	18229
位点	18230
位移	18231
位置	18232
低下	18233
低于	18234
低价	18235
低估	18236
低位	18237
低俗	18238
低保	18239
低分	18240
低劣	18241
低压	18242
低声	18243
低头	18244
低层	18245
低廉	18246
低效	18247
低档	18248
低沉	18249
低洼	18250
低温	18251
低潮	18252
低点	18253
低矮	18254
低空	18255
低端	18256
低等	18257
低级	18258
低落	18259
低调	18260
低谷	18261
低迷	18262
低速	18263
低音	18264
低频	18265
住址	18266
住处	18267
住宅	18268
住宿	18269
住户	18270
住房	18271
住所	18272
住持	18273
住校	18274
住院	18275
佐料	18276
佐藤	18277
佐证	18278
体会	18279
体位	18280
体例	18281
体内	18282
体制	18283
体力	18284
体味	18285
体坛	18286
体型	18287
体外	18288
体委	18289
体式	18290
体弱	18291
体形	18292
体彩	18293
体征	18294
体态	18295
体悟	18296
体操	18297
体校	18298
体格	18299
体检	18300
体液	18301
体温	18302
体现	18303
体积	18304
体系	18305
体罚	18306
体育	18307
体能	18308
体色	18309
体虚	18310
体表	18311
体裁	18312
体谅	18313
体质	18314
体贴	18315
体重	18316
体量	18317
体长	18318
体面	18319
体验	18320
体魄	18321
何不	18322
何为	18323
何事	18324
何人	18325
何以	18326
何其	18327
何况	18328
何在	18329
何处	18330
何如	18331
何妨	18332
何尝	18333
何必	18334
何故	18335
何方	18336
何日	18337
何时	18338
何来	18339
何止	18340
何物	18341
何用	18342
何种	18343
何等	18344
何苦	18345
何谓	18346
何须	18347
余万	18348
余下	18349
余个	18350
余亩	18351
余件	18352
余位	18353
余元	18354
余台	18355
余名	18356
余地	18357
余处	18358
余姚	18359
余家	18360
余幅	18361
余年	18362
余户	18363
余条	18364
余杭	18365
余次	18366
余款	18367
余热	18368
余生	18369
余种	18370
余篇	18371
余米	18372
余脉	18373
余部	18374
余间	18375
余项	18376
余额	18377
佚名	18378
佛像	18379
佛光	18380
佛堂	18381
佛塔	18382
佛学	18383
佛家	18384
佛寺	18385
佛山	18386
佛手	18387
佛教	18388
佛殿	18389
佛法	18390
佛珠	18391
佛祖	18392
佛经	18393
佛门	18394
佛陀	18395
作业	18396
作为	18397
作乱	18398
作价	18399
作假	18400
作出	18401
作协	18402
作品	18403
作响	18404
作图	18405
作坊	18406
作好	18407
作客	18408
作家	18409
作对	18410
作序	18411
作废	18412
作弊	18413
作怪	18414
作息	18415
作恶	18416
作成	18417
作战	18418
作文	18419
作曲	18420
作案	18421
作法	18422
作物	18423
作用	18424
作画	18425
作祟	18426
作答	18427
作罢	18428
作者	18429
作证	18430
作词	18431
作风	18432
你们	18433
你好	18434
你家	18435
佣金	18436
佤族	18437
佩兰	18438
佩尔	18439
佩带	18440
佩戴	18441
佩服	18442
佩里	18443
佳丽	18444
佳人	18445
佳作	18446
佳句	18447
佳品	18448
佳绩	18449
佳肴	18450
佳能	18451
佳节	18452
佳话	18453
使出	18454
使劲	18455
使君	18456
使命	18457
使徒	18458
使得	18459
使然	18460
使用	18461
使者	18462
使臣	18463
使节	18464
使馆	18465
侄女	18466
侄子	18467
例会	18468
例句	18469
例外	18470
例如	18471
例子	18472
例行	18473
例证	18474
例题	18475
侍中	18476
侍从	18477
侍卫	18478
侍奉	18479
侍女	18480
侍郎	18481
侏儒	18482
侗族	18483
供养	18484
供奉	18485
供应	18486
供暖	18487
供气	18488
供水	18489
供求	18490
供油	18491
供热	18492
供电	18493
供给	18494
供职	18495
供货	18496
供述	18497
供销	18498
供需	18499
依依	18500
依偎	18501
依恋	18502
依托	18503
依据	18504
依旧	18505
依次	18506
依法	18507
依然	18508
依照	18509
依稀	18510
依赖	18511
依附	18512
依靠	18513
侠义	18514
侠客	18515
侠盗	18516
侥幸	18517
侦办	18518
侦察	18519
侦探	18520
侦查	18521
侦测	18522
侦破	18523
侧向	18524
侧枝	18525
侧线	18526
侧翼	18527
侧身	18528
侧边	18529
侧重	18530
侧面	18531
侨乡	18532
侨务	18533
侨民	18534
侨眷	18535
侨联	18536
侮辱	18537
侯爵	18538
侵入	18539
侵华	18540
侵占	18541
侵害	18542
侵扰	18543
侵权	18544
侵染	18545
侵犯	18546
侵略	18547
侵蚀	18548
侵袭	18549
便于	18550
便利	18551
便宜	18552
便当	18553
便捷	18554
便携	18555
便是	18556
便民	18557
便秘	18558
便血	18559
促使	18560
促成	18561
促进	18562
促销	18563
俄军	18564
俄国	18565
俄文	18566
俄语	18567
俊朗	18568
俊杰	18569
俊秀	18570
俊美	18571
俏皮	18572
俗世	18573
俗名	18574
俗套	18575
俗气	18576
俗称	18577
俗语	18578
俘获	18579
俘虏	18580
保住	18581
保佑	18582
保修	18583
保值	18584
保健	18585
保全	18586
保养	18587
保利	18588
保单	18589
保卫	18590
保命	18591
保姆	18592
保存	18593
保守	18594
保安	18595
保定	18596
保密	18597
保山	18598
保底	18599
保护	18600
保持	18601
保暖	18602
保有	18603
保本	18604
保洁	18605
保温	18606
保湿	18607
保留	18608
保税	18609
保管	18610
保级	18611
保罗	18612
保育	18613
保荐	18614
保证	18615
保费	18616
保送	18617
保镖	18618
保险	18619
保障	18620
保额	18621
保鲜	18622
信义	18623
信令	18624
信仰	18625
信件	18626
信任	18627
信众	18628
信佛	18629
信使	18630
信函	18631
信号	18632
信奉	18633
信守	18634
信封	18635
信徒	18636
信心	18637
信念	18638
信息	18639
信托	18640
信教	18641
信服	18642
信条	18643
信物	18644
信用	18645
信箱	18646
信誉	18647
信访	18648
信贷	18649
信赖	18650
信道	18651
信阳	18652
俨然	18653
修习	18654
修仙	18655
修养	18656
修剪	18657
修士	18658
修复	18659
修女	18660
修好	18661
修学	18662
修建	18663
修成	18664
修护	18665
修改	18666
修整	18667
修正	18668
修炼	18669
修理	18670
修筑	18671
修编	18672
修缮	18673
修葺	18674
修行	18675
修补	18676
修订	18677
修路	18678
修身	18679
修车	18680
修辞	18681
修造	18682
修道	18683
修长	18684
修饰	18685
俯仰	18686
俯冲	18687
俯瞰	18688
俯视	18689
俱佳	18690
俱全	18691
俸禄	18692
倍加	18693
倍受	18694
倍增	18695
倍感	18696
倍数	18697
倍率	18698
倒下	18699
倒伏	18700
倒入	18701
倒卖	18702
倒地	18703
倒塌	18704
倒影	18705
倒挂	18706
倒掉	18707
倒数	18708
倒流	18709
倒立	18710
倒置	18711
倒车	18712
倒退	18713
倒逼	18714
倒闭	18715
倒霉	18716
倔强	18717
倘若	18718
候补	18719
候车	18720
候选	18721
候鸟	18722
借以	18723
借力	18724
借助	18725
借势	18726
借口	18727
借机	18728
借条	18729
借来	18730
借款	18731
借此	18732
借用	18733
借着	18734
借给	18735
借调	18736
借贷	18737
借鉴	18738
借钱	18739
借阅	18740
倡导	18741
倡议	18742
倦怠	18743
倭寇	18744
债主	18745
债券	18746
债务	18747
债市	18748
债权	18749
值守	18750
值得	18751
值班	18752
值钱	18753
倾倒	18754
倾力	18755
倾向	18756
倾听	18757
倾城	18758
倾尽	18759
倾心	18760
倾情	18761
倾斜	18762
倾注	18763
倾泻	18764
倾覆	18765
倾角	18766
倾诉	18767
假体	18768
假使	18769
假借	18770
假冒	18771
假发	18772
假名	18773
假如	18774
假定	18775
假山	18776
假币	18777
假想	18778
假扮	18779
假日	18780
假期	18781
假若	18782
假装	18783
假设	18784
假话	18785
假说	18786
假象	18787
假货	18788
假释	18789
假面	18790
偌大	18791
偏偏	18792
偏僻	18793
偏南	18794
偏向	18795
偏好	18796
偏差	18797
偏心	18798
偏执	18799
偏振	18800
偏斜	18801
偏方	18802
偏激	18803
偏爱	18804
偏瘫	18805
偏离	18806
偏移	18807
偏西	18808
偏要	18809
偏见	18810
偏转	18811
偏远	18812
偏重	18813
偏颇	18814
偏食	18815
做主	18816
做事	18817
做人	18818
做作	18819
做做	18820
做出	18821
做到	18822
做好	18823
做官	18824
做客	18825
做工	18826
做成	18827
做梦	18828
做法	18829
做爱	18830
做菜	18831
做起	18832
做饭	18833
停下	18834
停业	18835
停产	18836
停刊	18837
停办	18838
停工	18839
停战	18840
停放	18841
停机	18842
停歇	18843
停止	18844
停水	18845
停泊	18846
停滞	18847
停火	18848
停牌	18849
停用	18850
停电	18851
停留	18852
停课	18853
停车	18854
停运	18855
停靠	18856
停顿	18857
健体	18858
健全	18859
健在	18860
健壮	18861
健康	18862
健忘	18863
健美	18864
健胃	18865
健身	18866
偶像	18867
偶尔	18868
偶数	18869
偶然	18870
偶遇	18871
偷偷	18872
偷懒	18873
偷拍	18874
偷渡	18875
偷盗	18876
偷看	18877
偷窃	18878
偷窥	18879
偷袭	18880
偷走	18881
偿付	18882
偿债	18883
偿还	18884
傀儡	18885
傍晚	18886
傣族	18887
储备	18888
储存	18889
储户	18890
储粮	18891
储罐	18892
储能	18893
储蓄	18894
储藏	18895
储运	18896
储量	18897
催促	18898
催化	18899
催收	18900
催生	18901
催眠	18902
傲慢	18903
傲视	18904
傻子	18905
傻瓜	18906
像是	18907
像样	18908
像素	18909
僧人	18910
僧众	18911
僧侣	18912
僵化	18913
僵尸	18914
僵局	18915
僵持	18916
僵硬	18917
儋州	18918
儒学	18919
儒家	18920
儒林	18921
儒雅	18922
儿女	18923
儿媳	18924
儿子	18925
儿孙	18926
儿时	18927
儿歌	18928
儿科	18929
儿童	18930
允许	18931
元丰	18932
元代	18933
元件	18934
元凶	18935
元始	18936
元宝	18937
元宵	18938
元帅	18939
元年	18940
元旦	18941
元月	18942
元朗	18943
元朝	18944
元气	18945
元素	18946
元老	18947
元音	18948
元首	18949
兄妹	18950
兄弟	18951
兄长	18952
充值	18953
充分	18954
充填	18955
充实	18956
充当	18957
充斥	18958
充气	18959
充沛	18960
充满	18961
充电	18962
充盈	18963
充血	18964
充裕	18965
充足	18966
充饥	18967
兆瓦	18968
先于	18969
先人	18970
先例	18971
先兆	18972
先前	18973
先后	18974
先天	18975
先导	18976
先帝	18977
先是	18978
先期	18979
先机	18980
先民	18981
先河	18982
先烈	18983
先王	18984
先生	18985
先知	18986
先祖	18987
先秦	18988
先端	18989
先行	18990
先贤	18991
先辈	18992
先进	18993
先锋	18994
先驱	18995
光临	18996
光亮	18997
光伏	18998
光华	18999
光合	19000
光圈	19001
光复	19002
光大	19003
光头	19004
光子	19005
光学	19006
光州	19007
光年	19008
光度	19009
光彩	19010
光影	19011
光敏	19012
光明	19013
光是	19014
光景	19015
光束	19016
光栅	19017
光标	19018
光棍	19019
光波	19020
光泽	19021
光洁	19022
光源	19023
光滑	19024
光灯	19025
光热	19026
光照	19027
光环	19028
光电	19029
光盘	19030
光碟	19031
光纤	19032
光线	19033
光绪	19034
光缆	19035
光耀	19036
光芒	19037
光荣	19038
光谱	19039
光谷	19040
光辉	19041
光速	19042
光阴	19043
光顾	19044
光驱	19045
光鲜	19046
克利	19047
克制	19048
克劳	19049
克尔	19050
克拉	19051
克斯	19052
克星	19053
克服	19054
克罗	19055
克莱	19056
克里	19057
克隆	19058
免于	19059
免冠	19060
免去	19061
免受	19062
免征	19063
免得	19064
免收	19065
免检	19066
免疫	19067
免税	19068
免签	19069
免职	19070
免试	19071
免责	19072
免费	19073
免遭	19074
免除	19075
兑付	19076
兑奖	19077
兑换	19078
兑现	19079
兔子	19080
兔肉	19081
兖州	19082
党内	19083
党务	19084
党参	19085
党史	19086
党员	19087
党团	19088
党外	19089
党委	19090
党建	19091
党性	19092
党政	19093
党校	19094
党派	19095
党章	19096
党籍	19097
党纪	19098
党组	19099
党群	19100
党部	19101
党风	19102
兜兜	19103
兜底	19104
兜里	19105
入世	19106
入主	19107
入伍	19108
入会	19109
入住	19110
入侵	19111
入党	19112
入关	19113
入冬	19114
入口	19115
入味	19116
入围	19117
入场	19118
入境	19119
入学	19120
入室	19121
入市	19122
入库	19123
入户	19124
入手	19125
入校	19126
入海	19127
入狱	19128
入球	19129
入眠	19130
入睡	19131
入网	19132
入股	19133
入药	19134
入账	19135
入选	19136
入门	19137
入院	19138
入驻	19139
全乡	19140
全书	19141
全会	19142
全体	19143
全党	19144
全军	19145
全剧	19146
全力	19147
全区	19148
全县	19149
全名	19150
全员	19151
全园	19152
全国	19153
全场	19154
全城	19155
全境	19156
全天	19157
全套	19158
全家	19159
全局	19160
全岛	19161
全州	19162
全市	19163
全年	19164
全开	19165
全彩	19166
全息	19167
全数	19168
全文	19169
全新	19170
全日	19171
全景	19172
全本	19173
全权	19174
全村	19175
全校	19176
全歼	19177
全民	19178
全港	19179
全然	19180
全班	19181
全球	19182
全盘	19183
全省	19184
全真	19185
全科	19186
全称	19187
全程	19188
全篇	19189
全线	19190
全网	19191
全美	19192
全职	19193
全胜	19194
全能	19195
全貌	19196
全资	19197
全身	19198
全部	19199
全都	19200
全镇	19201
全长	19202
全队	19203
全院	19204
全集	19205
全面	19206
全额	19207
全麦	19208
八一	19209
八个	19210
八中	19211
八五	19212
八仙	19213
八位	19214
八分	19215
八十	19216
八千	19217
八卦	19218
八卷	19219
八号	19220
八名	19221
八大	19222
八字	19223
八宝	19224
八届	19225
八岁	19226
八年	19227
八度	19228
八强	19229
八成	19230
八戒	19231
八方	19232
八旗	19233
八日	19234
八景	19235
八月	19236
八条	19237
八次	19238
八点	19239
八百	19240
八种	19241
八章	19242
八级	19243
八荒	19244
八角	19245
八路	19246
八里	19247
八项	19248
公主	19249
公事	19250
公交	19251
公仔	19252
公众	19253
公会	19254
公使	19255
公信	19256
公债	19257
公允	19258
公元	19259
公公	19260
公共	19261
公关	19262
公分	19263
公办	19264
公务	19265
公卿	19266
公历	19267
公厕	19268
公司	19269
公告	19270
公园	19271
公国	19272
公墓	19273
公婆	19274
公子	19275
公孙	19276
公学	19277
公安	19278
公家	19279
公寓	19280
公尺	19281
公差	19282
公布	19283
公平	19284
公开	19285
公式	19286
公房	19287
公所	19288
公投	19289
公报	19290
公文	19291
公斤	19292
公映	19293
公有	19294
公案	19295
公款	19296
公正	19297
公民	19298
公派	19299
公演	19300
公然	19301
公爵	19302
公牛	19303
公理	19304
公用	19305
公益	19306
公示	19307
公社	19308
公私	19309
公积	19310
公称	19311
公立	19312
公章	19313
公约	19314
公署	19315
公羊	19316
公职	19317
公认	19318
公证	19319
公诉	19320
公路	19321
公车	19322
公转	19323
公道	19324
公里	19325
公顷	19326
公馆	19327
公鸡	19328
六一	19329
六七	19330
六世	19331
六个	19332
六中	19333
六五	19334
六位	19335
六十	19336
六卷	19337
六号	19338
六合	19339
六名	19340
六大	19341
六天	19342
六安	19343
六家	19344
六层	19345
六届	19346
六岁	19347
六年	19348
六成	19349
六日	19350
六月	19351
六朝	19352
六条	19353
六次	19354
六点	19355
六百	19356
六种	19357
六章	19358
六级	19359
六经	19360
六角	19361
六路	19362
六道	19363
六部	19364
六项	19365
兰亭	19366
兰州	19367
兰德	19368
兰斯	19369
兰溪	19370
兰特	19371
兰花	19372
兰陵	19373
共事	19374
共享	19375
共创	19376
共勉	19377
共同	19378
共和	19379
共处	19380
共存	19381
共度	19382
共建	19383
共性	19384
共振	19385
共有	19386
共生	19387
共用	19388
共计	19389
共识	19390
共谋	19391
共通	19392
共鸣	19393
关上	19394
关东	19395
关中	19396
关乎	19397
关于	19398
关停	19399
关公	19400
关内	19401
关切	19402
关卡	19403
关口	19404
关外	19405
关头	19406
关山	19407
关岛	19408
关心	19409
关怀	19410
关押	19411
关掉	19412
关机	19413
关注	19414
关照	19415
关爱	19416
关税	19417
关系	19418
关羽	19419
关联	19420
关节	19421
关西	19422
关进	19423
关键	19424
关门	19425
关闭	19426
兴业	19427
兴义	19428
兴亡	19429
兴办	19430
兴化	19431
兴华	19432
兴县	19433
兴国	19434
兴奋	19435
兴宁	19436
兴安	19437
兴建	19438
兴旺	19439
兴盛	19440
兴致	19441
兴衰	19442
兴起	19443
兴趣	19444
兴隆	19445
兵力	19446
兵变	19447
兵器	19448
兵团	19449
兵家	19450
兵役	19451
兵法	19452
兵种	19453
兵营	19454
兵部	19455
兵马	19456
其一	19457
其三	19458
其中	19459
其二	19460
其他	19461
其余	19462
其内	19463
其后	19464
其四	19465
其妻	19466
其子	19467
其它	19468
其实	19469
其意	19470
其时	19471
其次	19472
其父	19473
其间	19474
具体	19475
具备	19476
具有	19477
具象	19478
典型	19479
典当	19480
典故	19481
典礼	19482
典籍	19483
典范	19484
典藏	19485
典雅	19486
养分	19487
养女	19488
养子	19489
养家	19490
养心	19491
养成	19492
养护	19493
养殖	19494
养母	19495
养活	19496
养父	19497
养牛	19498
养猪	19499
养生	19500
养眼	19501
养羊	19502
养老	19503
养育	19504
养花	19505
养蚕	19506
养身	19507
养车	19508
养鱼	19509
养鸡	19510
兼任	19511
兼具	19512
兼备	19513
兼容	19514
兼并	19515
兼得	19516
兼有	19517
兼职	19518
兼营	19519
兼顾	19520
兽医	19521
兽类	19522
兽药	19523
冀东	19524
冀中	19525
冀州	19526
内丹	19527
内乱	19528
内伤	19529
内侧	19530
内力	19531
内功	19532
内务	19533
内化	19534
内参	19535
内向	19536
内含	19537
内因	19538
内圈	19539
内在	19540
内地	19541
内城	19542
内墙	19543
内壁	19544
内外	19545
内存	19546
内容	19547
内尔	19548
内层	19549
内嵌	19550
内幕	19551
内应	19552
内径	19553
内心	19554
内战	19555
内控	19556
内政	19557
内敛	19558
内斯	19559
内服	19560
内核	19561
内江	19562
内河	19563
内测	19564
内涝	19565
内涵	19566
内热	19567
内环	19568
内生	19569
内疚	19570
内皮	19571
内科	19572
内线	19573
内经	19574
内置	19575
内胆	19576
内能	19577
内脏	19578
内膜	19579
内蒙	19580
内行	19581
内衣	19582
内衬	19583
内裤	19584
内设	19585
内资	19586
内部	19587
内酯	19588
内里	19589
内销	19590
内镜	19591
内阁	19592
内陆	19593
内需	19594
内面	19595
册封	19596
再三	19597
再也	19598
再创	19599
再婚	19600
再审	19601
再度	19602
再战	19603
再有	19604
再次	19605
再版	19606
再现	19607
再生	19608
再者	19609
再行	19610
再见	19611
再说	19612
再起	19613
再造	19614
冒充	19615
冒烟	19616
冒犯	19617
冒用	19618
冒险	19619
冗余	19620
冗长	19621
写下	19622
写作	19623
写信	19624
写入	19625
写写	19626
写出	19627
写字	19628
写实	19629
写意	19630
写成	19631
写手	19632
写明	19633
写景	19634
写法	19635
写照	19636
写生	19637
写真	19638
写给	19639
写诗	19640
写道	19641
军中	19642
军事	19643
军人	19644
军力	19645
军功	19646
军务	19647
军区	19648
军医	19649
军品	19650
军团	19651
军士	19652
军备	19653
军委	19654
军官	19655
军工	19656
军师	19657
军情	19658
军政	19659
军方	19660
军旅	19661
军旗	19662
军服	19663
军机	19664
军校	19665
军械	19666
军民	19667
军火	19668
军用	19669
军籍	19670
军粮	19671
军统	19672
军舰	19673
军营	19674
军衔	19675
军装	19676
军警	19677
军训	19678
军费	19679
军部	19680
军长	19681
军阀	19682
军队	19683
军需	19684
农业	19685
农事	19686
农会	19687
农具	19688
农历	19689
农商	19690
农地	19691
农场	19692
农垦	19693
农大	19694
农夫	19695
农委	19696
农学	19697
农家	19698
农工	19699
农庄	19700
农户	19701
农技	19702
农机	19703
农村	19704
农林	19705
农民	19706
农活	19707
农牧	19708
农用	19709
农田	19710
农科	19711
农耕	19712
农药	19713
农行	19714
农资	19715
冠以	19716
冠军	19717
冠名	19718
冠脉	19719
冤家	19720
冤枉	19721
冥想	19722
冥界	19723
冬天	19724
冬季	19725
冬日	19726
冬春	19727
冬瓜	19728
冬眠	19729
冬笋	19730
冬至	19731
冬菇	19732
冬雨	19733
冬青	19734
冰上	19735
冰冷	19736
冰冻	19737
冰凉	19738
冰块	19739
冰封	19740
冰山	19741
冰岛	19742
冰川	19743
冰心	19744
冰晶	19745
冰毒	19746
冰水	19747
冰河	19748
冰火	19749
冰点	19750
冰片	19751
冰球	19752
冰箱	19753
冰糖	19754
冰镇	19755
冰雪	19756
冰雹	19757
冰霜	19758
冲入	19759
冲出	19760
冲击	19761
冲刷	19762
冲刺	19763
冲剂	19764
冲动	19765
冲压	19766
冲向	19767
冲天	19768
冲床	19769
冲撞	19770
冲服	19771
冲泡	19772
冲洗	19773
冲浪	19774
冲淡	19775
冲着	19776
冲破	19777
冲突	19778
冲绳	19779
冲走	19780
冲锋	19781
决不	19782
决出	19783
决定	19784
决心	19785
决意	19786
决战	19787
决斗	19788
决断	19789
决策	19790
决算	19791
决绝	19792
决胜	19793
决裂	19794
决议	19795
决赛	19796
况且	19797
冶炼	19798
冶金	19799
冷冻	19800
冷凝	19801
冷却	19802
冷峻	19803
冷库	19804
冷战	19805
冷暖	19806
冷月	19807
冷气	19808
冷水	19809
冷汗	19810
冷淡	19811
冷清	19812
冷漠	19813
冷热	19814
冷眼	19815
冷笑	19816
冷艳	19817
冷落	19818
冷藏	19819
冷血	19820
冷轧	19821
冷酷	19822
冷门	19823
冷静	19824
冷面	19825
冷风	19826
冷饮	19827
冻伤	19828
冻死	19829
冻结	19830
净值	19831
净利	19832
净化	19833
净土	19834
净水	19835
净空	19836
净重	19837
净额	19838
凄凉	19839
凄惨	19840
凄美	19841
准予	19842
准入	19843
准则	19844
准备	19845
准时	19846
准确	19847
准许	19848
凉亭	19849
凉山	19850
凉州	19851
凉快	19852
凉拌	19853
凉水	19854
凉爽	19855
凉粉	19856
凉茶	19857
凉菜	19858
凉鞋	19859
凉风	19860
凋亡	19861
凋谢	19862
凋零	19863
凌乱	19864
凌云	19865
凌厉	19866
凌晨	19867
凌空	19868
凌辱	19869
减产	19870
减仓	19871
减低	19872
减值	19873
减免	19874
减刑	19875
减半	19876
减压	19877
减去	19878
减小	19879
减少	19880
减弱	19881
减慢	19882
减持	19883
减掉	19884
减排	19885
减法	19886
减灾	19887
减税	19888
减缓	19889
减肥	19890
减至	19891
减负	19892
减轻	19893
减退	19894
减速	19895
减重	19896
减量	19897
减震	19898
凑合	19899
凝固	19900
凝望	19901
凝神	19902
凝练	19903
凝结	19904
凝聚	19905
凝胶	19906
凝视	19907
凝重	19908
几万	19909
几下	19910
几个	19911
几乎	19912
几代	19913
几件	19914
几位	19915
几何	19916
几倍	19917
几分	19918
几十	19919
几千	19920
几口	19921
几句	19922
几只	19923
几名	19924
几周	19925
几回	19926
几场	19927
几块	19928
几声	19929
几处	19930
几多	19931
几天	19932
几套	19933
几家	19934
几岁	19935
几年	19936
几度	19937
几张	19938
几所	19939
几招	19940
几日	19941
几时	19942
几本	19943
几条	19944
几根	19945
几次	19946
几款	19947
几步	19948
几段	19949
几滴	19950
几点	19951
几片	19952
几率	19953
几番	19954
几百	19955
几种	19956
几秒	19957
几篇	19958
几米	19959
几类	19960
几经	19961
几许	19962
几近	19963
几遍	19964
几道	19965
几部	19966
几项	19967
几颗	19968
几首	19969
凡事	19970
凡人	19971
凡尘	19972
凡是	19973
凡间	19974
凤凰	19975
凤城	19976
凤尾	19977
凤山	19978
凤梨	19979
凤翔	19980
凤阳	19981
凭借	19982
凭着	19983
凭空	19984
凭证	19985
凯利	19986
凯尔	19987
凯恩	19988
凯撒	19989
凯文	19990
凯斯	19991
凯旋	19992
凯特	19993
凯蒂	19994
凯里	19995
凳子	19996
凶恶	19997
凶手	19998
凶残	19999
凶狠	20000
凶猛	20001
凶险	20002
凸出	20003
凸显	20004
凸现	20005
凸起	20006
凸轮	20007
凹凸	20008
凹槽	20009
凹陷	20010
出世	20011
出乎	20012
出书	20013
出事	20014
出于	20015
出云	20016
出产	20017
出价	20018
出任	20019
出众	20020
出使	20021
出借	20022
出入	20023
出兵	20024
出具	20025
出击	20026
出力	20027
出动	20028
出卖	20029
出厂	20030
出去	20031
出发	20032
出口	20033
出台	20034
出名	20035
出品	20036
出售	20037
出国	20038
出土	20039
出场	20040
出境	20041
出处	20042
出外	20043
出头	20044
出奇	20045
出嫁	20046
出家	20047
出局	20048
出山	20049
出差	20050
出师	20051
出席	20052
出库	20053
出庭	20054
出彩	20055
出征	20056
出息	20057
出战	20058
出手	20059
出新	20060
出来	20061
出栏	20062
出水	20063
出汗	20064
出没	20065
出海	20066
出游	20067
出演	20068
出炉	20069
出版	20070
出狱	20071
出现	20072
出生	20073
出示	20074
出租	20075
出纳	20076
出线	20077
出自	20078
出色	20079
出苗	20080
出血	20081
出行	20082
出警	20083
出让	20084
出访	20085
出货	20086
出资	20087
出走	20088
出路	20089
出身	20090
出轨	20091
出过	20092
出逃	20093
出钱	20094
出错	20095
出镜	20096
出门	20097
出院	20098
出面	20099
出题	20100
击中	20101
击伤	20102
击倒	20103
击剑	20104
击打	20105
击毁	20106
击毙	20107
击沉	20108
击溃	20109
击球	20110
击破	20111
击碎	20112
击穿	20113
击落	20114
击败	20115
击退	20116
击鼓	20117
函授	20118
函数	20119
刀具	20120
刀刃	20121
刀剑	20122
刀口	20123
刀子	20124
刀法	20125
刀片	20126
刀锋	20127
刁蛮	20128
刁难	20129
分为	20130
分享	20131
分会	20132
分体	20133
分值	20134
分光	20135
分册	20136
分出	20137
分列	20138
分别	20139
分割	20140
分包	20141
分化	20142
分区	20143
分卷	20144
分厂	20145
分叉	20146
分发	20147
分型	20148
分外	20149
分头	20150
分娩	20151
分子	20152
分家	20153
分寸	20154
分封	20155
分局	20156
分层	20157
分居	20158
分属	20159
分工	20160
分布	20161
分店	20162
分开	20163
分形	20164
分心	20165
分成	20166
分手	20167
分批	20168
分担	20169
分拆	20170
分拣	20171
分摊	20172
分支	20173
分散	20174
分数	20175
分明	20176
分期	20177
分机	20178
分权	20179
分析	20180
分枝	20181
分校	20182
分株	20183
分步	20184
分歧	20185
分段	20186
分母	20187
分水	20188
分治	20189
分泌	20190
分派	20191
分流	20192
分清	20193
分界	20194
分社	20195
分离	20196
分科	20197
分立	20198
分站	20199
分管	20200
分类	20201
分红	20202
分级	20203
分组	20204
分给	20205
分获	20206
分蘖	20207
分行	20208
分裂	20209
分装	20210
分解	20211
分设	20212
分贝	20213
分身	20214
分辨	20215
分选	20216
分部	20217
分配	20218
分量	20219
分钟	20220
分钱	20221
分销	20222
分队	20223
分院	20224
分隔	20225
分项	20226
分馆	20227
切丝	20228
切入	20229
切削	20230
切割	20231
切勿	20232
切口	20233
切合	20234
切块	20235
切实	20236
切尔	20237
切开	20238
切忌	20239
切换	20240
切断	20241
切片	20242
切碎	20243
切磋	20244
切花	20245
切莫	20246
切记	20247
切身	20248
切除	20249
切面	20250
刊出	20251
刊发	20252
刊物	20253
刊登	20254
刊行	20255
刊载	20256
刑事	20257
刑侦	20258
刑拘	20259
刑期	20260
刑法	20261
刑罚	20262
刑警	20263
刑部	20264
划伤	20265
划入	20266
划出	20267
划分	20268
划定	20269
划归	20270
划拨	20271
划痕	20272
划破	20273
划算	20274
划线	20275
划船	20276
划转	20277
划过	20278
列为	20279
列举	20280
列传	20281
列入	20282
列出	20283
列子	20284
列宁	20285
列岛	20286
列席	20287
列强	20288
列报	20289
列支	20290
列明	20291
列表	20292
列车	20293
刘备	20294
刘家	20295
刘海	20296
刘翔	20297
刘裕	20298
刘邦	20299
刚刚	20300
刚好	20301
刚度	20302
刚强	20303
刚性	20304
刚才	20305
刚果	20306
刚毅	20307
刚毛	20308
创下	20309
创世	20310
创业	20311
创举	20312
创优	20313
创伤	20314
创作	20315
创出	20316
创刊	20317
创制	20318
创办	20319
创口	20320
创始	20321
创建	20322
创意	20323
创投	20324
创收	20325
创新	20326
创立	20327
创维	20328
创设	20329
创造	20330
创面	20331
初一	20332
初三	20333
初中	20334
初二	20335
初五	20336
初值	20337
初八	20338
初创	20339
初夏	20340
初始	20341
初学	20342
初审	20343
初年	20344
初恋	20345
初探	20346
初时	20347
初春	20348
初期	20349
初次	20350
初步	20351
初版	20352
初生	20353
初秋	20354
初稿	20355
初等	20356
初级	20357
初衷	20358
初见	20359
初试	20360
初赛	20361
初选	20362
删减	20363
删去	20364
删掉	20365
删除	20366
判例	20367
判决	20368
判刑	20369
判别	20370
判处	20371
判官	20372
判定	20373
判断	20374
判罚	20375
利于	20376
利亚	20377
利兹	20378
利刃	20379
利剑	20380
利器	20381
利多	20382
利奥	20383
利好	20384
利害	20385
利尔	20386
利尿	20387
利差	20388
利弊	20389
利息	20390
利民	20391
利润	20392
利湿	20393
利率	20394
利用	20395
利益	20396
利税	20397
利空	20398
利落	20399
利马	20400
别人	20401
别克	20402
别具	20403
别号	20404
别名	20405
别国	20406
别墅	20407
别处	20408
别家	20409
别扭	20410
别提	20411
别样	20412
别的	20413
别离	20414
别称	20415
别致	20416
别说	20417
刮刀	20418
刮痧	20419
到任	20420
到位	20421
到场	20422
到处	20423
到头	20424
到底	20425
到户	20426
到手	20427
到期	20428
到来	20429
到校	20430
到访	20431
到货	20432
到达	20433
制作	20434
制做	20435
制冷	20436
制剂	20437
制动	20438
制取	20439
制品	20440
制售	20441
制图	20442
制备	20443
制定	20444
制导	20445
制度	20446
制式	20447
制成	20448
制服	20449
制止	20450
制法	20451
制热	20452
制片	20453
制版	20454
制种	20455
制糖	20456
制约	20457
制胜	20458
制药	20459
制衡	20460
制衣	20461
制表	20462
制裁	20463
制订	20464
制造	20465
制鞋	20466
刷刷	20467
刷卡	20468
刷子	20469
刷新	20470
刷洗	20471
刷牙	20472
券商	20473
刹车	20474
刹那	20475
刺伤	20476
刺刀	20477
刺史	20478
刺客	20479
刺杀	20480
刺激	20481
刺猬	20482
刺痛	20483
刺眼	20484
刺绣	20485
刺耳	20486
刺鼻	20487
刻划	20488
刻印	20489
刻字	20490
刻度	20491
刻录	20492
刻意	20493
刻有	20494
刻本	20495
刻板	20496
刻画	20497
刻石	20498
刻苦	20499
刻薄	20500
剁碎	20501
剂型	20502
剂量	20503
削减	20504
削弱	20505
削皮	20506
前世	20507
前人	20508
前任	20509
前倾	20510
前兆	20511
前列	20512
前卫	20513
前厅	20514
前去	20515
前台	20516
前后	20517
前场	20518
前夕	20519
前夜	20520
前天	20521
前夫	20522
前头	20523
前奏	20524
前妻	20525
前年	20526
前庭	20527
前往	20528
前排	20529
前提	20530
前方	20531
前日	20532
前景	20533
前朝	20534
前期	20535
前来	20536
前款	20537
前段	20538
前沿	20539
前生	20540
前瞻	20541
前秦	20542
前移	20543
前程	20544
前端	20545
前线	20546
前缀	20547
前缘	20548
前置	20549
前者	20550
前肢	20551
前胸	20552
前臂	20553
前茅	20554
前行	20555
前言	20556
前路	20557
前身	20558
前轮	20559
前辈	20560
前边	20561
前进	20562
前述	20563
前途	20564
前部	20565
前锋	20566
前门	20567
前面	20568
前额	20569
前驱	20570
剑圣	20571
剑士	20572
剑客	20573
剑术	20574
剑桥	20575
剑气	20576
剑法	20577
剑锋	20578
剔除	20579
剖开	20580
剖析	20581
剖面	20582
剥削	20583
剥去	20584
剥夺	20585
剥皮	20586
剥离	20587
剥落	20588
剧中	20589
剧作	20590
剧团	20591
剧场	20592
剧情	20593
剧本	20594
剧毒	20595
剧烈	20596
剧照	20597
剧痛	20598
剧目	20599
剧社	20600
剧种	20601
剧组	20602
剧院	20603
剩下	20604
剩余	20605
剪刀	20606
剪切	20607
剪影	20608
剪纸	20609
剪裁	20610
剪辑	20611
剪除	20612
副业	20613
副刊	20614
副官	20615
副将	20616
副总	20617
副手	20618
副本	20619
副职	20620
副词	20621
割据	20622
割肉	20623
割舍	20624
割裂	20625
割让	20626
剿匪	20627
力主	20628
力争	20629
力作	20630
力克	20631
力图	20632
力士	20633
力学	20634
力帆	20635
力度	20636
力推	20637
力气	20638
力求	20639
力矩	20640
力道	20641
力量	20642
劝告	20643
劝导	20644
劝说	20645
劝退	20646
劝阻	20647
办事	20648
办公	20649
办刊	20650
办到	20651
办发	20652
办好	20653
办学	20654
办完	20655
办成	20656
办案	20657
办法	20658
办理	20659
办税	20660
办结	20661
办证	20662
办起	20663
功业	20664
功利	20665
功力	20666
功劳	20667
功勋	20668
功名	20669
功夫	20670
功底	20671
功德	20672
功效	20673
功法	20674
功率	20675
功用	20676
功绩	20677
功耗	20678
功能	20679
功臣	20680
功课	20681
加上	20682
加之	20683
加以	20684
加价	20685
加倍	20686
加元	20687
加入	20688
加冕	20689
加减	20690
加剧	20691
加压	20692
加厚	20693
加固	20694
加大	20695
加宽	20696
加密	20697
加封	20698
加州	20699
加工	20700
加强	20701
加快	20702
加息	20703
加成	20704
加拉	20705
加持	20706
加挂	20707
加收	20708
加斯	20709
加权	20710
加气	20711
加氢	20712
加水	20713
加油	20714
加法	20715
加注	20716
加深	20717
加温	20718
加湿	20719
加点	20720
加热	20721
加班	20722
加盐	20723
加盖	20724
加盟	20725
加码	20726
加粗	20727
加糖	20728
加紧	20729
加纳	20730
加薪	20731
加藤	20732
加装	20733
加载	20734
加进	20735
加速	20736
加里	20737
加重	20738
加长	20739
加高	20740
务农	20741
务实	20742
务工	20743
务必	20744
务求	20745
劣势	20746
劣质	20747
动乱	20748
动产	20749
动人	20750
动作	20751
动力	20752
动向	20753
动听	20754
动员	20755
动因	20756
动容	20757
动工	20758
动弹	20759
动心	20760
动态	20761
动情	20762
动感	20763
动手	20764
动摇	20765
动机	20766
动漫	20767
动物	20768
动用	20769
动画	20770
动笔	20771
动能	20772
动脉	20773
动脑	20774
动荡	20775
动议	20776
动词	20777
动车	20778
动辄	20779
动量	20780
动静	20781
助人	20782
助剂	20783
助力	20784
助威	20785
助学	20786
助您	20787
助手	20788
助推	20789
助攻	20790
助教	20791
助残	20792
助理	20793
助益	20794
助长	20795
助阵	20796
努力	20797
努尔	20798
劫匪	20799
劫持	20800
劫掠	20801
劫难	20802
励志	20803
励磁	20804
劲儿	20805
劲旅	20806
劲松	20807
劳作	20808
劳力	20809
劳务	20810
劳动	20811
劳工	20812
劳损	20813
劳教	20814
劳模	20815
劳累	20816
劳资	20817
势力	20818
势头	20819
势必	20820
势能	20821
勃起	20822
勇于	20823
勇士	20824
勇夺	20825
勇敢	20826
勇气	20827
勇猛	20828
勇者	20829
勇闯	20830
勉励	20831
勉强	20832
勋爵	20833
勋章	20834
勒令	20835
勒斯	20836
勒索	20837
勘察	20838
勘探	20839
勘查	20840
勘测	20841
募捐	20842
募集	20843
勤于	20844
勤俭	20845
勤务	20846
勤劳	20847
勤勉	20848
勤奋	20849
勤学	20850
勤快	20851
勤政	20852
勺子	20853
勾兑	20854
勾勒	20855
勾引	20856
勾搭	20857
勾画	20858
勾结	20859
匀称	20860
包住	20861
包修	20862
包公	20863
包养	20864
包办	20865
包厢	20866
包含	20867
包围	20868
包头	20869
包子	20870
包容	20871
包干	20872
包庇	20873
包房	20874
包扎	20875
包括	20876
包拯	20877
包换	20878
包揽	20879
包机	20880
包涵	20881
包皮	20882
包衣	20883
包袱	20884
包装	20885
包裹	20886
包覆	20887
包谷	20888
包车	20889
包间	20890
匆匆	20891
匆忙	20892
匈奴	20893
匍匐	20894
匕首	20895
化为	20896
化作	20897
化名	20898
化妆	20899
化学	20900
化工	20901
化成	20902
化疗	20903
化痰	20904
化石	20905
化纤	20906
化肥	20907
化脓	20908
化装	20909
化解	20910
化身	20911
化验	20912
北上	20913
北京	20914
北伐	20915
北侧	20916
北关	20917
北区	20918
北周	20919
北国	20920
北城	20921
北外	20922
北大	20923
北宋	20924
北山	20925
北岛	20926
北岸	20927
北川	20928
北平	20929
北斗	20930
北方	20931
北朝	20932
北条	20933
北极	20934
北欧	20935
北段	20936
北汽	20937
北洋	20938
北流	20939
北海	20940
北湖	20941
北疆	20942
北站	20943
北端	20944
北约	20945
北纬	20946
北美	20947
北航	20948
北街	20949
北路	20950
北辰	20951
北边	20952
北郊	20953
北部	20954
北镇	20955
北门	20956
北非	20957
北面	20958
北风	20959
北魏	20960
北麓	20961
北齐	20962
匝道	20963
匠人	20964
匠心	20965
匪徒	20966
匮乏	20967
匹敌	20968
匹配	20969
区位	20970
区内	20971
区分	20972
区划	20973
区别	20974
区区	20975
区县	20976
区块	20977
区域	20978
区委	20979
区属	20980
区段	20981
区直	20982
区级	20983
区里	20984
区长	20985
区间	20986
医保	20987
医务	20988
医嘱	20989
医大	20990
医学	20991
医家	20992
医师	20993
医德	20994
医患	20995
医技	20996
医护	20997
医改	20998
医术	20999
医案	21000
医治	21001
医生	21002
医用	21003
医疗	21004
医科	21005
医者	21006
医药	21007
医院	21008
匾额	21009
匿名	21010
十一	21011
十七	21012
十万	21013
十三	21014
十个	21015
十九	21016
十二	21017
十五	21018
十位	21019
十余	21020
十佳	21021
十倍	21022
十八	21023
十六	21024
十几	21025
十分	21026
十卷	21027
十号	21028
十名	21029
十四	21030
十堰	21031
十大	21032
十天	21033
十字	21034
十家	21035
十届	21036
十岁	21037
十年	21038
十指	21039
十方	21040
十日	21041
十月	21042
十条	21043
十次	21044
十点	21045
十种	21046
十章	21047
十级	21048
十足	21049
十里	21050
十项	21051
千万	21052
千个	21053
千亩	21054
千亿	21055
千伏	21056
千余	21057
千元	21058
千兆	21059
千克	21060
千卡	21061
千古	21062
千叶	21063
千名	21064
千家	21065
千层	21066
千山	21067
千岁	21068
千年	21069
千户	21070
千斤	21071
千瓦	21072
千秋	21073
千种	21074
千米	21075
千载	21076
千里	21077
千金	21078
升任	21079
升值	21080
升入	21081
升华	21082
升压	21083
升天	21084
升学	21085
升平	21086
升息	21087
升格	21088
升温	21089
升空	21090
升级	21091
升职	21092
升腾	21093
升至	21094
升起	21095
升迁	21096
升降	21097
升高	21098
午休	21099
午后	21100
午夜	21101
午睡	21102
午间	21103
午餐	21104
午饭	21105
半两	21106
半个	21107
半价	21108
半句	21109
半圆	21110
半场	21111
半坡	21112
半夏	21113
半夜	21114
半天	21115
半山	21116
半岛	21117
半年	21118
半径	21119
半截	21120
半数	21121
半斤	21122
半月	21123
半点	21124
半球	21125
半生	21126
半程	21127
半路	21128
半身	21129
半边	21130
半部	21131
华东	21132
华中	21133
华为	21134
华丽	21135
华亭	21136
华人	21137
华佗	21138
华侨	21139
华信	21140
华光	21141
华兴	21142
华北	21143
华南	21144
华商	21145
华夏	21146
华天	21147
华安	21148
华山	21149
华工	21150
华府	21151
华文	21152
华晨	21153
华林	21154
华沙	21155
华泰	21156
华润	21157
华电	21158
华盖	21159
华硕	21160
华章	21161
华纳	21162
华美	21163
华联	21164
华能	21165
华裔	21166
华西	21167
华诞	21168
华语	21169
华谊	21170
华贵	21171
华里	21172
华阳	21173
华龙	21174
协会	21175
协作	21176
协力	21177
协办	21178
协助	21179
协同	21180
协和	21181
协商	21182
协定	21183
协管	21184
协议	21185
协调	21186
卑微	21187
卑鄙	21188
卓然	21189
卓著	21190
卓越	21191
单一	21192
单个	21193
单于	21194
单产	21195
单亲	21196
单人	21197
单价	21198
单位	21199
单体	21200
单侧	21201
单元	21202
单兵	21203
单击	21204
单列	21205
单单	21206
单反	21207
单发	21208
单叶	21209
单向	21210
单子	21211
单字	21212
单宁	21213
单层	21214
单张	21215
单手	21216
单打	21217
单挑	21218
单据	21219
单数	21220
单方	21221
单日	21222
单晶	21223
单月	21224
单机	21225
单板	21226
单果	21227
单株	21228
单核	21229
单点	21230
单独	21231
单生	21232
单相	21233
单碟	21234
单科	21235
单程	21236
单笔	21237
单纯	21238
单线	21239
单色	21240
单薄	21241
单行	21242
单证	21243
单词	21244
单调	21245
单身	21246
单车	21247
单边	21248
单间	21249
单靠	21250
单面	21251
单项	21252
卖出	21253
卖力	21254
卖场	21255
卖家	21256
卖掉	21257
卖方	21258
卖淫	21259
卖点	21260
南下	21261
南丰	21262
南亚	21263
南京	21264
南侧	21265
南充	21266
南关	21267
南北	21268
南区	21269
南华	21270
南县	21271
南口	21272
南向	21273
南唐	21274
南国	21275
南坪	21276
南城	21277
南宁	21278
南安	21279
南宋	21280
南宫	21281
南山	21282
南岭	21283
南岳	21284
南岸	21285
南川	21286
南巡	21287
南平	21288
南康	21289
南开	21290
南方	21291
南昌	21292
南明	21293
南朝	21294
南村	21295
南极	21296
南桥	21297
南段	21298
南江	21299
南沙	21300
南洋	21301
南海	21302
南湖	21303
南湾	21304
南溪	21305
南澳	21306
南瓜	21307
南疆	21308
南站	21309
南端	21310
南粤	21311
南线	21312
南美	21313
南航	21314
南苑	21315
南行	21316
南街	21317
南诏	21318
南越	21319
南路	21320
南边	21321
南通	21322
南郊	21323
南部	21324
南门	21325
南阳	21326
南非	21327
南面	21328
南韩	21329
南风	21330
南麓	21331
博世	21332
博会	21333
博取	21334
博古	21335
博园	21336
博士	21337
博大	21338
博学	21339
博客	21340
博导	21341
博山	21342
博弈	21343
博彩	21344
博得	21345
博拉	21346
博文	21347
博格	21348
博爱	21349
博物	21350
博览	21351
博采	21352
博雅	21353
博鳌	21354
占优	21355
占卜	21356
占地	21357
占据	21358
占星	21359
占有	21360
占用	21361
占领	21362
卡住	21363
卡利	21364
卡卡	21365
卡口	21366
卡号	21367
卡塔	21368
卡尔	21369
卡巴	21370
卡拉	21371
卡斯	21372
卡片	21373
卡特	21374
卡瓦	21375
卡罗	21376
卡西	21377
卡车	21378
卡通	21379
卡里	21380
卡门	21381
卢卡	21382
卢布	21383
卢梭	21384
卢比	21385
卤水	21386
卤素	21387
卧室	21388
卧床	21389
卧底	21390
卧式	21391
卧槽	21392
卧龙	21393
卫兵	21394
卫冕	21395
卫国	21396
卫士	21397
卫报	21398
卫星	21399
卫校	21400
卫浴	21401
卫生	21402
卫视	21403
卫队	21404
印制	21405
印刷	21406
印发	21407
印尼	21408
印度	21409
印有	21410
印染	21411
印章	21412
印花	21413
印记	21414
印证	21415
印象	21416
印迹	21417
危及	21418
危害	21419
危急	21420
危房	21421
危机	21422
危重	21423
危险	21424
危难	21425
即位	21426
即使	21427
即便	21428
即兴	21429
即刻	21430
即可	21431
即墨	21432
即将	21433
即时	21434
即期	21435
却是	21436
却说	21437
卵子	21438
卵巢	21439
卵形	21440
卵泡	21441
卵石	21442
卷上	21443
卷入	21444
卷发	21445
卷子	21446
卷帘	21447
卷曲	21448
卷烟	21449
卷起	21450
卷轴	21451
卷首	21452
卸下	21453
卸任	21454
卸妆	21455
卸载	21456
厂区	21457
厂商	21458
厂址	21459
厂家	21460
厂房	21461
厂牌	21462
厂矿	21463
厂里	21464
厂长	21465
厄尔	21466
厄运	21467
厅堂	21468
厅级	21469
厅长	21470
历代	21471
历任	21472
历史	21473
历城	21474
历官	21475
历尽	21476
历届	21477
历年	21478
历时	21479
历来	21480
历次	21481
历法	21482
历程	21483
历练	21484
历经	21485
历险	21486
厉害	21487
压低	21488
压住	21489
压倒	21490
压制	21491
压力	21492
压实	21493
压差	21494
压强	21495
压抑	21496
压根	21497
压榨	21498
压电	21499
压痛	21500
压缩	21501
压轴	21502
压迫	21503
压铸	21504
厌倦	21505
厌恶	21506
厌烦	21507
厌食	21508
厕所	21509
厘清	21510
厘米	21511
厚实	21512
厚度	21513
厚朴	21514
厚爱	21515
厚薄	21516
厚道	21517
厚重	21518
原产	21519
原件	21520
原价	21521
原位	21522
原作	21523
原先	21524
原则	21525
原创	21526
原发	21527
原名	21528
原告	21529
原味	21530
原因	21531
原图	21532
原地	21533
原址	21534
原型	21535
原始	21536
原子	21537
原定	21538
原形	21539
原意	21540
原文	21541
原料	21542
原有	21543
原木	21544
原本	21545
原来	21546
原样	21547
原油	21548
原点	21549
原煤	21550
原版	21551
原物	21552
原理	21553
原生	21554
原由	21555
原画	21556
原稿	21557
原籍	21558
原罪	21559
原色	21560
原著	21561
原装	21562
原话	21563
原谅	21564
原貌	21565
原配	21566
原野	21567
厢房	21568
厦大	21569
厦门	21570
厨具	21571
厨卫	21572
厨师	21573
厨房	21574
厨艺	21575
厮守	21576
厮杀	21577
去世	21578
去向	21579
去处	21580
去年	21581
去往	21582
去掉	21583
去核	21584
去皮	21585
去过	21586
去除	21587
县乡	21588
县令	21589
县内	21590
县区	21591
县城	21592
县域	21593
县境	21594
县委	21595
县官	21596
县属	21597
县市	21598
县府	21599
县志	21600
县立	21601
县级	21602
县衙	21603
县里	21604
县长	21605
参与	21606
参事	21607
参会	21608
参保	21609
参军	21610
参加	21611
参合	21612
参天	21613
参展	21614
参差	21615
参战	21616
参拜	21617
参政	21618
参数	21619
参演	21620
参照	21621
参看	21622
参编	21623
参考	21624
参股	21625
参见	21626
参观	21627
参议	21628
参评	21629
参谋	21630
参赛	21631
参赞	21632
参选	21633
参阅	21634
又名	21635
又称	21636
叉车	21637
及其	21638
及早	21639
及时	21640
及格	21641
及第	21642
及至	21643
友人	21644
友军	21645
友善	21646
友好	21647
友情	21648
友爱	21649
友谊	21650
双亲	21651
双人	21652
双倍	21653
双击	21654
双十	21655
双双	21656
双向	21657
双唇	21658
双城	21659
双塔	21660
双头	21661
双子	21662
双层	21663
双峰	21664
双手	21665
双打	21666
双拥	21667
双排	21668
双方	21669
双星	21670
双核	21671
双桥	21672
双模	21673
双流	21674
双溪	21675
双生	21676
双百	21677
双目	21678
双眸	21679
双眼	21680
双线	21681
双翼	21682
双联	21683
双肩	21684
双脚	21685
双腿	21686
双臂	21687
双语	21688
双赢	21689
双边	21690
双重	21691
双面	21692
双顶	21693
双鱼	21694
双龙	21695
反之	21696
反倒	21697
反光	21698
反共	21699
反击	21700
反动	21701
反叛	21702
反向	21703
反响	21704
反复	21705
反对	21706
反导	21707
反射	21708
反差	21709
反帝	21710
反常	21711
反应	21712
反弹	21713
反思	21714
反恐	21715
反悔	21716
反感	21717
反战	21718
反手	21719
反扑	21720
反抗	21721
反攻	21722
反映	21723
反正	21724
反派	21725
反潜	21726
反省	21727
反而	21728
反腐	21729
反观	21730
反超	21731
反转	21732
反问	21733
反面	21734
反馈	21735
反驳	21736
发丝	21737
发亮	21738
发作	21739
发债	21740
发光	21741
发兵	21742
发出	21743
发到	21744
发动	21745
发包	21746
发卡	21747
发呆	21748
发售	21749
发型	21750
发声	21751
发射	21752
发展	21753
发布	21754
发帖	21755
发怒	21756
发情	21757
发愁	21758
发扬	21759
发抖	21760
发挥	21761
发掘	21762
发放	21763
发散	21764
发文	21765
发明	21766
发条	21767
发来	21768
发汗	21769
发泄	21770
发泡	21771
发源	21772
发火	21773
发炎	21774
发烧	21775
发热	21776
发现	21777
发球	21778
发生	21779
发电	21780
发疯	21781
发病	21782
发痒	21783
发白	21784
发票	21785
发稿	21786
发端	21787
发红	21788
发给	21789
发育	21790
发胖	21791
发自	21792
发芽	21793
发行	21794
发表	21795
发觉	21796
发言	21797
发誓	21798
发证	21799
发财	21800
发货	21801
发起	21802
发车	21803
发达	21804
发迹	21805
发送	21806
发酵	21807
发问	21808
发际	21809
发霉	21810
发音	21811
发髻	21812
发黄	21813
发黑	21814
叔叔	21815
叔父	21816
取代	21817
取值	21818
取出	21819
取名	21820
取向	21821
取回	21822
取土	21823
取得	21824
取悦	21825
取景	21826
取暖	21827
取材	21828
取样	21829
取款	21830
取水	21831
取消	21832
取现	21833
取用	21834
取笑	21835
取经	21836
取缔	21837
取胜	21838
取自	21839
取舍	21840
取证	21841
取食	21842
受众	21843
受伤	21844
受体	21845
受凉	21846
受到	21847
受力	21848
受助	21849
受压	21850
受命	21851
受孕	21852
受宠	21853
受审	21854
受害	21855
受尽	21856
受惠	21857
受托	21858
受挫	21859
受损	21860
受控	21861
受潮	21862
受灾	21863
受热	21864
受理	21865
受用	21866
受益	21867
受精	21868
受累	21869
受聘	21870
受苦	21871
受让	21872
受训	21873
受访	21874
受贿	21875
受过	21876
受邀	21877
受阻	21878
受限	21879
受雇	21880
受骗	21881
变为	21882
变体	21883
变动	21884
变化	21885
变卖	21886
变坏	21887
变型	21888
变小	21889
变幻	21890
变异	21891
变强	21892
变形	21893
变得	21894
变态	21895
变性	21896
变成	21897
变换	21898
变故	21899
变数	21900
变暖	21901
变更	21902
变法	21903
变焦	21904
变现	21905
变电	21906
变白	21907
变相	21908
变硬	21909
变种	21910
变脸	21911
变色	21912
变质	21913
变迁	21914
变通	21915
变速	21916
变造	21917
变量	21918
变革	21919
变频	21920
叙事	21921
叙述	21922
叛乱	21923
叛军	21924
叛变	21925
叛徒	21926
叛逆	21927
叠加	21928
叠翠	21929
口中	21930
口令	21931
口号	21932
口吃	21933
口吻	21934
口味	21935
口头	21936
口子	21937
口岸	21938
口径	21939
口感	21940
口才	21941
口服	21942
口气	21943
口水	21944
口渴	21945
口琴	21946
口碑	21947
口粮	21948
口红	21949
口罩	21950
口腔	21951
口臭	21952
口舌	21953
口蘑	21954
口袋	21955
口角	21956
口诀	21957
口译	21958
口语	21959
口述	21960
口镇	21961
口音	21962
古书	21963
古井	21964
古人	21965
古今	21966
古代	21967
古典	21968
古刹	21969
古力	21970
古国	21971
古城	21972
古堡	21973
古塔	21974
古墓	21975
古寺	21976
古巴	21977
古庙	21978
古建	21979
古怪	21980
古拉	21981
古文	21982
古方	21983
古时	21984
古朴	21985
古来	21986
古树	21987
古桥	21988
古玩	21989
古琴	21990
古田	21991
古称	21992
古筝	21993
古籍	21994
古老	21995
古董	21996
古装	21997
古诗	21998
古迹	21999
古道	22000
古都	22001
古镇	22002
古风	22003
古龙	22004
句句	22005
句号	22006
句型	22007
句子	22008
句式	22009
句法	22010
另外	22011
另类	22012
另行	22013
只好	22014
只得	22015
只怕	22016
只是	22017
只有	22018
只求	22019
只用	22020
只管	22021
只能	22022
只要	22023
只见	22024
只读	22025
只身	22026
只限	22027
只顾	22028
叫作	22029
叫做	22030
叫停	22031
叫嚣	22032
叫声	22033
叫好	22034
叫法	22035
叫醒	22036
召唤	22037
召回	22038
召开	22039
召见	22040
召集	22041
叮咬	22042
叮嘱	22043
可不	22044
可乐	22045
可以	22046
可信	22047
可取	22048
可变	22049
可口	22050
可可	22051
可否	22052
可喜	22053
可好	22054
可循	22055
可怕	22056
可怜	22057
可恨	22058
可恶	22059
可悲	22060
可惜	22061
可控	22062
可是	22063
可望	22064
可比	22065
可汗	22066
可溶	22067
可燃	22068
可爱	22069
可用	22070
可疑	22071
可知	22072
可笑	22073
可耻	22074
可能	22075
可行	22076
可见	22077
可观	22078
可视	22079
可言	22080
可调	22081
可谓	22082
可贵	22083
可辨	22084
可逆	22085
可靠	22086
台上	22087
台下	22088
台东	22089
台前	22090
台北	22091
台南	22092
台商	22093
台地	22094
台基	22095
台大	22096
台子	22097
台山	22098
台州	22099
台式	22100
台海	22101
台湾	22102
台灯	22103
台独	22104
台球	22105
台站	22106
台网	22107
台词	22108
台语	22109
台资	22110
台车	22111
台长	22112
台阶	22113
台面	22114
台风	22115
叱咤	22116
史书	22117
史册	22118
史前	22119
史学	22120
史官	22121
史实	22122
史家	22123
史志	22124
史料	22125
史籍	22126
史记	22127
史论	22128
史诗	22129
史话	22130
史迹	22131
右侧	22132
右卫	22133
右图	22134
右岸	22135
右手	22136
右派	22137
右眼	22138
右翼	22139
右脑	22140
右脚	22141
右腿	22142
右臂	22143
右路	22144
右边	22145
右键	22146
叶子	22147
叶柄	22148
叶片	22149
叶状	22150
叶脉	22151
叶腋	22152
叶色	22153
叶轮	22154
叶酸	22155
叶面	22156
叶鞘	22157
号令	22158
号召	22159
号子	22160
号牌	22161
号码	22162
号称	22163
号角	22164
司令	22165
司仪	22166
司徒	22167
司机	22168
司法	22169
司空	22170
司职	22171
司长	22172
司马	22173
叹息	22174
吃亏	22175
吃力	22176
吃喝	22177
吃惊	22178
吃掉	22179
吃水	22180
吃法	22181
吃素	22182
吃苦	22183
吃药	22184
吃醋	22185
吃饭	22186
吃香	22187
各个	22188
各乡	22189
各人	22190
各位	22191
各区	22192
各县	22193
各国	22194
各地	22195
各型	22196
各处	22197
各家	22198
各州	22199
各市	22200
各庄	22201
各异	22202
各式	22203
各方	22204
各族	22205
各村	22206
各校	22207
各派	22208
各界	22209
各省	22210
各种	22211
各科	22212
各章	22213
各类	22214
各级	22215
各组	22216
各自	22217
各色	22218
各路	22219
各部	22220
各镇	22221
各门	22222
各项	22223
吆喝	22224
合一	22225
合为	22226
合乎	22227
合伙	22228
合体	22229
合作	22230
合剂	22231
合力	22232
合办	22233
合同	22234
合唱	22235
合围	22236
合奏	22237
合川	22238
合并	22239
合影	22240
合成	22241
合拍	22242
合格	22243
合欢	22244
合法	22245
合流	22246
合照	22247
合理	22248
合用	22249
合租	22250
合称	22251
合约	22252
合编	22253
合署	22254
合群	22255
合肥	22256
合营	22257
合著	22258
合葬	22259
合规	22260
合计	22261
合资	22262
合适	22263
合金	22264
合集	22265
吉他	22266
吉凶	22267
吉利	22268
吉士	22269
吉姆	22270
吉安	22271
吉恩	22272
吉斯	22273
吉日	22274
吉林	22275
吉祥	22276
吉米	22277
吉首	22278
吊带	22279
吊打	22280
吊桥	22281
吊灯	22282
吊装	22283
吊车	22284
吊销	22285
吊顶	22286
同一	22287
同业	22288
同乐	22289
同乡	22290
同事	22291
同仁	22292
同伙	22293
同伴	22294
同僚	22295
同化	22296
同台	22297
同名	22298
同声	22299
同学	22300
同安	22301
同居	22302
同属	22303
同年	22304
同心	22305
同志	22306
同性	22307
同情	22308
同意	22309
同房	22310
同日	22311
同时	22312
同月	22313
同期	22314
同样	22315
同桌	22316
同步	22317
同比	22318
同治	22319
同济	22320
同源	22321
同班	22322
同理	22323
同盟	22324
同知	22325
同种	22326
同等	22327
同类	22328
同级	22329
同胞	22330
同行	22331
同调	22332
同轴	22333
同辈	22334
同道	22335
同门	22336
同音	22337
同龄	22338
名下	22339
名为	22340
名义	22341
名人	22342
名企	22343
名优	22344
名作	22345
名典	22346
名册	22347
名列	22348
名利	22349
名医	22350
名单	22351
名厨	22352
名句	22353
名叫	22354
名号	22355
名品	22356
名城	22357
名士	22358
名声	22359
名头	22360
名媛	22361
名字	22362
名家	22363
名将	22364
名山	22365
名师	22366
名店	22367
名录	22368
名扬	22369
名曰	22370
名曲	22371
名望	22372
名校	22373
名模	22374
名次	22375
名气	22376
名流	22377
名片	22378
名牌	22379
名画	22380
名目	22381
名称	22382
名篇	22383
名胜	22384
名臣	22385
名茶	22386
名菜	22387
名著	22388
名表	22389
名言	22390
名誉	22391
名词	22392
名贵	22393
名车	22394
名酒	22395
名门	22396
名额	22397
后世	22398
后主	22399
后事	22400
后人	22401
后代	22402
后任	22403
后侧	22404
后劲	22405
后勤	22406
后卫	22407
后发	22408
后台	22409
后周	22410
后唐	22411
后场	22412
后备	22413
后天	22414
后头	22415
后妃	22416
后妈	22417
后宫	22418
后山	22419
后市	22420
后座	22421
后悔	22422
后排	22423
后方	22424
后期	22425
后来	22426
后果	22427
后汉	22428
后生	22429
后盾	22430
后继	22431
后续	22432
后缀	22433
后缘	22434
后置	22435
后羿	22436
后者	22437
后肢	22438
后背	22439
后腰	22440
后腿	22441
后裔	22442
后记	22443
后路	22444
后轮	22445
后辈	22446
后边	22447
后进	22448
后退	22449
后部	22450
后金	22451
后门	22452
后院	22453
后面	22454
吏部	22455
吐司	22456
吐蕃	22457
吐血	22458
吐露	22459
向上	22460
向下	22461
向东	22462
向前	22463
向善	22464
向导	22465
向往	22466
向来	22467
向着	22468
向量	22469
向阳	22470
吓人	22471
吓唬	22472
吓坏	22473
吕布	22474
吕梁	22475
吗啡	22476
君主	22477
君子	22478
君王	22479
君臣	22480
吝啬	22481
吞咽	22482
吞噬	22483
吞并	22484
吞没	22485
吞食	22486
吟咏	22487
吟唱	22488
吟诗	22489
吟诵	22490
吡啶	22491
否决	22492
否则	22493
否定	22494
否认	22495
吧台	22496
吨位	22497
吨级	22498
吩咐	22499
含义	22500
含有	22501
含水	22502
含油	22503
含泪	22504
含笑	22505
含糊	22506
含糖	22507
含蓄	22508
含量	22509
含铁	22510
听从	22511
听众	22512
听信	22513
听写	22514
听到	22515
听力	22516
听取	22517
听听	22518
听懂	22519
听歌	22520
听者	22521
听见	22522
听觉	22523
听讲	22524
听证	22525
听话	22526
听说	22527
听课	22528
听闻	22529
启东	22530
启功	22531
启动	22532
启发	22533
启明	22534
启用	22535
启示	22536
启程	22537
启航	22538
启蒙	22539
启迪	22540
启闭	22541
吲哚	22542
吴中	22543
吴兴	22544
吴县	22545
吴国	22546
吴江	22547
吴起	22548
吴越	22549
吵架	22550
吵闹	22551
吸入	22552
吸取	22553
吸引	22554
吸收	22555
吸毒	22556
吸气	22557
吸水	22558
吸湿	22559
吸烟	22560
吸盘	22561
吸管	22562
吸纳	22563
吸附	22564
吸食	22565
吹响	22566
吹嘘	22567
吹奏	22568
吹捧	22569
吹牛	22570
吹风	22571
吻合	22572
呆板	22573
呆滞	22574
呈报	22575
呈现	22576
告别	22577
告密	22578
告急	22579
告状	22580
告白	22581
告知	22582
告示	22583
告终	22584
告警	22585
告诉	22586
告诫	22587
呐喊	22588
呕吐	22589
员外	22590
员工	22591
呜呜	22592
呜呼	22593
周一	22594
周三	22595
周二	22596
周五	22597
周代	22598
周全	22599
周六	22600
周刊	22601
周初	22602
周到	22603
周口	22604
周四	22605
周围	22606
周家	22607
周密	22608
周岁	22609
周年	22610
周庄	22611
周报	22612
周旋	22613
周日	22614
周易	22615
周朝	22616
周期	22617
周末	22618
周瑜	22619
周礼	22620
周身	22621
周转	22622
周边	22623
周遭	22624
周长	22625
味儿	22626
味精	22627
味苦	22628
味蕾	22629
味觉	22630
味道	22631
呵呵	22632
呵护	22633
呻吟	22634
呼叫	22635
呼吁	22636
呼吸	22637
呼呼	22638
呼唤	22639
呼啸	22640
呼喊	22641
呼声	22642
呼应	22643
呼救	22644
呼气	22645
命中	22646
命令	22647
命名	22648
命案	22649
命理	22650
命脉	22651
命运	22652
命题	22653
咀嚼	22654
咆哮	22655
和亲	22656
和县	22657
和善	22658
和尚	22659
和平	22660
和弦	22661
和服	22662
和田	22663
和睦	22664
和约	22665
和蔼	22666
和解	22667
和谈	22668
和谐	22669
和顺	22670
咒语	22671
咖啡	22672
咖喱	22673
咨询	22674
咪咪	22675
咫尺	22676
咬伤	22677
咬住	22678
咬合	22679
咬牙	22680
咯血	22681
咱们	22682
咳嗽	22683
咸丰	22684
咸味	22685
咸宁	22686
咸水	22687
咸菜	22688
咸蛋	22689
咸阳	22690
咸鱼	22691
咽喉	22692
咽炎	22693
咽部	22694
哀伤	22695
哀怨	22696
哀悼	22697
品位	22698
品名	22699
品味	22700
品尝	22701
品德	22702
品性	22703
品格	22704
品牌	22705
品种	22706
品类	22707
品系	22708
品级	22709
品茗	22710
品茶	22711
品行	22712
品评	22713
品读	22714
品质	22715
品酒	22716
品鉴	22717
哈佛	22718
哈利	22719
哈哈	22720
哈密	22721
哈尔	22722
哈尼	22723
哈市	22724
哈德	22725
哈拉	22726
哈斯	22727
哈特	22728
哈登	22729
哈达	22730
哈里	22731
响亮	22732
响声	22733
响应	22734
响彻	22735
响起	22736
哎呀	22737
哎哟	22738
哑巴	22739
哑铃	22740
哥们	22741
哥哥	22742
哥特	22743
哨兵	22744
哪个	22745
哪些	22746
哪位	22747
哪儿	22748
哪吒	22749
哪家	22750
哪怕	22751
哪里	22752
哭声	22753
哭泣	22754
哭诉	22755
哭闹	22756
哮喘	22757
哲人	22758
哲学	22759
哲理	22760
哺乳	22761
哺育	22762
哼哼	22763
哽咽	22764
唇膏	22765
唇部	22766
唏嘘	22767
唐人	22768
唐代	22769
唐僧	22770
唐宋	22771
唐朝	22772
唐末	22773
唐诗	22774
唠叨	22775
唢呐	22776
唤起	22777
唤醒	22778
售价	22779
售出	22780
售卖	22781
售后	22782
售楼	22783
售票	22784
售罄	22785
唯一	22786
唯恐	22787
唯有	22788
唯独	22789
唯美	22790
唱功	22791
唱和	22792
唱响	22793
唱戏	22794
唱歌	22795
唱法	22796
唱片	22797
唱腔	22798
唱词	22799
唱起	22800
唾弃	22801
唾液	22802
商丘	22803
商业	22804
商事	22805
商人	22806
商代	22807
商会	22808
商住	22809
商务	22810
商厦	22811
商号	22812
商周	22813
商品	22814
商圈	22815
商场	22816
商城	22817
商定	22818
商家	22819
商店	22820
商战	22821
商户	22822
商报	22823
商旅	22824
商朝	22825
商机	22826
商标	22827
商检	22828
商榷	22829
商法	22830
商洛	22831
商海	22832
商用	22833
商界	22834
商科	22835
商船	22836
商行	22837
商誉	22838
商讨	22839
商议	22840
商谈	22841
商贩	22842
商贸	22843
商贾	22844
商道	22845
商都	22846
商量	22847
商铺	22848
商鞅	22849
啤酒	22850
啧啧	22851
啪啪	22852
啮合	22853
啰嗦	22854
喀什	22855
喀山	22856
喂养	22857
喂奶	22858
喂食	22859
善举	22860
善事	22861
善于	22862
善人	22863
善后	22864
善待	22865
善心	22866
善恶	22867
善意	22868
善本	22869
善款	22870
善用	22871
善良	22872
善行	22873
喇叭	22874
喇嘛	22875
喉咙	22876
喉科	22877
喉部	22878
喊话	22879
喊道	22880
喘息	22881
喜乐	22882
喜事	22883
喜人	22884
喜剧	22885
喜好	22886
喜庆	22887
喜悦	22888
喜欢	22889
喜爱	22890
喜讯	22891
喜鹊	22892
喝彩	22893
喝水	22894
喝汤	22895
喝茶	22896
喝酒	22897
喝醉	22898
喧哗	22899
喧嚣	22900
喧闹	22901
喷出	22902
喷发	22903
喷嘴	22904
喷墨	22905
喷头	22906
喷射	22907
喷气	22908
喷水	22909
喷泉	22910
喷洒	22911
喷涂	22912
喷漆	22913
喷火	22914
喷雾	22915
喻为	22916
嗅觉	22917
嗓子	22918
嗓音	22919
嗜好	22920
嗜睡	22921
嘈杂	22922
嘉义	22923
嘉兴	22924
嘉华	22925
嘉奖	22926
嘉定	22927
嘉宾	22928
嘉庆	22929
嘉禾	22930
嘉靖	22931
嘌呤	22932
嘟嘟	22933
嘧啶	22934
嘱咐	22935
嘲笑	22936
嘲讽	22937
嘴唇	22938
嘴巴	22939
嘴角	22940
嘴边	22941
嘴里	22942
嘻嘻	22943
嘿嘿	22944
器乐	22945
器件	22946
器具	22947
器官	22948
器材	22949
器械	22950
器物	22951
器皿	22952
器重	22953
噩梦	22954
噩耗	22955
噪声	22956
噪音	22957
噱头	22958
嚣张	22959
嚷嚷	22960
囊中	22961
囊括	22962
囊肿	22963
囚徒	22964
囚犯	22965
囚禁	22966
四世	22967
四个	22968
四中	22969
四书	22970
四五	22971
四代	22972
四位	22973
四分	22974
四化	22975
四区	22976
四十	22977
四千	22978
四卷	22979
四口	22980
四句	22981
四只	22982
四号	22983
四合	22984
四名	22985
四周	22986
四品	22987
四国	22988
四场	22989
四块	22990
四壁	22991
四处	22992
四大	22993
四天	22994
四季	22995
四家	22996
四射	22997
四层	22998
四届	22999
四岁	23000
四川	23001
四平	23002
四年	23003
四库	23004
四座	23005
四张	23006
四成	23007
四方	23008
四日	23009
四时	23010
四星	23011
四月	23012
四期	23013
四条	23014
四柱	23015
四楼	23016
四次	23017
四款	23018
四段	23019
四海	23020
四溢	23021
四点	23022
四环	23023
四百	23024
四种	23025
四章	23026
四等	23027
四篇	23028
四类	23029
四级	23030
四线	23031
四组	23032
四维	23033
四肢	23034
四至	23035
四色	23036
四角	23037
四起	23038
四路	23039
四轮	23040
四通	23041
四道	23042
四部	23043
四门	23044
四面	23045
四项	23046
四首	23047
回乡	23048
回事	23049
回信	23050
回击	23051
回到	23052
回升	23053
回去	23054
回合	23055
回味	23056
回响	23057
回国	23058
回城	23059
回填	23060
回声	23061
回复	23062
回头	23063
回家	23064
回应	23065
回廊	23066
回归	23067
回忆	23068
回想	23069
回扣	23070
回执	23071
回报	23072
回撤	23073
回收	23074
回放	23075
回旋	23076
回族	23077
回暖	23078
回望	23079
回来	23080
回民	23081
回流	23082
回溯	23083
回火	23084
回眸	23085
回程	23086
回答	23087
回荡	23088
回落	23089
回访	23090
回调	23091
回购	23092
回路	23093
回车	23094
回转	23095
回过	23096
回避	23097
回音	23098
回顾	23099
回馈	23100
回首	23101
回鹘	23102
回龙	23103
因为	23104
因子	23105
因应	23106
因故	23107
因果	23108
因此	23109
因素	23110
因缘	23111
因而	23112
团伙	23113
团体	23114
团员	23115
团团	23116
团圆	23117
团委	23118
团练	23119
团结	23120
团聚	23121
团购	23122
团长	23123
团队	23124
囤积	23125
园丁	23126
园中	23127
园内	23128
园区	23129
园地	23130
园子	23131
园林	23132
园艺	23133
园里	23134
园长	23135
困境	23136
困局	23137
困惑	23138
困扰	23139
困苦	23140
困难	23141
困顿	23142
围住	23143
围剿	23144
围困	23145
围城	23146
围堵	23147
围墙	23148
围岩	23149
围巾	23150
围攻	23151
围栏	23152
围棋	23153
围着	23154
围绕	23155
围裙	23156
围观	23157
固件	23158
固体	23159
固化	23160
固原	23161
固守	23162
固定	23163
固态	23164
固执	23165
固有	23166
固然	23167
国事	23168
国产	23169
国人	23170
国企	23171
国会	23172
国信	23173
国债	23174
国光	23175
国共	23176
国内	23177
国军	23178
国别	23179
国力	23180
国医	23181
国华	23182
国史	23183
国号	23184
国名	23185
国君	23186
国土	23187
国境	23188
国外	23189
国学	23190
国安	23191
国宝	23192
国家	23193
国师	23194
国庆	23195
国库	23196
国度	23197
国徽	23198
国情	23199
国投	23200
国政	23201
国文	23202
国旅	23203
国旗	23204
国有	23205
国标	23206
国歌	23207
国民	23208
国泰	23209
国王	23210
国电	23211
国画	23212
国界	23213
国税	23214
国立	23215
国籍	23216
国粹	23217
国美	23218
国联	23219
国脚	23220
国航	23221
国药	23222
国营	23223
国语	23224
国货	23225
国贸	23226
国资	23227
国道	23228
国门	23229
国防	23230
国际	23231
国风	23232
图书	23233
图像	23234
图册	23235
图尔	23236
图库	23237
图形	23238
图文	23239
图斯	23240
图景	23241
图标	23242
图样	23243
图案	23244
图片	23245
图版	23246
图画	23247
图示	23248
图纸	23249
图腾	23250
图表	23251
图解	23252
图说	23253
图谋	23254
图谱	23255
图象	23256
图鉴	23257
图集	23258
圆周	23259
圆圆	23260
圆圈	23261
圆寂	23262
圆弧	23263
圆形	23264
圆心	23265
圆柱	23266
圆桌	23267
圆梦	23268
圆润	23269
圆滑	23270
圆满	23271
圆点	23272
圆状	23273
圆环	23274
圆球	23275
圆盘	23276
圆筒	23277
圆融	23278
圆通	23279
圆锥	23280
圆顶	23281
圆领	23282
圈养	23283
圈圈	23284
圈地	23285
圈套	23286
圈子	23287
圈里	23288
土匪	23289
土司	23290
土地	23291
土城	23292
土壤	23293
土家	23294
土层	23295
土工	23296
[...]
